{
  "version": "1.0",
  "truncation": null,
  "padding": null,
  "added_tokens": [],
  "normalizer": {
    "type": "Sequence",
    "normalizers": [
      {
        "type": "NFKC"
      },
      {
        "type": "Lowercase"
      },
      {
        "type": "StripAccents"
      }
    ]
  },
  "pre_tokenizer": {
    "type": "Sequence",
    "pretokenizers": [
      {
        "type": "ByteLevel",
        "add_prefix_space": true,
        "trim_offsets": true,
        "use_regex": true
      },
      {
        "type": "Digits",
        "individual_digits": true
      }
    ]
  },
  "post_processor": {
    "type": "ByteLevel",
    "add_prefix_space": true,
    "trim_offsets": true,
    "use_regex": true
  },
  "decoder": {
    "type": "Sequence",
    "decoders": [
      {
        "type": "ByteLevel",
        "add_prefix_space": true,
        "trim_offsets": true,
        "use_regex": true
      }
    ]
  },
  "model": {
    "type": "BPE",
    "dropout": null,
    "unk_token": null,
    "continuing_subword_prefix": null,
    "end_of_word_suffix": null,
    "fuse_unk": false,
    "byte_fallback": false,
    "vocab": {
      "!": 0,
      "\"": 1,
      "#": 2,
      "$": 3,
      "%": 4,
      "&": 5,
      "'": 6,
      "(": 7,
      ")": 8,
      "*": 9,
      "+": 10,
      ",": 11,
      "-": 12,
      ".": 13,
      "/": 14,
      "0": 15,
      "1": 16,
      "2": 17,
      "3": 18,
      "4": 19,
      "5": 20,
      "6": 21,
      "7": 22,
      "8": 23,
      "9": 24,
      ":": 25,
      ";": 26,
      "<": 27,
      "=": 28,
      ">": 29,
      "?": 30,
      "@": 31,
      "[": 32,
      "\\": 33,
      "]": 34,
      "^": 35,
      "_": 36,
      "`": 37,
      "a": 38,
      "b": 39,
      "c": 40,
      "d": 41,
      "e": 42,
      "f": 43,
      "g": 44,
      "h": 45,
      "i": 46,
      "j": 47,
      "k": 48,
      "l": 49,
      "m": 50,
      "n": 51,
      "o": 52,
      "p": 53,
      "q": 54,
      "r": 55,
      "s": 56,
      "t": 57,
      "u": 58,
      "v": 59,
      "w": 60,
      "x": 61,
      "y": 62,
      "z": 63,
      "{": 64,
      "|": 65,
      "}": 66,
      "~": 67,
      "¡": 68,
      "¢": 69,
      "£": 70,
      "¤": 71,
      "¥": 72,
      "¦": 73,
      "§": 74,
      "¨": 75,
      "©": 76,
      "ª": 77,
      "«": 78,
      "¬": 79,
      "®": 80,
      "¯": 81,
      "°": 82,
      "±": 83,
      "²": 84,
      "³": 85,
      "´": 86,
      "µ": 87,
      "¶": 88,
      "·": 89,
      "¸": 90,
      "¹": 91,
      "º": 92,
      "»": 93,
      "¼": 94,
      "½": 95,
      "¾": 96,
      "¿": 97,
      "Â": 98,
      "Ã": 99,
      "Ä": 100,
      "Å": 101,
      "Æ": 102,
      "Ç": 103,
      "È": 104,
      "É": 105,
      "Ê": 106,
      "Ë": 107,
      "Í": 108,
      "Î": 109,
      "Ï": 110,
      "Ð": 111,
      "Ñ": 112,
      "Ò": 113,
      "Ó": 114,
      "Ô": 115,
      "Õ": 116,
      "Ö": 117,
      "×": 118,
      "Ø": 119,
      "Ù": 120,
      "Ú": 121,
      "Û": 122,
      "Ü": 123,
      "Ý": 124,
      "Þ": 125,
      "ß": 126,
      "à": 127,
      "á": 128,
      "â": 129,
      "ã": 130,
      "ä": 131,
      "å": 132,
      "æ": 133,
      "ç": 134,
      "è": 135,
      "é": 136,
      "ê": 137,
      "ë": 138,
      "ì": 139,
      "í": 140,
      "î": 141,
      "ï": 142,
      "ð": 143,
      "ô": 144,
      "ā": 145,
      "Ă": 146,
      "ă": 147,
      "ą": 148,
      "Ć": 149,
      "ć": 150,
      "Ĉ": 151,
      "ĉ": 152,
      "Ċ": 153,
      "Č": 154,
      "č": 155,
      "ď": 156,
      "Ē": 157,
      "ē": 158,
      "Ė": 159,
      "Ę": 160,
      "ę": 161,
      "Ě": 162,
      "ě": 163,
      "ĝ": 164,
      "Ğ": 165,
      "ğ": 166,
      "Ġ": 167,
      "ġ": 168,
      "Ģ": 169,
      "ģ": 170,
      "Ĥ": 171,
      "ĥ": 172,
      "Ħ": 173,
      "ħ": 174,
      "Ĩ": 175,
      "ĩ": 176,
      "Ī": 177,
      "ī": 178,
      "Ĭ": 179,
      "ĭ": 180,
      "Į": 181,
      "į": 182,
      "İ": 183,
      "ı": 184,
      "Ĳ": 185,
      "ĳ": 186,
      "Ĵ": 187,
      "ĵ": 188,
      "Ķ": 189,
      "ķ": 190,
      "ĸ": 191,
      "Ĺ": 192,
      "ĺ": 193,
      "Ļ": 194,
      "ļ": 195,
      "Ľ": 196,
      "ľ": 197,
      "Ŀ": 198,
      "ŀ": 199,
      "Ł": 200,
      "ł": 201,
      "Ń": 202,
      "ĠĠ": 203,
      "ĠĠĠĠ": 204,
      "Ġt": 205,
      "in": 206,
      "Ġa": 207,
      "er": 208,
      "ĠĠĠ": 209,
      "on": 210,
      "re": 211,
      "Ġs": 212,
      "he": 213,
      "at": 214,
      "ĠĠĠĠĠĠĠĠ": 215,
      "or": 216,
      "Ġc": 217,
      "en": 218,
      "Ġthe": 219,
      "ou": 220,
      "es": 221,
      "Ġf": 222,
      "an": 223,
      "it": 224,
      "Ġp": 225,
      "el": 226,
      "al": 227,
      "is": 228,
      "Ġw": 229,
      "ar": 230,
      "Ġb": 231,
      "Ġd": 232,
      "ĠĠĠĠĠĠĠ": 233,
      "Ġm": 234,
      "Ġo": 235,
      "ed": 236,
      "Ġin": 237,
      "ing": 238,
      "le": 239,
      "ĊĠĠĠĠĠĠĠ": 240,
      "ion": 241,
      "Ġ=": 242,
      "as": 243,
      "ic": 244,
      "ĊĠĠĠĠĠĠĠĠ": 245,
      "Ġan": 246,
      "et": 247,
      "ro": 248,
      "Ġn": 249,
      "Ġto": 250,
      "Ġy": 251,
      "ĊĠĠĠ": 252,
      "Ġof": 253,
      "st": 254,
      "Ġl": 255,
      "am": 256,
      "Ġyou": 257,
      "Ġre": 258,
      "Ġh": 259,
      "Ġand": 260,
      "il": 261,
      "im": 262,
      "ent": 263,
      "ct": 264,
      "elf": 265,
      "id": 266,
      "Ġg": 267,
      "if": 268,
      "om": 269,
      "Ġth": 270,
      "se": 271,
      "ur": 272,
      "Ġe": 273,
      "ot": 274,
      "ad": 275,
      "ol": 276,
      "Ġ\"": 277,
      "ch": 278,
      "ut": 279,
      "ig": 280,
      "ĊĠĠĠĠĠĠĠĠĠĠĠ": 281,
      "ce": 282,
      "Ġfor": 283,
      "od": 284,
      "Ġu": 285,
      "ra": 286,
      "Ġst": 287,
      "--": 288,
      "Ġ'": 289,
      "Ġ(": 290,
      "ve": 291,
      "lo": 292,
      "Ġis": 293,
      "Ġself": 294,
      "ay": 295,
      "pe": 296,
      "ation": 297,
      "ul": 298,
      "est": 299,
      "um": 300,
      "ef": 301,
      "ver": 302,
      "ort": 303,
      "ag": 304,
      "Ġon": 305,
      "ist": 306,
      "Ġas": 307,
      "ir": 308,
      "##": 309,
      "ate": 310,
      "th": 311,
      "Ġyour": 312,
      "ame": 313,
      "):": 314,
      "ly": 315,
      "Ġif": 316,
      "Ġbe": 317,
      "ith": 318,
      "ke": 319,
      "ab": 320,
      "ter": 321,
      "ck": 322,
      "em": 323,
      "ex": 324,
      "Ġor": 325,
      "rom": 326,
      "qu": 327,
      "Ġit": 328,
      "un": 329,
      "Ġv": 330,
      "Ġr": 331,
      "ow": 332,
      "res": 333,
      "us": 334,
      "Ġcon": 335,
      "ers": 336,
      "port": 337,
      "ri": 338,
      "out": 339,
      "',": 340,
      "Ġal": 341,
      "op": 342,
      "ap": 343,
      "self": 344,
      "Ġwith": 345,
      "ĊĠĠĠĠĠĠĠĠĠĠĠĠĠĠĠĠ": 346,
      "and": 347,
      "()": 348,
      "ue": 349,
      "Ġ#": 350,
      "ĊĊ": 351,
      "ess": 352,
      "int": 353,
      "pl": 354,
      "oun": 355,
      "ect": 356,
      "Ġthat": 357,
      "ass": 358,
      "ill": 359,
      "end": 360,
      "),": 361,
      "one": 362,
      "Ġwh": 363,
      "Ġhe": 364,
      "urn": 365,
      "pt": 366,
      "Ġex": 367,
      "con": 368,
      "ht": 369,
      "os": 370,
      "âĢ": 371,
      "Ġj": 372,
      "ĊĊĠĠĠ": 373,
      "ĊĠĠĠĠĠĠĠĠĠĠĠĠĠĠĠ": 374,
      "cl": 375,
      "Ġim": 376,
      "Ġpro": 377,
      "\",": 378,
      "Ġch": 379,
      "turn": 380,
      "----": 381,
      "Ġdef": 382,
      "Ġcom": 383,
      "iz": 384,
      "art": 385,
      "Ġnot": 386,
      "ore": 387,
      "\"\"": 388,
      "Ġat": 389,
      "Ġare": 390,
      "all": 391,
      "ath": 392,
      "ile": 393,
      "ata": 394,
      "Ġk": 395,
      "__": 396,
      "age": 397,
      "Ġne": 398,
      "Ġsu": 399,
      "ty": 400,
      "Ġsh": 401,
      "Ġreturn": 402,
      "Ġcan": 403,
      "name": 404,
      "==": 405,
      "get": 406,
      "Ġse": 407,
      "ain": 408,
      "Ġun": 409,
      "ight": 410,
      "Ġde": 411,
      "Ġfrom": 412,
      "####": 413,
      "ant": 414,
      "ip": 415,
      "ult": 416,
      "Ġwas": 417,
      "ge": 418,
      "ser": 419,
      "Ġby": 420,
      "for": 421,
      "Ġlo": 422,
      "Ġpl": 423,
      "ind": 424,
      "ine": 425,
      "ac": 426,
      "))": 427,
      "ld": 428,
      "to": 429,
      "Ġ[": 430,
      "iv": 431,
      "Ġle": 432,
      "per": 433,
      "ime": 434,
      "('": 435,
      "ave": 436,
      "Ġtr": 437,
      "Ġ-": 438,
      "Ġthis": 439,
      "Ġ+": 440,
      "ity": 441,
      "ere": 442,
      "Ġar": 443,
      "ard": 444,
      "ies": 445,
      "ment": 446,
      "our": 447,
      "tr": 448,
      "ions": 449,
      "val": 450,
      "ial": 451,
      "Ġwill": 452,
      "':": 453,
      "pro": 454,
      "ure": 455,
      "Ġimport": 456,
      "Ġma": 457,
      "'s": 458,
      "ive": 459,
      "ext": 460,
      "put": 461,
      "ack": 462,
      "Ġel": 463,
      "der": 464,
      "']": 465,
      "ber": 466,
      "')": 467,
      "ĉĉ": 468,
      "ep": 469,
      "com": 470,
      "ĊĊĠĠĠĠĠĠĠ": 471,
      "Ġdo": 472,
      "ud": 473,
      "str": 474,
      "(\"": 475,
      "ire": 476,
      "able": 477,
      "Ġcl": 478,
      "ub": 479,
      "par": 480,
      "Ġres": 481,
      "ib": 482,
      "are": 483,
      "ict": 484,
      "ost": 485,
      "['": 486,
      "ĠĠĠĠĠĠĠĠĠĠĠĠĠĠĠĠ": 487,
      "set": 488,
      "gs": 489,
      "act": 490,
      "form": 491,
      "ice": 492,
      "ple": 493,
      "Ġ{": 494,
      "ord": 495,
      "Ġad": 496,
      "so": 497,
      "Ġ\"\"\"": 498,
      "ode": 499,
      "Ġhave": 500,
      "\")": 501,
      "\":": 502,
      "ound": 503,
      "def": 504,
      "ast": 505,
      "from": 506,
      "ust": 507,
      "Ġout": 508,
      "ie": 509,
      "ff": 510,
      "data": 511,
      "ated": 512,
      "Ġap": 513,
      "type": 514,
      "ans": 515,
      "ide": 516,
      "Ġen": 517,
      "ase": 518,
      "ork": 519,
      "odel": 520,
      "ace": 521,
      "ould": 522,
      "ok": 523,
      "],": 524,
      "Ġso": 525,
      "low": 526,
      "ize": 527,
      "Ġab": 528,
      "Ġcont": 529,
      "ob": 530,
      "key": 531,
      "gr": 532,
      "ary": 533,
      "path": 534,
      "ma": 535,
      "Ġro": 536,
      "Ġ==": 537,
      "Ġpr": 538,
      "Ġget": 539,
      "Ġnone": 540,
      "sh": 541,
      "ign": 542,
      "fer": 543,
      "ell": 544,
      "rit": 545,
      "ens": 546,
      "ance": 547,
      "Ġsc": 548,
      "av": 549,
      "ject": 550,
      "ang": 551,
      "up": 552,
      "ak": 553,
      "cess": 554,
      "ĊĠĠĠĠĠĠĠĠĠĠĠĠĠĠĠĠĠĠĠ": 555,
      "hen": 556,
      "Ġgo": 557,
      "ome": 558,
      "Ġup": 559,
      "Ġstr": 560,
      "--------": 561,
      "ther": 562,
      "ia": 563,
      "err": 564,
      "ich": 565,
      "Ġus": 566,
      "app": 567,
      "ction": 568,
      "Ġcol": 569,
      "ick": 570,
      "ress": 571,
      "ong": 572,
      "Ġfe": 573,
      "Ġval": 574,
      "Ġ*": 575,
      "====": 576,
      "._": 577,
      "enc": 578,
      "Ġwe": 579,
      "Ġmay": 580,
      "the": 581,
      "Ġ:": 582,
      "sc": 583,
      "file": 584,
      "te": 585,
      "ph": 586,
      "Ġx": 587,
      "ount": 588,
      "ally": 589,
      "ren": 590,
      "Ġpar": 591,
      "########": 592,
      ").": 593,
      "ory": 594,
      "='": 595,
      "oug": 596,
      "vers": 597,
      "ail": 598,
      "ish": 599,
      "ach": 600,
      "Ġbut": 601,
      "own": 602,
      "iel": 603,
      "Ġtime": 604,
      "Ġi": 605,
      "Ġnew": 606,
      "Ġsp": 607,
      "test": 608,
      "âĢĵ": 609,
      "og": 610,
      "Ġalso": 611,
      "col": 612,
      "âĢĻ": 613,
      "class": 614,
      "Ġthey": 615,
      "fig": 616,
      "Ġac": 617,
      "add": 618,
      "Ġall": 619,
      "ings": 620,
      "du": 621,
      "ĠĠĠĠĠ": 622,
      "ian": 623,
      "ield": 624,
      "Ġpre": 625,
      "ild": 626,
      "ition": 627,
      "po": 628,
      "ry": 629,
      "list": 630,
      "Ġtest": 631,
      "ents": 632,
      "Ġgr": 633,
      "Ġser": 634,
      "Ġco": 635,
      "error": 636,
      "Ġone": 637,
      "ations": 638,
      "atch": 639,
      "de": 640,
      "ption": 641,
      "we": 642,
      "Ġra": 643,
      "quest": 644,
      "bo": 645,
      "tra": 646,
      "eth": 647,
      "ence": 648,
      "ps": 649,
      "Ġnum": 650,
      "oth": 651,
      "ne": 652,
      "ange": 653,
      "import": 654,
      "ater": 655,
      "Ġ|": 656,
      "alse": 657,
      "pon": 658,
      "ix": 659,
      "=\"": 660,
      "ug": 661,
      "Ġuse": 662,
      "])": 663,
      "Ġhis": 664,
      "ough": 665,
      "Ġwhen": 666,
      "Ġprint": 667,
      "Ġthem": 668,
      "Ġli": 669,
      "ft": 670,
      "Ġhas": 671,
      "cre": 672,
      "Ġset": 673,
      "Ġwhich": 674,
      "oc": 675,
      "ink": 676,
      "Ġpart": 677,
      "pec": 678,
      "Ġmake": 679,
      "ĊĠ": 680,
      "che": 681,
      "Ġother": 682,
      "Ġdata": 683,
      "vel": 684,
      "Ġlist": 685,
      "ree": 686,
      "Ġbo": 687,
      "ical": 688,
      "Ġty": 689,
      "ise": 690,
      "Ġper": 691,
      "param": 692,
      "Ġ_": 693,
      "irst": 694,
      "Ġelse": 695,
      "pr": 696,
      "lp": 697,
      "ous": 698,
      "Ġev": 699,
      "Ġmore": 700,
      "Ġadd": 701,
      "mo": 702,
      "ors": 703,
      "..": 704,
      "Ġcomm": 705,
      "text": 706,
      "read": 707,
      "ms": 708,
      "Ġname": 709,
      "**": 710,
      "Ġwork": 711,
      "py": 712,
      "tern": 713,
      "ates": 714,
      "args": 715,
      "Ġman": 716,
      "Ġno": 717,
      "Ġcre": 718,
      "Ġshould": 719,
      "ite": 720,
      "Ġsome": 721,
      "Ġind": 722,
      "Ġtra": 723,
      "ener": 724,
      "abel": 725,
      "čĊ": 726,
      "esc": 727,
      "Ġany": 728,
      "Ġdis": 729,
      "ĊĠĠĠĠĠĠĠĠĠĠĠĠĠĠĠĠĠĠĠĠĠĠĠĠ": 730,
      "true": 731,
      "model": 732,
      "ll": 733,
      "Ġnp": 734,
      "old": 735,
      "dict": 736,
      "Ġme": 737,
      "son": 738,
      "Ġqu": 739,
      "ray": 740,
      "Ġpe": 741,
      "Ġneed": 742,
      "Ġfil": 743,
      "ger": 744,
      "row": 745,
      "ient": 746,
      "Ġaf": 747,
      "size": 748,
      "pos": 749,
      "Ġop": 750,
      "ask": 751,
      "Ġam": 752,
      "Ġtheir": 753,
      "rib": 754,
      "Ġsy": 755,
      "load": 756,
      "les": 757,
      "log": 758,
      "[\"": 759,
      "au": 760,
      "ault": 761,
      "wo": 762,
      "fo": 763,
      "Ġplay": 764,
      "Ġ)": 765,
      "Ġ%": 766,
      "'t": 767,
      "Ġfirst": 768,
      "Ġmo": 769,
      "Ġabout": 770,
      "value": 771,
      "min": 772,
      "num": 773,
      "ely": 774,
      "Ġover": 775,
      "ake": 776,
      "io": 777,
      "Ġhelp": 778,
      "Ġmar": 779,
      "Ġte": 780,
      "Ġinto": 781,
      "pre": 782,
      "cur": 783,
      "sert": 784,
      "ert": 785,
      "clud": 786,
      "Ġob": 787,
      "none": 788,
      "Ġag": 789,
      "co": 790,
      "Ġact": 791,
      "time": 792,
      "čĊĠĠĠĠĠĠĠ": 793,
      "fil": 794,
      "ear": 795,
      "Ġoff": 796,
      "url": 797,
      "ĊĠĠĠĠĠĠĠĠĠĠĠĠĠĠĠĠĠĠĠĠĠĠĠĠĠĠĠĠĠĠĠĠ": 798,
      "igh": 799,
      "ople": 800,
      "iss": 801,
      "man": 802,
      "Ġmodel": 803,
      "Ġbu": 804,
      "Ġint": 805,
      "Ċĉĉ": 806,
      "init": 807,
      "Ġwho": 808,
      "ames": 809,
      "len": 810,
      "very": 811,
      "Ġtry": 812,
      "Ġpo": 813,
      "Ġhow": 814,
      "Ġform": 815,
      "Ġher": 816,
      "stat": 817,
      "aw": 818,
      "ĊĠĠĠĠĠĠĠĠĠĠĠĠĠĠĠĠĠĠĠĠĠĠĠ": 819,
      "ss": 820,
      "\"]": 821,
      "Ġ__": 822,
      ".,": 823,
      "ape": 824,
      "Ġche": 825,
      "oup": 826,
      "Ġshe": 827,
      "ues": 828,
      "Ġwere": 829,
      "air": 830,
      "čĊĠĠĠ": 831,
      "config": 832,
      "Ġfile": 833,
      "Ġph": 834,
      "Ġlog": 835,
      "Ġlen": 836,
      "Ġsub": 837,
      "Ġ||": 838,
      "Ġmin": 839,
      "Ġthen": 840,
      "Ġfl": 841,
      "vice": 842,
      "ĊĠĠĠĠĠ": 843,
      "ample": 844,
      "iew": 845,
      "dir": 846,
      "count": 847,
      "Ġafter": 848,
      "ann": 849,
      "Ġbr": 850,
      "ward": 851,
      "cept": 852,
      "line": 853,
      "Ġpos": 854,
      "Ġatt": 855,
      "date": 856,
      "als": 857,
      "user": 858,
      "Ġinst": 859,
      "ull": 860,
      "hed": 861,
      "Ġcomp": 862,
      "Ġkn": 863,
      "Ġvalue": 864,
      "ts": 865,
      "Ġlike": 866,
      "Ġreg": 867,
      "append": 868,
      "ific": 869,
      "Ġwant": 870,
      "arg": 871,
      "Ġinclud": 872,
      "Ġresult": 873,
      "Ġthere": 874,
      "Ġtype": 875,
      "ces": 876,
      "arn": 877,
      "Ġtrue": 878,
      "Ġstart": 879,
      "its": 880,
      "way": 881,
      "cont": 882,
      "cord": 883,
      "format": 884,
      "Ġassert": 885,
      "Ċĉ": 886,
      "ari": 887,
      "Ġem": 888,
      "sp": 889,
      "Ġfr": 890,
      "ator": 891,
      "orm": 892,
      "ev": 893,
      "ics": 894,
      "Ġz": 895,
      "pect": 896,
      "Ġpeople": 897,
      "by": 898,
      "field": 899,
      "ied": 900,
      "\"\"\"": 901,
      "Ġloc": 902,
      "Ġos": 903,
      "Ġinter": 904,
      "Ġfo": 905,
      "Ġtwo": 906,
      "max": 907,
      "========": 908,
      "ys": 909,
      "Ġspec": 910,
      "Ġbet": 911,
      "efore": 912,
      "ade": 913,
      "ax": 914,
      "Ġdon": 915,
      "orn": 916,
      "Ġ<": 917,
      "ethod": 918,
      "ences": 919,
      "arch": 920,
      "Ġend": 921,
      "irect": 922,
      "ting": 923,
      "dat": 924,
      "bu": 925,
      "Ġunder": 926,
      "ier": 927,
      "ating": 928,
      "ponse": 929,
      "ĠâĢ": 930,
      "ton": 931,
      "ource": 932,
      "cho": 933,
      "jo": 934,
      "comm": 935,
      "Ġclass": 936,
      "fl": 937,
      "ĠâĢĵ": 938,
      "ubl": 939,
      "Ġonly": 940,
      "rent": 941,
      "ank": 942,
      "ection": 943,
      "Ġfun": 944,
      "----------------": 945,
      "Ġback": 946,
      "uth": 947,
      "Ġid": 948,
      "erson": 949,
      "ual": 950,
      "work": 951,
      "input": 952,
      "false": 953,
      "info": 954,
      "ved": 955,
      "Ġed": 956,
      "fe": 957,
      "Ġcur": 958,
      "Ġits": 959,
      "amp": 960,
      "Ġdist": 961,
      "not": 962,
      "att": 963,
      "wn": 964,
      "fr": 965,
      "Ġkey": 966,
      "essage": 967,
      "index": 968,
      "Ġsm": 969,
      "//": 970,
      "cent": 971,
      "################": 972,
      "ages": 973,
      "Ġopen": 974,
      "Ġrel": 975,
      "():": 976,
      "Ġwhile": 977,
      "cond": 978,
      "rite": 979,
      "Ġbl": 980,
      "Ġthese": 981,
      "ense": 982,
      "Ġent": 983,
      "ribut": 984,
      "umn": 985,
      "Ġ@": 986,
      "Ġ>": 987,
      "opt": 988,
      "ument": 989,
      "Ġwhat": 990,
      "Ġeach": 991,
      "Ġbefore": 992,
      "},": 993,
      "Ġthan": 994,
      "Ġsk": 995,
      "Ġsim": 996,
      "Ġrun": 997,
      "lock": 998,
      "ices": 999,
      "Ġpass": 1000,
      "label": 1001,
      "ery": 1002,
      "Ġstate": 1003,
      "version": 1004,
      "ale": 1005,
      "Ġke": 1006,
      "sub": 1007,
      "Ġpol": 1008,
      "ci": 1009,
      "ures": 1010,
      "raph": 1011,
      "Ġdown": 1012,
      "Ġdif": 1013,
      "me": 1014,
      "object": 1015,
      "ont": 1016,
      "ines": 1017,
      "__(": 1018,
      "ular": 1019,
      "point": 1020,
      "Ġmost": 1021,
      "ause": 1022,
      "inal": 1023,
      "Ġgener": 1024,
      "array": 1025,
      "Ġnumber": 1026,
      "ational": 1027,
      "Ġyear": 1028,
      "Ġhad": 1029,
      "Ġtrans": 1030,
      "qual": 1031,
      "escri": 1032,
      "ern": 1033,
      "ature": 1034,
      "Ġcall": 1035,
      "Ġline": 1036,
      "Ġfalse": 1037,
      "Ġday": 1038,
      "gth": 1039,
      "eric": 1040,
      "Ġfol": 1041,
      "Ġthr": 1042,
      "Ġcons": 1043,
      "Ġwhere": 1044,
      "eter": 1045,
      "ose": 1046,
      "ased": 1047,
      "ins": 1048,
      "reg": 1049,
      "Ġfind": 1050,
      "inst": 1051,
      "item": 1052,
      "view": 1053,
      "ited": 1054,
      "Ġcoun": 1055,
      "ule": 1056,
      "uring": 1057,
      "land": 1058,
      "code": 1059,
      "word": 1060,
      "Ġway": 1061,
      "arget": 1062,
      "Ġ/": 1063,
      "ec": 1064,
      "uct": 1065,
      "Ġhand": 1066,
      "ily": 1067,
      "db": 1068,
      "Ġcar": 1069,
      "loc": 1070,
      "ken": 1071,
      "reat": 1072,
      "Ġjust": 1073,
      "ired": 1074,
      "Ġrange": 1075,
      "Ġmed": 1076,
      "yn": 1077,
      "ĠĠĠĠĠĠ": 1078,
      "ative": 1079,
      "Ġav": 1080,
      "df": 1081,
      "ml": 1082,
      "br": 1083,
      "].": 1084,
      "Ġread": 1085,
      "Ġparam": 1086,
      "ments": 1087,
      "ble": 1088,
      "ferences": 1089,
      "Ġthrough": 1090,
      "Ġsure": 1091,
      "ember": 1092,
      "Ġpy": 1093,
      "start": 1094,
      "state": 1095,
      "ful": 1096,
      "Ġused": 1097,
      "Ġprov": 1098,
      "Ġcent": 1099,
      "''": 1100,
      "Ġprodu": 1101,
      "ision": 1102,
      "Ġbec": 1103,
      "Ġlook": 1104,
      "Ġbeen": 1105,
      "ash": 1106,
      "elect": 1107,
      "ody": 1108,
      "Ġhigh": 1109,
      "print": 1110,
      "ible": 1111,
      "\".": 1112,
      "Ġdat": 1113,
      "([": 1114,
      "Ġsee": 1115,
      "back": 1116,
      "Ġdefault": 1117,
      "other": 1118,
      "Ġcheck": 1119,
      "ities": 1120,
      "play": 1121,
      "ession": 1122,
      "Ġperson": 1123,
      "Ġwater": 1124,
      "util": 1125,
      "inter": 1126,
      "Ġtake": 1127,
      "ark": 1128,
      "ason": 1129,
      "Ġjo": 1130,
      "loat": 1131,
      "Ġgu": 1132,
      "Ġkeep": 1133,
      "status": 1134,
      "Ġuser": 1135,
      "red": 1136,
      "Ġ[]": 1137,
      "result": 1138,
      "Ġsuch": 1139,
      "ced": 1140,
      "Ġdep": 1141,
      "train": 1142,
      "ider": 1143,
      "output": 1144,
      "chool": 1145,
      "Ġrequest": 1146,
      "Ġwell": 1147,
      "Ġmu": 1148,
      "((": 1149,
      "be": 1150,
      "nt": 1151,
      "Ġcle": 1152,
      "Ġlong": 1153,
      "Ġ+=": 1154,
      "ric": 1155,
      "stem": 1156,
      "Ġhead": 1157,
      "Ġsup": 1158,
      "opy": 1159,
      "Ġdes": 1160,
      "Ġright": 1161,
      "uc": 1162,
      "ten": 1163,
      "Ġ.": 1164,
      "Ġmet": 1165,
      "wh": 1166,
      "main": 1167,
      "Ġchild": 1168,
      "Ġpath": 1169,
      "ract": 1170,
      "ists": 1171,
      "Ġexp": 1172,
      "ement": 1173,
      "tp": 1174,
      "ower": 1175,
      "plic": 1176,
      "Ġtop": 1177,
      "with": 1178,
      "Ġusing": 1179,
      "Ġgood": 1180,
      "np": 1181,
      "que": 1182,
      "pes": 1183,
      "af": 1184,
      "Ġwor": 1185,
      "request": 1186,
      "mod": 1187,
      "Ġschool": 1188,
      "ars": 1189,
      "no": 1190,
      "Ġfeel": 1191,
      "plit": 1192,
      "string": 1193,
      "Ġfollow": 1194,
      "Ġdel": 1195,
      "Ġeven": 1196,
      "Ġapp": 1197,
      "Ġinput": 1198,
      "âĢĿ": 1199,
      "Ġbre": 1200,
      "met": 1201,
      "references": 1202,
      "itle": 1203,
      "gan": 1204,
      "king": 1205,
      "Ġdirect": 1206,
      "Ġchar": 1207,
      "head": 1208,
      "Ġpoint": 1209,
      "Ġelif": 1210,
      "map": 1211,
      "'re": 1212,
      "ĠĊ": 1213,
      "Ġmany": 1214,
      "dis": 1215,
      "ween": 1216,
      "imes": 1217,
      "ĊĊĠĠĠĠĠĠĠĠĠĠĠ": 1218,
      "Ġpres": 1219,
      "Ġ{}": 1220,
      "``": 1221,
      "Ġwould": 1222,
      "trans": 1223,
      "fun": 1224,
      "join": 1225,
      "Ġq": 1226,
      "return": 1227,
      "net": 1228,
      "Ġuni": 1229,
      "Ġplace": 1230,
      "mp": 1231,
      "Ġcal": 1232,
      "aset": 1233,
      "Ġsign": 1234,
      "Ġduring": 1235,
      "Ġtrain": 1236,
      "of": 1237,
      "://": 1238,
      "orth": 1239,
      "Ġmon": 1240,
      "Ġmus": 1241,
      "raw": 1242,
      "Ġrequ": 1243,
      "Ġargs": 1244,
      "Ġeng": 1245,
      "ually": 1246,
      "new": 1247,
      "ized": 1248,
      "Ġmax": 1249,
      "ball": 1250,
      "Ġstud": 1251,
      "run": 1252,
      "Ġagain": 1253,
      "valid": 1254,
      "Ġshow": 1255,
      "ife": 1256,
      "Ġcreate": 1257,
      "Ġconfig": 1258,
      "Ġtem": 1259,
      "Ġoutput": 1260,
      "til": 1261,
      "Ġfield": 1262,
      "led": 1263,
      "Ġwar": 1264,
      "ident": 1265,
      "Ġmat": 1266,
      "Ġpubl": 1267,
      "Ġevery": 1268,
      "ĠâĢľ": 1269,
      "Ġbetween": 1270,
      "rop": 1271,
      "gram": 1272,
      "bs": 1273,
      "Ġopt": 1274,
      "ious": 1275,
      "Ġdec": 1276,
      "move": 1277,
      "Ġ\\": 1278,
      "Ġfound": 1279,
      "ished": 1280,
      "wid": 1281,
      "del": 1282,
      "ouse": 1283,
      "ename": 1284,
      "Ġinv": 1285,
      ".__": 1286,
      "Ġcolle": 1287,
      "ute": 1288,
      "ner": 1289,
      "asser": 1290,
      "Ġsecond": 1291,
      "riend": 1292,
      "Ġtext": 1293,
      "cs": 1294,
      "Ġraise": 1295,
      "erican": 1296,
      "Ġsl": 1297,
      "az": 1298,
      "wargs": 1299,
      "image": 1300,
      "Ġmod": 1301,
      "Ġexample": 1302,
      "Ġart": 1303,
      "Ġbest": 1304,
      "vert": 1305,
      "ify": 1306,
      "li": 1307,
      "())": 1308,
      "ait": 1309,
      "Ġlabel": 1310,
      "Ġexcept": 1311,
      "Ġobject": 1312,
      "Ġsom": 1313,
      "ott": 1314,
      "Ġhim": 1315,
      "write": 1316,
      "ception": 1317,
      "reen": 1318,
      "shape": 1319,
      "čĊĠĠĠĠĠĠĠĠĠĠĠ": 1320,
      "Ġcor": 1321,
      "Ġlink": 1322,
      "json": 1323,
      "Ġdiffer": 1324,
      "orch": 1325,
      "Ġ->": 1326,
      "Ġrep": 1327,
      "Ġown": 1328,
      "Ġfin": 1329,
      "ds": 1330,
      "olog": 1331,
      "Ġdict": 1332,
      "andom": 1333,
      "mat": 1334,
      "sy": 1335,
      "do": 1336,
      "Ġknow": 1337,
      "Ġ('": 1338,
      "emb": 1339,
      "sum": 1340,
      "Ġsur": 1341,
      "Ġorder": 1342,
      "place": 1343,
      "Ġcomple": 1344,
      "lay": 1345,
      "Ġsame": 1346,
      "Ġdoes": 1347,
      "ids": 1348,
      "Ġrecord": 1349,
      "][": 1350,
      "Ġcontain": 1351,
      "icense": 1352,
      "Ġcho": 1353,
      "Ġwrit": 1354,
      "ternal": 1355,
      "Ġprocess": 1356,
      "cc": 1357,
      "ution": 1358,
      "ĊĠĠĠĠĠĠĠĠĠĠĠĠĠĠĠĠĠĠĠĠĠĠĠĠĠĠĠ": 1359,
      "Ġvari": 1360,
      "Ġ}": 1361,
      "'),": 1362,
      "ince": 1363,
      "Ġsmall": 1364,
      "tx": 1365,
      "itt": 1366,
      "ility": 1367,
      "ĊĠĠĠĠ": 1368,
      ".\"": 1369,
      "client": 1370,
      "nect": 1371,
      "Ġfam": 1372,
      "bin": 1373,
      "ever": 1374,
      "descri": 1375,
      "Ġallow": 1376,
      "Ġbeing": 1377,
      "any": 1378,
      "instance": 1379,
      "her": 1380,
      "right": 1381,
      "anc": 1382,
      "Ġitem": 1383,
      "ache": 1384,
      "indow": 1385,
      "yle": 1386,
      "med": 1387,
      "ush": 1388,
      "Ġmight": 1389,
      "ather": 1390,
      "ek": 1391,
      "Ġuntil": 1392,
      "ning": 1393,
      "da": 1394,
      "default": 1395,
      "node": 1396,
      "my": 1397,
      "group": 1398,
      "Ġdr": 1399,
      "Ġaround": 1400,
      "Ġstat": 1401,
      "check": 1402,
      "you": 1403,
      "plot": 1404,
      "ler": 1405,
      "Ġarg": 1406,
      "Ġoption": 1407,
      "formation": 1408,
      "Ġcr": 1409,
      "color": 1410,
      "api": 1411,
      "Ġlet": 1412,
      "action": 1413,
      "Ġsing": 1414,
      "ging": 1415,
      "params": 1416,
      "go": 1417,
      "cle": 1418,
      "annel": 1419,
      "Ġdi": 1420,
      "'],": 1421,
      "asserte": 1422,
      "Ġgroup": 1423,
      "ister": 1424,
      "Ġcould": 1425,
      "Ġcare": 1426,
      "message": 1427,
      "Ġ**": 1428,
      "Ġest": 1429,
      "ches": 1430,
      "Ġsa": 1431,
      "ctor": 1432,
      "outh": 1433,
      "create": 1434,
      "().": 1435,
      "call": 1436,
      "eters": 1437,
      "ants": 1438,
      "Ġfriend": 1439,
      "perty": 1440,
      "Ġeas": 1441,
      "xx": 1442,
      "Ġht": 1443,
      "Ġbecause": 1444,
      "izer": 1445,
      "****": 1446,
      "Ġbuild": 1447,
      "bl": 1448,
      "Ġboth": 1449,
      "Ġcurrent": 1450,
      "ampl": 1451,
      "iter": 1452,
      "(),": 1453,
      "Ġmethod": 1454,
      "Ġbel": 1455,
      "box": 1456,
      "[:": 1457,
      "process": 1458,
      "env": 1459,
      "base": 1460,
      "Ġworld": 1461,
      "'.": 1462,
      "Ġimage": 1463,
      "ik": 1464,
      "lob": 1465,
      "mon": 1466,
      "alk": 1467,
      "lose": 1468,
      "assertequal": 1469,
      "resh": 1470,
      "method": 1471,
      "Ġdifferent": 1472,
      "Ã©": 1473,
      "table": 1474,
      "split": 1475,
      "try": 1476,
      "Ġgiv": 1477,
      "frame": 1478,
      "alth": 1479,
      "Ġair": 1480,
      "ters": 1481,
      "Ġcontin": 1482,
      "Ġevent": 1483,
      "tem": 1484,
      "Ġresponse": 1485,
      "Ġteam": 1486,
      "ets": 1487,
      "Ġpop": 1488,
      "Ġthree": 1489,
      "ah": 1490,
      "Ġsw": 1491,
      "Ġfoot": 1492,
      "ves": 1493,
      "gin": 1494,
      "ensor": 1495,
      "ĊĊĊĊ": 1496,
      "assert": 1497,
      "Ġhist": 1498,
      "hand": 1499,
      "search": 1500,
      "Ġyourself": 1501,
      "token": 1502,
      "Ġoper": 1503,
      "off": 1504,
      "Ġ(\"": 1505,
      "thon": 1506,
      "ury": 1507,
      "Ġmuch": 1508,
      "amb": 1509,
      "Ġax": 1510,
      "\"),": 1511,
      "Ġmust": 1512,
      "Ġmain": 1513,
      "idd": 1514,
      "Ġarea": 1515,
      "side": 1516,
      "ateg": 1517,
      "Ġter": 1518,
      "gener": 1519,
      "Ġcap": 1520,
      "Ġeff": 1521,
      "Ġear": 1522,
      "day": 1523,
      "oid": 1524,
      "Ġunivers": 1525,
      "Ġcolor": 1526,
      "aa": 1527,
      "ety": 1528,
      "Ġext": 1529,
      "Ġsol": 1530,
      "ware": 1531,
      "ta": 1532,
      "Ġhome": 1533,
      "response": 1534,
      "Ġbody": 1535,
      "column": 1536,
      "Ġinit": 1537,
      "Ġinclude": 1538,
      "Ġindex": 1539,
      "pare": 1540,
      "Ġprev": 1541,
      "values": 1542,
      "Ġlocal": 1543,
      "struct": 1544,
      "ips": 1545,
      "Ġtoo": 1546,
      "Ġhowever": 1547,
      "Ġport": 1548,
      "Ġret": 1549,
      "Ġsystem": 1550,
      "mb": 1551,
      "uthor": 1552,
      "Ġstep": 1553,
      "Ġpat": 1554,
      "etime": 1555,
      "Ġlast": 1556,
      "Ġinformation": 1557,
      "order": 1558,
      "Ġstates": 1559,
      "ness": 1560,
      "ving": 1561,
      "Ġcour": 1562,
      "mer": 1563,
      "Ġonce": 1564,
      "ified": 1565,
      "itions": 1566,
      "================": 1567,
      "Ġbas": 1568,
      "Ġsuper": 1569,
      "ĉĉĉĉ": 1570,
      "rol": 1571,
      "Ġsupport": 1572,
      "Ġjson": 1573,
      "aut": 1574,
      "ons": 1575,
      "ization": 1576,
      "Ġmark": 1577,
      "Ġappe": 1578,
      "Ġlar": 1579,
      "velop": 1580,
      "Ġbir": 1581,
      "atures": 1582,
      "miss": 1583,
      "odes": 1584,
      "Ġtak": 1585,
      "Ġve": 1586,
      "Ġmade": 1587,
      "face": 1588,
      "md": 1589,
      "Ġword": 1590,
      "Ġpri": 1591,
      "lib": 1592,
      "length": 1593,
      "Ġ!": 1594,
      "Ġ`": 1595,
      "kwargs": 1596,
      "parser": 1597,
      "Ġbro": 1598,
      "ping": 1599,
      "Ġrele": 1600,
      "update": 1601,
      "rel": 1602,
      "Ġpost": 1603,
      "Ġask": 1604,
      "pected": 1605,
      ",-": 1606,
      "tings": 1607,
      "dim": 1608,
      "Ġside": 1609,
      "Ġwithout": 1610,
      "fix": 1611,
      "Ġvery": 1612,
      "requ": 1613,
      "Ġposs": 1614,
      "ream": 1615,
      "Ġbus": 1616,
      "ross": 1617,
      "iron": 1618,
      "angu": 1619,
      "aving": 1620,
      "Ġ['": 1621,
      "oss": 1622,
      "ially": 1623,
      "mark": 1624,
      "ww": 1625,
      "Ġnext": 1626,
      "Ġsize": 1627,
      "uss": 1628,
      "obj": 1629,
      "Ġamerican": 1630,
      "Ġtorch": 1631,
      "Ġlife": 1632,
      "ete": 1633,
      "Ġ&": 1634,
      "Ġlaw": 1635,
      "ormal": 1636,
      "Ġyears": 1637,
      "Ġbase": 1638,
      "Ġfunction": 1639,
      "pol": 1640,
      "ags": 1641,
      "Ġput": 1642,
      "Ġbook": 1643,
      "{}": 1644,
      "Ġcommand": 1645,
      "Ġpur": 1646,
      "Ġnow": 1647,
      "Ġlicense": 1648,
      "utils": 1649,
      "ural": 1650,
      "Ġexper": 1651,
      "use": 1652,
      "Ġsay": 1653,
      "iness": 1654,
      "sw": 1655,
      "Ġleft": 1656,
      "Ġsum": 1657,
      "sign": 1658,
      "Ġver": 1659,
      "Ġcopy": 1660,
      "Ġlater": 1661,
      "Ġtarget": 1662,
      "Ġsit": 1663,
      "Ġdet": 1664,
      "ables": 1665,
      "Ġrow": 1666,
      "Ġvis": 1667,
      "rip": 1668,
      "Ġpa": 1669,
      "sl": 1670,
      "number": 1671,
      "Ġconsider": 1672,
      "Ġorig": 1673,
      "Ġlead": 1674,
      "Ġclean": 1675,
      "Ġ{'": 1676,
      "Ġlevel": 1677,
      "Ġold": 1678,
      "post": 1679,
      "ience": 1680,
      "ead": 1681,
      "attr": 1682,
      "ats": 1683,
      "...": 1684,
      "float": 1685,
      "Ġuniversity": 1686,
      "Ġfood": 1687,
      "ention": 1688,
      "ething": 1689,
      "=[": 1690,
      "ically": 1691,
      "Ġ!=": 1692,
      "rap": 1693,
      "Ġnorth": 1694,
      "Ġlay": 1695,
      "pass": 1696,
      "Ġmib": 1697,
      "Ġfamily": 1698,
      "let": 1699,
      "Ġstring": 1700,
      "ases": 1701,
      "ref": 1702,
      "Ġwon": 1703,
      "ze": 1704,
      "Ġpay": 1705,
      "Ġnet": 1706,
      "'])": 1707,
      "Ġversion": 1708,
      "aces": 1709,
      "ency": 1710,
      "top": 1711,
      "Ġerror": 1712,
      "Ġgive": 1713,
      "Ġanother": 1714,
      "Ġcity": 1715,
      "current": 1716,
      "Ġ]": 1717,
      "Ġla": 1718,
      "ots": 1719,
      "Ġgame": 1720,
      "mber": 1721,
      "ye": 1722,
      "Ġunited": 1723,
      "uary": 1724,
      "names": 1725,
      "come": 1726,
      "Ġmessage": 1727,
      "but": 1728,
      "step": 1729,
      "Ġmove": 1730,
      "Ġ,": 1731,
      "Ġdevelop": 1732,
      "Ġcount": 1733,
      "Ġnational": 1734,
      "Ġimportant": 1735,
      "arm": 1736,
      "Ġsever": 1737,
      "Ġmodels": 1738,
      "Ġproject": 1739,
      "comp": 1740,
      "Ġplayers": 1741,
      "ending": 1742,
      "ng": 1743,
      "Ġprogram": 1744,
      "Ġsomething": 1745,
      "su": 1746,
      "rc": 1747,
      "idx": 1748,
      "Ġspe": 1749,
      "Ġhair": 1750,
      "Ġgl": 1751,
      "types": 1752,
      "xc": 1753,
      "aper": 1754,
      "Ġlinks": 1755,
      "command": 1756,
      "ped": 1757,
      "ths": 1758,
      "Ġhouse": 1759,
      "aster": 1760,
      "lish": 1761,
      "Ġseason": 1762,
      "Ġdiv": 1763,
      "xb": 1764,
      "zer": 1765,
      "na": 1766,
      "models": 1767,
      "argument": 1768,
      "Ġselect": 1769,
      "Ġdoc": 1770,
      "xf": 1771,
      "'ll": 1772,
      "Ġmy": 1773,
      "ides": 1774,
      "Ġrece": 1775,
      "Ġbar": 1776,
      "batch": 1777,
      "target": 1778,
      "Ġlim": 1779,
      "Ġmusic": 1780,
      "Ġbreak": 1781,
      "Ġcommun": 1782,
      "Ġfew": 1783,
      "parse": 1784,
      "Ġmult": 1785,
      "external": 1786,
      "Ġpartic": 1787,
      "Ġfollowing": 1788,
      "amed": 1789,
      "gen": 1790,
      "Ġconst": 1791,
      "query": 1792,
      "Ġcut": 1793,
      "cor": 1794,
      "Ġgover": 1795,
      "ane": 1796,
      "Ġactiv": 1797,
      "bug": 1798,
      "char": 1799,
      "ension": 1800,
      "Ġturn": 1801,
      "Ġaut": 1802,
      "Ġfilm": 1803,
      "ograph": 1804,
      "filter": 1805,
      "Ġgreat": 1806,
      "dist": 1807,
      "exp": 1808,
      "ustom": 1809,
      "Ġload": 1810,
      "ights": 1811,
      "ential": 1812,
      "loss": 1813,
      "los": 1814,
      "Ġfour": 1815,
      "title": 1816,
      "ond": 1817,
      "Ġge": 1818,
      "part": 1819,
      "ived": 1820,
      "Ġrest": 1821,
      "Ġwhe": 1822,
      "ols": 1823,
      "tim": 1824,
      "ulation": 1825,
      "Ġca": 1826,
      "Ġperform": 1827,
      "Ġoften": 1828,
      "sol": 1829,
      "Ġstand": 1830,
      "cket": 1831,
      "Ġurl": 1832,
      "Ġappro": 1833,
      "ship": 1834,
      "hn": 1835,
      "Ġhealth": 1836,
      "rect": 1837,
      "Ġenc": 1838,
      "Ġcode": 1839,
      "host": 1840,
      "context": 1841,
      "gu": 1842,
      "cial": 1843,
      "amples": 1844,
      "Ġtf": 1845,
      "vis": 1846,
      "ior": 1847,
      "Ġcond": 1848,
      "ina": 1849,
      "erg": 1850,
      "Ġpare": 1851,
      "Ġleg": 1852,
      "ries": 1853,
      "Ġsince": 1854,
      "tps": 1855,
      "Ġsal": 1856,
      "Ġpress": 1857,
      "ium": 1858,
      "Ġthings": 1859,
      "ference": 1860,
      "Ġpublic": 1861,
      "Ġvalid": 1862,
      "Ġref": 1863,
      "sk": 1864,
      "Ġprof": 1865,
      "Ġincluding": 1866,
      "Ġtot": 1867,
      "ĊĠĠĠĠĠĠĠĠĠ": 1868,
      "anguage": 1869,
      "plate": 1870,
      "roll": 1871,
      "Ġfootball": 1872,
      "Ġfull": 1873,
      "bum": 1874,
      "ho": 1875,
      "Ġintern": 1876,
      "iod": 1877,
      "Ġaction": 1878,
      "dataset": 1879,
      "Ġthink": 1880,
      "ango": 1881,
      "gg": 1882,
      "resent": 1883,
      "Ġshort": 1884,
      "ways": 1885,
      "rix": 1886,
      "Ġorgan": 1887,
      "org": 1888,
      "ailable": 1889,
      "\",\"": 1890,
      "Ġconf": 1891,
      "down": 1892,
      "Ġservice": 1893,
      "ital": 1894,
      "hes": 1895,
      "ager": 1896,
      "Ġvalues": 1897,
      "Ġsouth": 1898,
      "doc": 1899,
      "Ġable": 1900,
      "Ġsuc": 1901,
      "čĊč": 1902,
      "Ġdesign": 1903,
      "ript": 1904,
      "event": 1905,
      "Ġ$": 1906,
      "vices": 1907,
      "--------------------------------": 1908,
      "Ġcompany": 1909,
      "Ġweek": 1910,
      "ives": 1911,
      "Ġagainst": 1912,
      ".;": 1913,
      "xe": 1914,
      "Ġparser": 1915,
      "Ġreturns": 1916,
      "Ġcase": 1917,
      "Ġdf": 1918,
      "ined": 1919,
      "Ġsoft": 1920,
      "Ġinstead": 1921,
      "Ġelect": 1922,
      "ards": 1923,
      "ances": 1924,
      "Ġtimes": 1925,
      "Ġstill": 1926,
      "ism": 1927,
      "Ġproduct": 1928,
      "Ġ'''": 1929,
      "ĊĠĠĠĠĊĠĠĠ": 1930,
      "ift": 1931,
      "eng": 1932,
      "ync": 1933,
      "property": 1934,
      "################################": 1935,
      "','": 1936,
      "arning": 1937,
      "Ġseries": 1938,
      "Ġcomput": 1939,
      "ven": 1940,
      "utes": 1941,
      "ither": 1942,
      "wait": 1943,
      "Ġnode": 1944,
      "ron": 1945,
      "fact": 1946,
      "width": 1947,
      "block": 1948,
      "]:": 1949,
      "Ġsys": 1950,
      "dep": 1951,
      "Ġnon": 1952,
      "nn": 1953,
      "save": 1954,
      "Ġwom": 1955,
      "Ġmen": 1956,
      "ours": 1957,
      "Ġdri": 1958,
      "Ġremove": 1959,
      "cer": 1960,
      "Ġrem": 1961,
      "Ġred": 1962,
      "iving": 1963,
      "Ġwest": 1964,
      "ided": 1965,
      "less": 1966,
      "sim": 1967,
      "Ġhold": 1968,
      "jango": 1969,
      "files": 1970,
      "ote": 1971,
      "ai": 1972,
      "const": 1973,
      "content": 1974,
      "Ġmiss": 1975,
      "unk": 1976,
      "Ġknown": 1977,
      "Ġjob": 1978,
      "els": 1979,
      "ql": 1980,
      "pack": 1981,
      "Ġspecific": 1982,
      "http": 1983,
      "ored": 1984,
      "acter": 1985,
      "ĊĊĠ": 1986,
      "Ġless": 1987,
      "ended": 1988,
      "Ġcolumn": 1989,
      "ails": 1990,
      "Ġgiven": 1991,
      "bar": 1992,
      "items": 1993,
      "buil": 1994,
      "xd": 1995,
      "Ġ),": 1996,
      "Ġextra": 1997,
      "find": 1998,
      "ns": 1999,
      "Ġ],": 2000,
      "Ġes": 2001,
      "Ġfloat": 2002,
      "por": 2003,
      "Ġmix": 2004,
      "Ġlight": 2005,
      "Ġcert": 2006,
      "Ġenv": 2007,
      "Ġdesc": 2008,
      "leep": 2009,
      "description": 2010,
      "ules": 2011,
      "embers": 2012,
      "cp": 2013,
      "wards": 2014,
      "Ġmil": 2015,
      "spec": 2016,
      "Ġgovern": 2017,
      "ately": 2018,
      "Ġbott": 2019,
      "img": 2020,
      "Ġposition": 2021,
      "Ġcommon": 2022,
      "this": 2023,
      "Ġbusiness": 2024,
      "ories": 2025,
      ")))": 2026,
      "var": 2027,
      "Ġtable": 2028,
      "Ġvol": 2029,
      "uration": 2030,
      "ared": 2031,
      "fol": 2032,
      "Ġeffect": 2033,
      "itch": 2034,
      "Ġfree": 2035,
      "det": 2036,
      "hist": 2037,
      "Ġmatch": 2038,
      "une": 2039,
      ".\"\"\"": 2040,
      "Ġgen": 2041,
      "Ġreport": 2042,
      "Ġdb": 2043,
      "nd": 2044,
      "Ġcat": 2045,
      "mail": 2046,
      "Ġreal": 2047,
      "ae": 2048,
      "Ġfact": 2049,
      "})": 2050,
      "dom": 2051,
      "Ġtotal": 2052,
      "Ġaddition": 2053,
      "Ġresults": 2054,
      "icy": 2055,
      "Ġoptional": 2056,
      "Ġisinstance": 2057,
      "Ġincre": 2058,
      "Ġaccount": 2059,
      "Ġdog": 2060,
      "Ġ--": 2061,
      "mask": 2062,
      "plication": 2063,
      "level": 2064,
      "ideo": 2065,
      "Ġchang": 2066,
      "ĊĠĠĠĠĠĠĠĠĠĠĠĠĠĠĠĠĠĠĠĠĠĠĠĠĠĠĠĠĠĠĠĠĠĠĠĠĠĠĠĠĠĠĠĠĠĠĠĠ": 2067,
      "Ġaway": 2068,
      "Ġpossible": 2069,
      "soci": 2070,
      "Ġlik": 2071,
      "Ġseveral": 2072,
      "open": 2073,
      "Ġchange": 2074,
      "ology": 2075,
      "cy": 2076,
      "itive": 2077,
      "Ġcover": 2078,
      "Ġhard": 2079,
      "Ġalbum": 2080,
      "ĊĠĠĠĠĠĠĠĠĠĠĠĠĠĠĠĠĠĠĠĠĠĠĠĠĠĠĠĠĠĠĠĠĠĠĠĠĠĠĠĠ": 2081,
      "Ġrequired": 2082,
      "filename": 2083,
      "gether": 2084,
      "uments": 2085,
      "channel": 2086,
      "ambda": 2087,
      "Ġproble": 2088,
      "empt": 2089,
      "options": 2090,
      "ification": 2091,
      "ctions": 2092,
      "Ġthose": 2093,
      "lim": 2094,
      "nection": 2095,
      "pri": 2096,
      "Ġsn": 2097,
      "lobal": 2098,
      "ling": 2099,
      "Ġbox": 2100,
      "Ġassoci": 2101,
      "ittle": 2102,
      "ret": 2103,
      "Ġcalled": 2104,
      "root": 2105,
      "flow": 2106,
      "ply": 2107,
      "thers": 2108,
      "Ġide": 2109,
      "keys": 2110,
      "Ġplt": 2111,
      "Ġdate": 2112,
      "ãģ": 2113,
      "ones": 2114,
      "Ġblock": 2115,
      "Ġpack": 2116,
      "thing": 2117,
      "Ġcounty": 2118,
      "ĊĠĠĠĠĠĠĠĠĠĠĠĠĠĠĠĠĠĠĠĠĠĠĠĠĠĠĠĠĠĠĠ": 2119,
      "tot": 2120,
      "ground": 2121,
      "board": 2122,
      "select": 2123,
      "Ġbased": 2124,
      "ume": 2125,
      "oding": 2126,
      "Ġeither": 2127,
      "range": 2128,
      "Ġavoid": 2129,
      "vari": 2130,
      "html": 2131,
      "Ġlarge": 2132,
      "Ġwrite": 2133,
      "Ġsuccess": 2134,
      "Ġwin": 2135,
      "Ġoptions": 2136,
      "ley": 2137,
      "Ġview": 2138,
      "Ġbetter": 2139,
      "Ġstop": 2140,
      "Ġloss": 2141,
      "jor": 2142,
      "ought": 2143,
      "Ġsingle": 2144,
      "random": 2145,
      "Ġbeh": 2146,
      "oper": 2147,
      "tes": 2148,
      "server": 2149,
      "Ġfiles": 2150,
      "Ġprom": 2151,
      "ral": 2152,
      "ources": 2153,
      "module": 2154,
      "ises": 2155,
      "stand": 2156,
      "book": 2157,
      "Ġbra": 2158,
      "Ġgeneral": 2159,
      "ope": 2160,
      "Ġamount": 2161,
      "iver": 2162,
      "hip": 2163,
      "mode": 2164,
      "Ġsource": 2165,
      "position": 2166,
      "ture": 2167,
      "=(": 2168,
      "Ġinterest": 2169,
      "Ġrec": 2170,
      "Ġpage": 2171,
      "Ġwindow": 2172,
      "see": 2173,
      "Ġnumpy": 2174,
      "Ġoffic": 2175,
      "ready": 2176,
      "ague": 2177,
      "exec": 2178,
      "Ġquest": 2179,
      "Ġskin": 2180,
      "Ġcup": 2181,
      "={": 2182,
      "vol": 2183,
      "Ġsearch": 2184,
      "chn": 2185,
      "igr": 2186,
      "used": 2187,
      "cf": 2188,
      "Ġger": 2189,
      "Ġmaking": 2190,
      "::": 2191,
      "Ġdem": 2192,
      "Ġchildren": 2193,
      "ges": 2194,
      "Ġ},": 2195,
      "Ġcenter": 2196,
      "Ġestab": 2197,
      "ifier": 2198,
      "ression": 2199,
      "Ġmag": 2200,
      "Ġtogether": 2201,
      "Ġemp": 2202,
      "Ġinstance": 2203,
      "Ġben": 2204,
      "rict": 2205,
      "Ġcontinue": 2206,
      "project": 2207,
      "Ġpower": 2208,
      "Ġet": 2209,
      "Ġminutes": 2210,
      "Ġnear": 2211,
      "left": 2212,
      "Ġlittle": 2213,
      "ump": 2214,
      "source": 2215,
      "Ġgoing": 2216,
      "]]": 2217,
      "logger": 2218,
      "Ġident": 2219,
      "ribute": 2220,
      "builder": 2221,
      "Ġdry": 2222,
      "Ġlength": 2223,
      "Ġconnect": 2224,
      "Ġmean": 2225,
      "Ġlogging": 2226,
      "task": 2227,
      "Ġann": 2228,
      "Ġtw": 2229,
      "utf": 2230,
      "'))": 2231,
      "Ġpie": 2232,
      "Ġhal": 2233,
      "Ġavailable": 2234,
      "address": 2235,
      "mean": 2236,
      "Ġau": 2237,
      "pose": 2238,
      "access": 2239,
      "msg": 2240,
      "ores": 2241,
      "Ġspace": 2242,
      "Ġrandom": 2243,
      "Ġclient": 2244,
      "uple": 2245,
      "Ġtask": 2246,
      "Ġstatus": 2247,
      "Ġpot": 2248,
      "Ġland": 2249,
      "Ġband": 2250,
      "hy": 2251,
      "Ġsave": 2252,
      "link": 2253,
      "core": 2254,
      "ounds": 2255,
      "Ġtel": 2256,
      "Ġwid": 2257,
      "Ġtitle": 2258,
      "close": 2259,
      "Ġrad": 2260,
      "Ġsomeone": 2261,
      "tag": 2262,
      "Ġtri": 2263,
      "sg": 2264,
      "iff": 2265,
      "case": 2266,
      "Ġface": 2267,
      "connect": 2268,
      "Ġapply": 2269,
      "Ġtim": 2270,
      "Ġaccess": 2271,
      "cell": 2272,
      "itor": 2273,
      "Ġarray": 2274,
      "Ġson": 2275,
      "Ġdid": 2276,
      "Ġhaving": 2277,
      "bb": 2278,
      "Ġtreat": 2279,
      "build": 2280,
      "Ġwhether": 2281,
      "sequ": 2282,
      "Ġbegin": 2283,
      "session": 2284,
      "ls": 2285,
      "Ġang": 2286,
      "ding": 2287,
      "ä¸": 2288,
      "Ġcir": 2289,
      "Ġhere": 2290,
      "debug": 2291,
      "objects": 2292,
      "oney": 2293,
      "Ġexception": 2294,
      "adata": 2295,
      "Ġplan": 2296,
      "ĊĠĠĠĠĠĠĠĠĠĠĠĠ": 2297,
      "Ġwithin": 2298,
      "Ġalong": 2299,
      "čĊĠĠĠĠĠĠĠĠĠĠĠĠĠĠĠ": 2300,
      "Ġrepresent": 2301,
      "ĠâĢĶ": 2302,
      "[:,": 2303,
      "ock": 2304,
      "ring": 2305,
      "ptor": 2306,
      "Ġenough": 2307,
      "Ġchamp": 2308,
      "Ġbatch": 2309,
      "oups": 2310,
      "Ġexpected": 2311,
      "csv": 2312,
      "Ġjohn": 2313,
      "Ġspecial": 2314,
      "Ġalways": 2315,
      "Ġcomplet": 2316,
      "Ġdeath": 2317,
      "uro": 2318,
      "pi": 2319,
      "Ġhy": 2320,
      "Ġdistrict": 2321,
      "ourn": 2322,
      "uid": 2323,
      "serv": 2324,
      "local": 2325,
      "Ġaddress": 2326,
      "Ġblack": 2327,
      "Ġfinal": 2328,
      "Ġstyle": 2329,
      "Ġothers": 2330,
      "icle": 2331,
      "ional": 2332,
      "raft": 2333,
      "cul": 2334,
      "Ġcontrol": 2335,
      "Ġgames": 2336,
      "Ċĉĉĉ": 2337,
      "Ġleast": 2338,
      "make": 2339,
      "ently": 2340,
      "function": 2341,
      "Ġclub": 2342,
      "lin": 2343,
      "Ġclick": 2344,
      "ov": 2345,
      "Ġremain": 2346,
      "|-": 2347,
      "Ġunit": 2348,
      "device": 2349,
      "Ġfig": 2350,
      "Ġplayer": 2351,
      "Ġparty": 2352,
      "Ġparams": 2353,
      "Ġnetwork": 2354,
      "Ġhum": 2355,
      "Ġcard": 2356,
      "Ġroom": 2357,
      "Ġdescri": 2358,
      "Ġsqu": 2359,
      "hel": 2360,
      "Ġwomen": 2361,
      "copy": 2362,
      "Ġtrack": 2363,
      "Ġaff": 2364,
      "Ġir": 2365,
      "Ġass": 2366,
      "Ġformat": 2367,
      "Ġusually": 2368,
      "Ġparameters": 2369,
      "window": 2370,
      "Ġtraining": 2371,
      "Ġhar": 2372,
      "xa": 2373,
      "Ġhistory": 2374,
      "</": 2375,
      "entry": 2376,
      "Ġpick": 2377,
      "ients": 2378,
      "Ġpaper": 2379,
      "Ġlow": 2380,
      "Ġpython": 2381,
      "Ġcontext": 2382,
      "fect": 2383,
      "ailed": 2384,
      "bab": 2385,
      "ole": 2386,
      "gress": 2387,
      "Ġcontent": 2388,
      "cal": 2389,
      "rate": 2390,
      "und": 2391,
      "fic": 2392,
      "Ġmem": 2393,
      "Ġadv": 2394,
      "Ġmember": 2395,
      "cat": 2396,
      "year": 2397,
      "over": 2398,
      "Ġenum": 2399,
      "ffer": 2400,
      "Ġpolit": 2401,
      "\"],": 2402,
      "ians": 2403,
      "Ġcost": 2404,
      "Ġtown": 2405,
      "send": 2406,
      "ĊĠĠĠĠĠĠĠĠĊĠĠĠĠĠĠĠ": 2407,
      "sche": 2408,
      "uation": 2409,
      "Ġshape": 2410,
      "Ġhost": 2411,
      "ively": 2412,
      "ias": 2413,
      "ca": 2414,
      "Ġredu": 2415,
      "Ġlib": 2416,
      "Ġinitial": 2417,
      "cr": 2418,
      "conf": 2419,
      "ality": 2420,
      ")]": 2421,
      "bas": 2422,
      "Ġbecame": 2423,
      "fort": 2424,
      "Ġlogger": 2425,
      "enn": 2426,
      "Ġhapp": 2427,
      "Ġoil": 2428,
      "Ġchoose": 2429,
      "xy": 2430,
      "\":\"": 2431,
      "iment": 2432,
      "ilar": 2433,
      "now": 2434,
      "Ġweight": 2435,
      "Ġperiod": 2436,
      "Ġ{\"": 2437,
      "Ġpresent": 2438,
      "Ġcome": 2439,
      "last": 2440,
      "writ": 2441,
      "Ġhttp": 2442,
      "Ġbrit": 2443,
      "duct": 2444,
      "Ġep": 2445,
      "Ġsent": 2446,
      "Ġste": 2447,
      "cast": 2448,
      "']['": 2449,
      "grad": 2450,
      "Ġleague": 2451,
      "born": 2452,
      "Ġtechn": 2453,
      "Ġlanguage": 2454,
      "Ġappear": 2455,
      "uster": 2456,
      "Ġfore": 2457,
      "cto": 2458,
      "Ġarch": 2459,
      "conv": 2460,
      "Ġalready": 2461,
      "Ġlikely": 2462,
      "sm": 2463,
      "oud": 2464,
      "Ġstore": 2465,
      "Ġwhite": 2466,
      "imum": 2467,
      "delete": 2468,
      "Ġnames": 2469,
      "Ġaug": 2470,
      "Ġtell": 2471,
      "Ġauthor": 2472,
      "Ġwebs": 2473,
      "grid": 2474,
      "Ġstruct": 2475,
      "results": 2476,
      "Ġdone": 2477,
      "Ġcell": 2478,
      "Ġpd": 2479,
      ">>": 2480,
      ",\"": 2481,
      "plement": 2482,
      "Ġearly": 2483,
      "graph": 2484,
      "pop": 2485,
      "widget": 2486,
      "ports": 2487,
      "ove": 2488,
      "Ġdays": 2489,
      "Ġdest": 2490,
      "rist": 2491,
      "ird": 2492,
      "loy": 2493,
      "Ġfac": 2494,
      "Ġpract": 2495,
      "Ġmot": 2496,
      "cret": 2497,
      "Ġcontact": 2498,
      "Ġgra": 2499,
      "Ġmock": 2500,
      "auth": 2501,
      "irt": 2502,
      "mm": 2503,
      "Ġmembers": 2504,
      "kes": 2505,
      "Ġgrad": 2506,
      "sor": 2507,
      "Ġmajor": 2508,
      "ouble": 2509,
      "show": 2510,
      "čĊčĊĠĠĠ": 2511,
      "Ġjan": 2512,
      "Ġdeter": 2513,
      "gar": 2514,
      "ii": 2515,
      "Ġupdate": 2516,
      "Ġequ": 2517,
      "ires": 2518,
      "Ġur": 2519,
      "Ġfriends": 2520,
      "Ġdataset": 2521,
      "Ġnat": 2522,
      "only": 2523,
      "Ġdraw": 2524,
      "ĠÐ": 2525,
      "Ġyork": 2526,
      "layer": 2527,
      "sel": 2528,
      "button": 2529,
      "pert": 2530,
      "aim": 2531,
      "Ġinte": 2532,
      "Ġbig": 2533,
      "erc": 2534,
      "asure": 2535,
      "anch": 2536,
      "ators": 2537,
      "'):": 2538,
      "stral": 2539,
      "uly": 2540,
      "Ġins": 2541,
      "abase": 2542,
      "rag": 2543,
      "Ġgrow": 2544,
      "weight": 2545,
      "Ġonline": 2546,
      "Ġexec": 2547,
      "Ġfill": 2548,
      "Ġquery": 2549,
      "Ġdam": 2550,
      "[-": 2551,
      "********": 2552,
      "func": 2553,
      "ese": 2554,
      "ene": 2555,
      "ney": 2556,
      "uture": 2557,
      "raint": 2558,
      "Ġdevice": 2559,
      "Ġrespon": 2560,
      "lower": 2561,
      "Ġexist": 2562,
      "aly": 2563,
      "Ġip": 2564,
      "dr": 2565,
      "sv": 2566,
      "Ġant": 2567,
      "page": 2568,
      "aps": 2569,
      "Ġfeature": 2570,
      "ends": 2571,
      "aterial": 2572,
      "Ġenter": 2573,
      "Ġpoints": 2574,
      "lines": 2575,
      "Ġcook": 2576,
      "initial": 2577,
      "job": 2578,
      "Ġfoc": 2579,
      "Ġiss": 2580,
      "Ġoffer": 2581,
      "replace": 2582,
      "Ġkind": 2583,
      "Ġsong": 2584,
      "service": 2585,
      "Ġscreen": 2586,
      "oute": 2587,
      "Ġcustom": 2588,
      "total": 2589,
      "Ġcause": 2590,
      "rest": 2591,
      "Ð°": 2592,
      "sample": 2593,
      "Ġren": 2594,
      "icon": 2595,
      "Ġrelation": 2596,
      "handler": 2597,
      "ination": 2598,
      "acy": 2599,
      "Ġbecome": 2600,
      "points": 2601,
      "Ġbit": 2602,
      "gt": 2603,
      "ood": 2604,
      "most": 2605,
      "pha": 2606,
      "Ġdjango": 2607,
      "uck": 2608,
      "Ġphys": 2609,
      "Ġsocial": 2610,
      "imal": 2611,
      "Ġneg": 2612,
      "uff": 2613,
      "Ġoriginal": 2614,
      "txt": 2615,
      "oder": 2616,
      "body": 2617,
      "Ġtalk": 2618,
      "dec": 2619,
      "ains": 2620,
      "Ġphot": 2621,
      "Ġbutton": 2622,
      "texts": 2623,
      "Ġalign": 2624,
      "Ġdoing": 2625,
      "Ġsort": 2626,
      "Ġdoesn": 2627,
      "Ġsoftware": 2628,
      "ised": 2629,
      "mult": 2630,
      "mit": 2631,
      "settings": 2632,
      ")),": 2633,
      "bit": 2634,
      "Ġcreated": 2635,
      "'].": 2636,
      "Ġinternational": 2637,
      "Ġgovernment": 2638,
      "Ġcy": 2639,
      "Ġcollege": 2640,
      "Ġprim": 2641,
      "Ġdim": 2642,
      "Ġgre": 2643,
      "iam": 2644,
      "Ġdom": 2645,
      "Ġsche": 2646,
      "ptember": 2647,
      "Ġcam": 2648,
      "era": 2649,
      "Ġcourt": 2650,
      "Ġmill": 2651,
      "erate": 2652,
      "ilt": 2653,
      "mock": 2654,
      "urch": 2655,
      "Ġdatetime": 2656,
      "Ġmibbuilder": 2657,
      "Ġhol": 2658,
      "Ġhot": 2659,
      "unit": 2660,
      "Ġnote": 2661,
      "bot": 2662,
      "Ġgerman": 2663,
      "Ġprovide": 2664,
      "tensor": 2665,
      "Ġ[\"": 2666,
      "Ġbottom": 2667,
      "Ġbal": 2668,
      "Ġchannel": 2669,
      "ru": 2670,
      "Ġage": 2671,
      "labels": 2672,
      "Ġmind": 2673,
      "Ġeduc": 2674,
      "Ġgetting": 2675,
      "Ġking": 2676,
      "Ġdistribut": 2677,
      "pecially": 2678,
      "ament": 2679,
      "Ġlower": 2680,
      "ãĥ": 2681,
      "Ġfront": 2682,
      "Ðµ": 2683,
      "aug": 2684,
      "ched": 2685,
      "first": 2686,
      "record": 2687,
      "ublic": 2688,
      "match": 2689,
      "Ġrom": 2690,
      "Ġclose": 2691,
      "Ġdue": 2692,
      "ude": 2693,
      "descriptor": 2694,
      "iddle": 2695,
      "men": 2696,
      "ril": 2697,
      "verage": 2698,
      "Ġsun": 2699,
      "tf": 2700,
      "bert": 2701,
      "Ġresearch": 2702,
      "Ġplot": 2703,
      "ironment": 2704,
      "Ġvideo": 2705,
      "wise": 2706,
      "Ġmeans": 2707,
      "~~": 2708,
      "och": 2709,
      "header": 2710,
      "ster": 2711,
      "Ġclear": 2712,
      "Ġchampions": 2713,
      "Ġboard": 2714,
      "isk": 2715,
      "Ġmeet": 2716,
      "Ġcharacter": 2717,
      "can": 2718,
      "https": 2719,
      "ctober": 2720,
      "verse": 2721,
      "ategory": 2722,
      "Ġitems": 2723,
      "Ġprofession": 2724,
      "score": 2725,
      "vi": 2726,
      "Ġque": 2727,
      "fit": 2728,
      "Ġdescrib": 2729,
      "ivid": 2730,
      "fields": 2731,
      "Ġfit": 2732,
      "Ġquick": 2733,
      "Ġawait": 2734,
      "ison": 2735,
      "Ġdescription": 2736,
      "ops": 2737,
      "({": 2738,
      "ym": 2739,
      "exception": 2740,
      "Ġlat": 2741,
      "Ġworking": 2742,
      "Ġregular": 2743,
      "Ã¡": 2744,
      "ux": 2745,
      "Ġrequire": 2746,
      "rt": 2747,
      "Ġnormal": 2748,
      "pat": 2749,
      "Ġsix": 2750,
      "Ġmarch": 2751,
      "Ġpan": 2752,
      "Ġbrow": 2753,
      "proto": 2754,
      "loadtexts": 2755,
      "sing": 2756,
      "Ġpaint": 2757,
      "Ġplayed": 2758,
      "umb": 2759,
      "hol": 2760,
      "tain": 2761,
      "center": 2762,
      "Ġdisc": 2763,
      "Ġ``": 2764,
      "Ġworks": 2765,
      "oms": 2766,
      "Ġlot": 2767,
      "idden": 2768,
      "Ġseptember": 2769,
      "iple": 2770,
      "ãĤ": 2771,
      "abs": 2772,
      "Ġparticular": 2773,
      "Ġaugust": 2774,
      "Ġengine": 2775,
      "\"))": 2776,
      "ender": 2777,
      "direct": 2778,
      "space": 2779,
      "std": 2780,
      "req": 2781,
      "email": 2782,
      "Ġlines": 2783,
      "Ġfive": 2784,
      "Ġreason": 2785,
      "Ġdoctor": 2786,
      "ype": 2787,
      "parent": 2788,
      "aced": 2789,
      "stack": 2790,
      "Ġapi": 2791,
      "rem": 2792,
      "author": 2793,
      "hing": 2794,
      "Ġdocument": 2795,
      "ius": 2796,
      "Ġcred": 2797,
      "Ġprot": 2798,
      "Ġnamed": 2799,
      "Ġespecially": 2800,
      "ements": 2801,
      "osh": 2802,
      "Ġsimilar": 2803,
      "axis": 2804,
      "Ġflo": 2805,
      "store": 2806,
      "features": 2807,
      "*-": 2808,
      "ana": 2809,
      "rat": 2810,
      "Ġje": 2811,
      "Ġpark": 2812,
      "mt": 2813,
      "Ġfilter": 2814,
      "admin": 2815,
      "Ġlocation": 2816,
      "Ġinstall": 2817,
      "Ġbool": 2818,
      "Ġbuy": 2819,
      "pc": 2820,
      "ĊĊĠĠĠĠĠĠĠĠĠĠĠĠĠĠĠ": 2821,
      "Ġaward": 2822,
      "ham": 2823,
      "Ġhalf": 2824,
      "Ġmoney": 2825,
      "Ġserial": 2826,
      "ried": 2827,
      "Ġlearn": 2828,
      "Ġvi": 2829,
      "ability": 2830,
      "dd": 2831,
      "Ġhel": 2832,
      "Ġreleased": 2833,
      "Ġmode": 2834,
      "perties": 2835,
      "Ġmer": 2836,
      "abled": 2837,
      "eline": 2838,
      "Ġcrit": 2839,
      "Ġcamp": 2840,
      "Ġobj": 2841,
      "change": 2842,
      "template": 2843,
      "sa": 2844,
      "Ġtoken": 2845,
      "Ġcorn": 2846,
      "istr": 2847,
      "Ġwriting": 2848,
      "bose": 2849,
      "Ġther": 2850,
      ")):": 2851,
      "Ġemail": 2852,
      "Ġoctober": 2853,
      "Ġimg": 2854,
      "Ġstay": 2855,
      "Ġleave": 2856,
      "stream": 2857,
      "Ġteach": 2858,
      "matrix": 2859,
      "Ġformer": 2860,
      "mar": 2861,
      "eds": 2862,
      "normal": 2863,
      "Ġacc": 2864,
      "Ġstation": 2865,
      "Ġaustral": 2866,
      "Ġsession": 2867,
      "password": 2868,
      "ography": 2869,
      "yes": 2870,
      "Ġsection": 2871,
      "ival": 2872,
      "rad": 2873,
      "Ġlayer": 2874,
      "idge": 2875,
      "web": 2876,
      "Ġsite": 2877,
      "next": 2878,
      "Ġround": 2879,
      "Ġwear": 2880,
      "fn": 2881,
      "Ġball": 2882,
      "Ġhor": 2883,
      "Ġprobab": 2884,
      "aff": 2885,
      "Ġcareer": 2886,
      "vember": 2887,
      "tic": 2888,
      "Ġabove": 2889,
      "mission": 2890,
      "track": 2891,
      "ĊĊĊ": 2892,
      "Ġpast": 2893,
      "Ġnever": 2894,
      "Ġbirths": 2895,
      "]))": 2896,
      "Ġnn": 2897,
      "inc": 2898,
      "Ġ-*-": 2899,
      "Ġcertain": 2900,
      "Ġserver": 2901,
      "child": 2902,
      "style": 2903,
      "Ġmaterial": 2904,
      "rench": 2905,
      "Ġjanuary": 2906,
      "Ġdisplay": 2907,
      "ming": 2908,
      "rics": 2909,
      "coun": 2910,
      "mary": 2911,
      "apan": 2912,
      "Ġvar": 2913,
      "Ġsettings": 2914,
      "Ġwal": 2915,
      "Ġdece": 2916,
      "leg": 2917,
      "Ġwebsite": 2918,
      "Ġpain": 2919,
      "history": 2920,
      "cls": 2921,
      "pk": 2922,
      "like": 2923,
      "Ġlocated": 2924,
      "Ġthough": 2925,
      "ills": 2926,
      "ached": 2927,
      "gb": 2928,
      "Ġvill": 2929,
      "Ċĉĉĉĉ": 2930,
      "Ġstra": 2931,
      "location": 2932,
      "Ġpet": 2933,
      "Ġprevious": 2934,
      "pool": 2935,
      "Ġconv": 2936,
      "Ġmask": 2937,
      "ee": 2938,
      "Ġframe": 2939,
      "artment": 2940,
      "ponent": 2941,
      "Ġroot": 2942,
      "Ġbow": 2943,
      "Ġjune": 2944,
      "height": 2945,
      "Ġparent": 2946,
      "Ġremo": 2947,
      "Ġclos": 2948,
      "patch": 2949,
      "Ġdrop": 2950,
      "ada": 2951,
      "Ġinf": 2952,
      "Ġblo": 2953,
      "strip": 2954,
      "\\\\": 2955,
      "Ġmap": 2956,
      "Ġcv": 2957,
      "people": 2958,
      "Ġservices": 2959,
      "Ġlimit": 2960,
      "Ġfall": 2961,
      "aged": 2962,
      "where": 2963,
      "ulum": 2964,
      "rary": 2965,
      "Ġeuro": 2966,
      "medi": 2967,
      "predict": 2968,
      "idence": 2969,
      "Ġbritish": 2970,
      "posed": 2971,
      "Ġfur": 2972,
      "resource": 2973,
      "Ġjuly": 2974,
      "after": 2975,
      "la": 2976,
      "rot": 2977,
      "Ġaxis": 2978,
      "ernel": 2979,
      "orage": 2980,
      "Ġadmin": 2981,
      "eval": 2982,
      "Ġneeds": 2983,
      "Ġwait": 2984,
      "display": 2985,
      "Ġunion": 2986,
      "Ġdeg": 2987,
      "transform": 2988,
      "Ġreally": 2989,
      "ford": 2990,
      "Ġfilms": 2991,
      "Ġprevent": 2992,
      "Ġbad": 2993,
      "avor": 2994,
      "game": 2995,
      "Ġapril": 2996,
      "Ġsleep": 2997,
      "Ġchurch": 2998,
      "Ġlove": 2999,
      "evision": 3000,
      "Ġaud": 3001,
      "Ġsepar": 3002,
      "Ġnecess": 3003,
      "apping": 3004,
      "Ġhours": 3005,
      "arr": 3006,
      "Ġexerc": 3007,
      "Ġens": 3008,
      "Ġfilename": 3009,
      "parameters": 3010,
      "uction": 3011,
      "element": 3012,
      "embed": 3013,
      "Ġforce": 3014,
      "ha": 3015,
      "inte": 3016,
      "irection": 3017,
      "just": 3018,
      "www": 3019,
      "Ġvalueerror": 3020,
      "sn": 3021,
      "Ġcompet": 3022,
      "âģ": 3023,
      "Ġimpro": 3024,
      "Ġtrad": 3025,
      "Ġnovember": 3026,
      "Ġmsg": 3027,
      "bed": 3028,
      "Ġbi": 3029,
      "lex": 3030,
      "sys": 3031,
      "cording": 3032,
      "ĊĠĠĠĠĠĠĠĠĠĠĠĠĠ": 3033,
      "Ġtypes": 3034,
      "norm": 3035,
      "ogle": 3036,
      "Ġgraph": 3037,
      "Ġinvol": 3038,
      "'ve": 3039,
      "Ġnight": 3040,
      "Ġglobal": 3041,
      "ama": 3042,
      "unic": 3043,
      "ites": 3044,
      "Ġreceived": 3045,
      "Ġhistor": 3046,
      "ouch": 3047,
      "Ġbring": 3048,
      "mib": 3049,
      "drop": 3050,
      "plied": 3051,
      "Ġbuilding": 3052,
      "network": 3053,
      "serial": 3054,
      "Ġroad": 3055,
      "uk": 3056,
      "Ġflow": 3057,
      "Ġindic": 3058,
      "Ġfields": 3059,
      "Ġpurch": 3060,
      "Ġsil": 3061,
      "ighb": 3062,
      "lished": 3063,
      "cut": 3064,
      "Ġwords": 3065,
      "Ġcountry": 3066,
      "sort": 3067,
      "Ġstre": 3068,
      "cap": 3069,
      "Ġfocus": 3070,
      "Ġdecember": 3071,
      "ordin": 3072,
      "reshold": 3073,
      "ionary": 3074,
      "Ġinside": 3075,
      "Ġcross": 3076,
      "Ġpredict": 3077,
      "manager": 3078,
      "Ġfeatures": 3079,
      "datetime": 3080,
      "Ġindivid": 3081,
      "Ð¸": 3082,
      "fi": 3083,
      "cmd": 3084,
      "ino": 3085,
      "ws": 3086,
      "vate": 3087,
      "Ġlive": 3088,
      "fully": 3089,
      "Ġtaking": 3090,
      "div": 3091,
      "Ġsimple": 3092,
      "Ġevents": 3093,
      "lat": 3094,
      "struction": 3095,
      "ga": 3096,
      "ogn": 3097,
      "align": 3098,
      "american": 3099,
      "Ġphil": 3100,
      "\"])": 3101,
      "folder": 3102,
      "aking": 3103,
      "Ġoffice": 3104,
      "lambda": 3105,
      "esh": 3106,
      "Ġthird": 3107,
      "feature": 3108,
      "cache": 3109,
      "uit": 3110,
      "Ġstick": 3111,
      "Ġgreen": 3112,
      "Ġbank": 3113,
      "python": 3114,
      "Ġdeal": 3115,
      "Ġdiffic": 3116,
      "remove": 3117,
      "acc": 3118,
      "ief": 3119,
      "ele": 3120,
      "|'": 3121,
      "Ġiter": 3122,
      "Ġpal": 3123,
      "orig": 3124,
      "system": 3125,
      "Ġdig": 3126,
      "omet": 3127,
      "ĊĠĠĠĠĠĠĠĠĠĠĠĠĠĠĠĠĠ": 3128,
      "Ġareas": 3129,
      "bt": 3130,
      "has": 3131,
      "seq": 3132,
      "Ġwall": 3133,
      "scale": 3134,
      "light": 3135,
      "Ġbuilt": 3136,
      "nts": 3137,
      "Ġaccept": 3138,
      "Ġcorrect": 3139,
      "estamp": 3140,
      "Ġeast": 3141,
      "bers": 3142,
      "eder": 3143,
      "Ġsample": 3144,
      "Ġmount": 3145,
      "Ġjud": 3146,
      "Ġ>>>": 3147,
      "register": 3148,
      "Ġenglish": 3149,
      "astic": 3150,
      "Ġsend": 3151,
      "Ġsequ": 3152,
      "Ġinvest": 3153,
      "Ġprofessional": 3154,
      "Ġisland": 3155,
      "Ġsch": 3156,
      "Ġ>=": 3157,
      "Ġ'.": 3158,
      "cover": 3159,
      "Ġrole": 3160,
      "though": 3161,
      "etch": 3162,
      "Ġreview": 3163,
      "Ġsym": 3164,
      "(-": 3165,
      "Ġmal": 3166,
      "irm": 3167,
      "Ġsho": 3168,
      "cm": 3169,
      "urg": 3170,
      "century": 3171,
      "Ġmodule": 3172,
      "Ġmass": 3173,
      "static": 3174,
      "ued": 3175,
      "Ġsimply": 3176,
      "nodes": 3177,
      "cing": 3178,
      "Ġelement": 3179,
      "bruary": 3180,
      "(_": 3181,
      "]),": 3182,
      "Ġpresident": 3183,
      "Ġtre": 3184,
      "active": 3185,
      "angle": 3186,
      "atter": 3187,
      "Ġproperty": 3188,
      "prefix": 3189,
      "Ġstrong": 3190,
      "Ġinc": 3191,
      "non": 3192,
      "colle": 3193,
      "Ġgold": 3194,
      "dot": 3195,
      "ured": 3196,
      "Ġheld": 3197,
      "ignore": 3198,
      "curity": 3199,
      "Ġrunning": 3200,
      "Ġcand": 3201,
      "Ġregion": 3202,
      "pa": 3203,
      "Ġrefer": 3204,
      "Ġattack": 3205,
      "Ġ'/": 3206,
      "Ġchrist": 3207,
      "Ġwood": 3208,
      "Ġdtype": 3209,
      "stop": 3210,
      "Ġprovided": 3211,
      "ulumi": 3212,
      "Ġfar": 3213,
      "round": 3214,
      "ique": 3215,
      "rec": 3216,
      "Ġoc": 3217,
      "Ġvo": 3218,
      "Ġtag": 3219,
      "outer": 3220,
      "Ġexpl": 3221,
      "avy": 3222,
      "Ġtyp": 3223,
      "unch": 3224,
      "zeros": 3225,
      "Ġexperience": 3226,
      "aves": 3227,
      "Ġfire": 3228,
      "Ġground": 3229,
      "Ġmakes": 3230,
      "nown": 3231,
      "option": 3232,
      "Ġkill": 3233,
      "atform": 3234,
      "ged": 3235,
      "istic": 3236,
      "Ġunderstand": 3237,
      "Ġeurope": 3238,
      ".âĢĿ": 3239,
      "Ġweb": 3240,
      "ellow": 3241,
      "she": 3242,
      "xxxx": 3243,
      "Ġmic": 3244,
      "ising": 3245,
      "Ġstory": 3246,
      "bre": 3247,
      "Ġeval": 3248,
      "Ġoutside": 3249,
      "Ġstar": 3250,
      "ieve": 3251,
      "Ġ<=": 3252,
      "qt": 3253,
      "cert": 3254,
      "fs": 3255,
      "gl": 3256,
      "click": 3257,
      "gment": 3258,
      "Ġjapan": 3259,
      "ÑĤ": 3260,
      "Ġtelevision": 3261,
      "account": 3262,
      "âĢĶ": 3263,
      "src": 3264,
      "Ġkwargs": 3265,
      "Ġmedic": 3266,
      "Ġforward": 3267,
      "ker": 3268,
      "Ġcommunity": 3269,
      "Ġpassword": 3270,
      "airs": 3271,
      "Ġtree": 3272,
      "ba": 3273,
      "Ġagre": 3274,
      "atory": 3275,
      "icens": 3276,
      "Ġproblem": 3277,
      "Ġregister": 3278,
      "Ġbab": 3279,
      "rain": 3280,
      "Ġexpress": 3281,
      "Ġscore": 3282,
      "ĊĠĠĠĠĠĠĠĠĠĠĠĠĠĠĠĠĠĠĠĠĠĠĠĠĠĠĠĠĠĠĠĠĠĠĠ": 3283,
      "Ġimp": 3284,
      "Ġheat": 3285,
      "Ġenvironment": 3286,
      "Ġwidth": 3287,
      "Ġestablished": 3288,
      "Ġwritten": 3289,
      "Ġincluded": 3290,
      "pace": 3291,
      "================================": 3292,
      "Ġcomplete": 3293,
      "Ġansw": 3294,
      "Ġattention": 3295,
      "win": 3296,
      "Ġsaid": 3297,
      "Ġphone": 3298,
      "Ġdivision": 3299,
      "don": 3300,
      "Ġthread": 3301,
      "Ġremember": 3302,
      "ror": 3303,
      "Ġdownload": 3304,
      "temp": 3305,
      "Ġrock": 3306,
      "Ġplant": 3307,
      "Ġhon": 3308,
      "ĠĠĠĠĠĠĠĠĠĠĠĠĠĠĠĠĠĠĠĠĠĠĠĠĠĠĠĠĠĠĠĠ": 3309,
      "actions": 3310,
      "epoch": 3311,
      "ses": 3312,
      "Ġfebruary": 3313,
      "Ġfix": 3314,
      "mem": 3315,
      "Ġconditions": 3316,
      "pred": 3317,
      "Ġriver": 3318,
      "Ġpopulation": 3319,
      "ergy": 3320,
      "Ġpattern": 3321,
      "username": 3322,
      "Ġcalcul": 3323,
      ".')": 3324,
      "Ġnull": 3325,
      "Ġpull": 3326,
      "Ġcontract": 3327,
      "Ġnatural": 3328,
      "Ġcult": 3329,
      "Ġcast": 3330,
      "classes": 3331,
      "Ġplaces": 3332,
      "Ġrecords": 3333,
      "Ġspecies": 3334,
      "Ġdu": 3335,
      "'''": 3336,
      "Ġeye": 3337,
      "fin": 3338,
      "Ġalthough": 3339,
      "ube": 3340,
      "Ġtal": 3341,
      "fc": 3342,
      "Ġ##": 3343,
      "Ġmid": 3344,
      "tree": 3345,
      "zz": 3346,
      "activ": 3347,
      "full": 3348,
      "gp": 3349,
      "Ġrather": 3350,
      "Ġcomputer": 3351,
      "Ġinstit": 3352,
      "Ġrelationship": 3353,
      "Ġvict": 3354,
      "]['": 3355,
      "iding": 3356,
      "meta": 3357,
      "ributes": 3358,
      "Ġcoll": 3359,
      "Ġasync": 3360,
      "Ġlabels": 3361,
      "etimes": 3362,
      "images": 3363,
      "Ġmeasure": 3364,
      "Ġlonger": 3365,
      "offset": 3366,
      "inv": 3367,
      "Ġrate": 3368,
      "Ġentry": 3369,
      "Ġsubject": 3370,
      "Ġensure": 3371,
      ".\")": 3372,
      "car": 3373,
      "ĊĠĠĠĠĠĠĠĠĠĠ": 3374,
      "equal": 3375,
      "Ġrail": 3376,
      "Ġtransform": 3377,
      "Ġsan": 3378,
      "scal": 3379,
      "Ġbegan": 3380,
      "comple": 3381,
      "Ġtuple": 3382,
      "Ġpersonal": 3383,
      "Ġgir": 3384,
      "when": 3385,
      "Ġbelow": 3386,
      "ero": 3387,
      "Ġfing": 3388,
      "Ġentire": 3389,
      "dri": 3390,
      "metadata": 3391,
      "adem": 3392,
      "Ġbatt": 3393,
      "stats": 3394,
      "Ġsound": 3395,
      "long": 3396,
      "Ġslow": 3397,
      "Ġcommit": 3398,
      "essages": 3399,
      "Ġmiddle": 3400,
      "Ġgroups": 3401,
      "Ġapplication": 3402,
      "connection": 3403,
      "Ġstudy": 3404,
      "Ġcopyright": 3405,
      "itary": 3406,
      "Ġsat": 3407,
      "Ġtook": 3408,
      "Ġanything": 3409,
      "ĊĠĠĠĠĠĠĠĠĠĠĠĠĠĠ": 3410,
      "Ġparse": 3411,
      "Ġresource": 3412,
      "Ġii": 3413,
      "words": 3414,
      "Ġinfo": 3415,
      "Ġpublished": 3416,
      "Ċĉĉĉĉĉĉ": 3417,
      "living": 3418,
      "Ġfurther": 3419,
      "Ġadded": 3420,
      "Ġrecomm": 3421,
      "Ġmultiple": 3422,
      "Ġprobably": 3423,
      "ournal": 3424,
      "Ġedge": 3425,
      "band": 3426,
      ":`": 3427,
      "exists": 3428,
      "Ġten": 3429,
      "Ġtemper": 3430,
      "Ġsometimes": 3431,
      "Ġheight": 3432,
      "ĊĠĠĠĠĠĠĠĠĠĠĠĠĠĠĠĠĠĠĠĠĠĠ": 3433,
      "Ġidea": 3434,
      "bi": 3435,
      "script": 3436,
      "des": 3437,
      "Ġseem": 3438,
      "Ġder": 3439,
      ".)": 3440,
      "enum": 3441,
      "Ġcls": 3442,
      "Ġhands": 3443,
      "Ġden": 3444,
      "Ġtemp": 3445,
      "Ġtensor": 3446,
      "pay": 3447,
      "adding": 3448,
      "Ġconnection": 3449,
      "Ġwalk": 3450,
      "Ġdevelopment": 3451,
      "profile": 3452,
      "yal": 3453,
      "Ġill": 3454,
      "dev": 3455,
      "di": 3456,
      "Ġintro": 3457,
      "Ġcou": 3458,
      "mbol": 3459,
      "Ġblue": 3460,
      "åı": 3461,
      "ams": 3462,
      "ilities": 3463,
      "ny": 3464,
      "osp": 3465,
      "Ġorigin": 3466,
      "Ġdrink": 3467,
      "Ġcannot": 3468,
      "Ġfrench": 3469,
      "Ġaccording": 3470,
      "Ġ...": 3471,
      "Ġbed": 3472,
      "respon": 3473,
      "mine": 3474,
      "Ġtur": 3475,
      "ili": 3476,
      "').": 3477,
      "Ġreturned": 3478,
      "second": 3479,
      "Ġmath": 3480,
      "Ġoccur": 3481,
      "Ġadditional": 3482,
      "Ġcondition": 3483,
      "Ġfish": 3484,
      "Ġclaim": 3485,
      "Ġquestions": 3486,
      "gy": 3487,
      "font": 3488,
      "Ġmonth": 3489,
      "ÑĢ": 3490,
      "sup": 3491,
      "Ġcentury": 3492,
      "Ġetc": 3493,
      "Ġpractice": 3494,
      "ula": 3495,
      "---": 3496,
      "Ġbehav": 3497,
      "Ġour": 3498,
      "Ġconvert": 3499,
      "Ġnotice": 3500,
      "Ġeasy": 3501,
      "iers": 3502,
      "ĊĠĠĠĠĠĠĠĠĠĠĠĠĠĠĠĠĠĠĠĠ": 3503,
      "rows": 3504,
      "setstatus": 3505,
      "sd": 3506,
      "Ġnecessary": 3507,
      "Ġroll": 3508,
      "license": 3509,
      "Ġsen": 3510,
      "Ġcontaining": 3511,
      "tle": 3512,
      "(*": 3513,
      "Ġcomfort": 3514,
      "Ġafric": 3515,
      "aries": 3516,
      "real": 3517,
      "Ġcirc": 3518,
      "Ġsetup": 3519,
      "room": 3520,
      "ille": 3521,
      "Ġdeep": 3522,
      "Ġwrap": 3523,
      "kens": 3524,
      "Ġborn": 3525,
      "Ġocc": 3526,
      "Ġmedia": 3527,
      "Ġsurface": 3528,
      "Ġdifficult": 3529,
      "uel": 3530,
      "Ġbin": 3531,
      "ondon": 3532,
      "bytes": 3533,
      "td": 3534,
      "expected": 3535,
      "ensive": 3536,
      "Ġfrequ": 3537,
      "tract": 3538,
      "\"):": 3539,
      "Ġcounter": 3540,
      "Ġenumerate": 3541,
      "Ġsoci": 3542,
      "Ġpiece": 3543,
      "ÃŃ": 3544,
      "Ġdepartment": 3545,
      "cel": 3546,
      "Ġfem": 3547,
      "Ġpositive": 3548,
      "Ġvisit": 3549,
      "pg": 3550,
      "suc": 3551,
      "Ġlate": 3552,
      "Ġattempt": 3553,
      "Ġcompl": 3554,
      "exit": 3555,
      "Ġserved": 3556,
      "Ġstandard": 3557,
      "Ġeducation": 3558,
      "____": 3559,
      "Ġpopular": 3560,
      "torch": 3561,
      ");": 3562,
      "Ġtow": 3563,
      "Ġarmy": 3564,
      "Ġchanges": 3565,
      "Ġrequests": 3566,
      "itted": 3567,
      "Ġgoal": 3568,
      "hash": 3569,
      "('/": 3570,
      "constraint": 3571,
      "Ġrepe": 3572,
      "Ġfeed": 3573,
      "ung": 3574,
      "Ġstudents": 3575,
      "Ġparts": 3576,
      "dule": 3577,
      "Ġbul": 3578,
      "spe": 3579,
      "Ġrisk": 3580,
      "Ġprotect": 3581,
      "Ġmanag": 3582,
      "aily": 3583,
      "Ġheart": 3584,
      "Ġfre": 3585,
      "Ġhandle": 3586,
      "Ġblood": 3587,
      "Ġthought": 3588,
      "çļ": 3589,
      "cons": 3590,
      "Ġlab": 3591,
      "Ġer": 3592,
      "insert": 3593,
      "Ġsplit": 3594,
      "product": 3595,
      "Ġmaint": 3596,
      "Ġrot": 3597,
      "cil": 3598,
      "Ġdirectory": 3599,
      "Ġbg": 3600,
      "çļĦ": 3601,
      "Ġofficial": 3602,
      "itude": 3603,
      "Ġhuman": 3604,
      "Ġlooking": 3605,
      "ĊĊĊĠĠĠ": 3606,
      "wd": 3607,
      "Ġrender": 3608,
      "Ġyoung": 3609,
      "Ġparents": 3610,
      "common": 3611,
      "ony": 3612,
      "Ġstarted": 3613,
      "required": 3614,
      "Ġhit": 3615,
      "ibility": 3616,
      "Ġprepare": 3617,
      "Ġactive": 3618,
      "čĊčĊĠĠĠĠĠĠĠ": 3619,
      "cfg": 3620,
      "Ġenergy": 3621,
      "}}": 3622,
      "hold": 3623,
      "cd": 3624,
      "ctx": 3625,
      "Ġmarket": 3626,
      "auto": 3627,
      "Ġess": 3628,
      "Ġcontains": 3629,
      "layers": 3630,
      "Ġmigr": 3631,
      "lease": 3632,
      "Ġacross": 3633,
      "Ġmedical": 3634,
      "Ġvoc": 3635,
      "rule": 3636,
      "Ġmach": 3637,
      "'][": 3638,
      "fore": 3639,
      "cles": 3640,
      "allow": 3641,
      "Ġeat": 3642,
      "Ġamong": 3643,
      "columns": 3644,
      "span": 3645,
      "Ġsell": 3646,
      "Ġwilliam": 3647,
      "soft": 3648,
      "\">": 3649,
      "Ñģ": 3650,
      "ks": 3651,
      "Ġdark": 3652,
      "Ġ..": 3653,
      "Ġreach": 3654,
      "Ġpict": 3655,
      "Ġmac": 3656,
      "Ġhttps": 3657,
      "Ġepis": 3658,
      "Ġinfl": 3659,
      "Ġswe": 3660,
      "Ġstreet": 3661,
      "Ġbroad": 3662,
      "tmp": 3663,
      "schema": 3664,
      "Ġsmo": 3665,
      "ained": 3666,
      "pp": 3667,
      "epend": 3668,
      "conom": 3669,
      "ado": 3670,
      "Ġproblems": 3671,
      "atic": 3672,
      "ering": 3673,
      "Ġstress": 3674,
      "Ġreading": 3675,
      "Ġbasic": 3676,
      "bet": 3677,
      "Ġbooks": 3678,
      "layout": 3679,
      "Ġlondon": 3680,
      "Ġtrying": 3681,
      "ij": 3682,
      "(\"\\": 3683,
      "Ġstream": 3684,
      "Ġlin": 3685,
      "Ġmel": 3686,
      "icles": 3687,
      "Ġprior": 3688,
      "Ġvarious": 3689,
      "report": 3690,
      "Ġmov": 3691,
      "Ġproper": 3692,
      "Ġrights": 3693,
      "Ġcombin": 3694,
      "sq": 3695,
      "directory": 3696,
      "Ġfast": 3697,
      "ussian": 3698,
      "Ġfont": 3699,
      "Ġproducts": 3700,
      "Ġinteger": 3701,
      "invalid": 3702,
      "Ġsummer": 3703,
      "Ġassociation": 3704,
      "Ġrelease": 3705,
      "Ġfuture": 3706,
      "execute": 3707,
      "Ġintrodu": 3708,
      "Ġkm": 3709,
      "ners": 3710,
      "Ġtax": 3711,
      "Ġbill": 3712,
      "scope": 3713,
      "Ġobtain": 3714,
      "izes": 3715,
      "Ġvillage": 3716,
      "optim": 3717,
      "usr": 3718,
      "asing": 3719,
      "Ġaverage": 3720,
      "custom": 3721,
      "Ġcourse": 3722,
      "ceed": 3723,
      "Ġho": 3724,
      "ening": 3725,
      "oring": 3726,
      "control": 3727,
      "encies": 3728,
      "fill": 3729,
      "Ġreduce": 3730,
      "Ġeyes": 3731,
      "Ġverbose": 3732,
      "woosh": 3733,
      "draw": 3734,
      "Ġassign": 3735,
      "Ġacadem": 3736,
      "Ġways": 3737,
      "Ġincrease": 3738,
      "Ġham": 3739,
      "Ġimages": 3740,
      "dt": 3741,
      "Ġpartner": 3742,
      "thread": 3743,
      "Ġcop": 3744,
      "Ġcases": 3745,
      "inf": 3746,
      "Ġmonths": 3747,
      "Ġeasier": 3748,
      "Ġbecom": 3749,
      "except": 3750,
      "inputs": 3751,
      "ica": 3752,
      "Ġdescribed": 3753,
      "ted": 3754,
      "tk": 3755,
      "Ġbenef": 3756,
      "alys": 3757,
      "sig": 3758,
      "Ġdirectly": 3759,
      "west": 3760,
      "tick": 3761,
      "Ġimmedi": 3762,
      "xml": 3763,
      "Ġpen": 3764,
      "Ġparameter": 3765,
      "Ġled": 3766,
      "card": 3767,
      "Ġsecret": 3768,
      "Ġspeed": 3769,
      "person": 3770,
      "Ġmethods": 3771,
      "ĊĠĠĠĠĠĠĠĠĠĠĠĠĠĠĠĠĠĠ": 3772,
      "cluster": 3773,
      "headers": 3774,
      "Ġ--------": 3775,
      "Ġmom": 3776,
      "Ġwhole": 3777,
      "agent": 3778,
      "Ġhigher": 3779,
      "samples": 3780,
      "imate": 3781,
      "joy": 3782,
      "rand": 3783,
      "Ġquickly": 3784,
      "Ġcool": 3785,
      "login": 3786,
      "Ġsex": 3787,
      "qa": 3788,
      "Ġgrand": 3789,
      "Ġmor": 3790,
      "ensions": 3791,
      "Ġoptim": 3792,
      "bal": 3793,
      "Ġcloth": 3794,
      "application": 3795,
      "aint": 3796,
      "Ġsetting": 3797,
      "plt": 3798,
      "Ġdistance": 3799,
      "Ġheader": 3800,
      "Ġcentral": 3801,
      "ĊĠĠ": 3802,
      "Ġactually": 3803,
      "note": 3804,
      "player": 3805,
      "(__": 3806,
      "Ġsolution": 3807,
      "han": 3808,
      "istry": 3809,
      "ui": 3810,
      "bc": 3811,
      "Ġgenerate": 3812,
      "diff": 3813,
      "Ġrank": 3814,
      "Ġdav": 3815,
      "bool": 3816,
      "ka": 3817,
      "success": 3818,
      "aring": 3819,
      "Ġcollection": 3820,
      "Ġtests": 3821,
      "queue": 3822,
      "Ġunique": 3823,
      "Ġwatch": 3824,
      "Ġjoin": 3825,
      "Ġotherwise": 3826,
      "Ġcolors": 3827,
      "Ġdatabase": 3828,
      "Ġexercise": 3829,
      "Ġready": 3830,
      "Ġlambda": 3831,
      "izing": 3832,
      "cos": 3833,
      "Ġobjects": 3834,
      "Ġnor": 3835,
      "Ġyield": 3836,
      "Ġseconds": 3837,
      "Ġok": 3838,
      "Ġmale": 3839,
      "Ġstarting": 3840,
      "Ġwarm": 3841,
      "some": 3842,
      "Ġwr": 3843,
      ":]": 3844,
      "Ġmenu": 3845,
      "ĠĊĠĠĠĠĠĠĠ": 3846,
      "ened": 3847,
      "sent": 3848,
      "Ġraw": 3849,
      "Ġ'__": 3850,
      "ponents": 3851,
      "('--": 3852,
      "Ġsold": 3853,
      "ĊĠĠĠĠĠĠĠĠĠĠĠĠĠĠĠĠĠĠĠĠĠĠĠĠĠ": 3854,
      "cv": 3855,
      "akes": 3856,
      "Ġstraight": 3857,
      "prov": 3858,
      "Ġmatrix": 3859,
      "Ġreplace": 3860,
      "\"{": 3861,
      "Ġarm": 3862,
      "ithub": 3863,
      "Ġsec": 3864,
      "uate": 3865,
      "fail": 3866,
      "Ġjournal": 3867,
      "dest": 3868,
      "using": 3869,
      "Ġletter": 3870,
      "tests": 3871,
      "Ġ',": 3872,
      "čĊĉ": 3873,
      "Ġdir": 3874,
      "pty": 3875,
      "keep": 3876,
      ")[": 3877,
      "Ġcouncil": 3878,
      "high": 3879,
      "Ġzip": 3880,
      "Ġbirth": 3881,
      "iforn": 3882,
      "chang": 3883,
      "Ġdistributed": 3884,
      "asc": 3885,
      "Ġrich": 3886,
      "åĪ": 3887,
      "look": 3888,
      "Ġameric": 3889,
      "Ġplaying": 3890,
      "Ġfail": 3891,
      "Ġgenerally": 3892,
      "Ġcompan": 3893,
      "Ġprimary": 3894,
      "hood": 3895,
      "acters": 3896,
      "Ġ'\\": 3897,
      "dum": 3898,
      "ico": 3899,
      "sets": 3900,
      "Ġdetails": 3901,
      "uses": 3902,
      "integer": 3903,
      "Ġcompletely": 3904,
      "ightly": 3905,
      "Ġrule": 3906,
      "Ġdictionary": 3907,
      "Ġspeak": 3908,
      "Ġsugg": 3909,
      "Ġcoding": 3910,
      "Ġexecut": 3911,
      "Ġgot": 3912,
      "istics": 3913,
      "Ġcm": 3914,
      "Ġbur": 3915,
      "Ġeasily": 3916,
      "section": 3917,
      "users": 3918,
      "Ġsuggest": 3919,
      "Ġ::": 3920,
      "channels": 3921,
      "Ġneeded": 3922,
      "aaaa": 3923,
      "Ġscale": 3924,
      "Ġupper": 3925,
      "Ġfeet": 3926,
      "Ġarguments": 3927,
      "Ġdied": 3928,
      "Ġ\",": 3929,
      "ara": 3930,
      "ifornia": 3931,
      "Ġlibrary": 3932,
      "numpy": 3933,
      "rypt": 3934,
      "Ġconvers": 3935,
      "created": 3936,
      "Ġassist": 3937,
      "Ġapplic": 3938,
      "Ġrecogn": 3939,
      "åĲ": 3940,
      "Ġvariable": 3941,
      "Ġdetermine": 3942,
      "Ġtouch": 3943,
      "=-": 3944,
      "Ġsyn": 3945,
      "Ġfinished": 3946,
      "Ġwhy": 3947,
      "Ġtravel": 3948,
      "Ġdirector": 3949,
      "Ġonto": 3950,
      "Ġphysical": 3951,
      "Ġterm": 3952,
      "limit": 3953,
      "Ġproduction": 3954,
      "Ġbound": 3955,
      "Ġtemplate": 3956,
      "Ġconsidered": 3957,
      "Ġsand": 3958,
      "Ġnumbers": 3959,
      "Ġinj": 3960,
      "Ġautom": 3961,
      "contain": 3962,
      "dated": 3963,
      "arp": 3964,
      "example": 3965,
      "annot": 3966,
      "Ġquestion": 3967,
      "Ġqual": 3968,
      "Ġscript": 3969,
      "Ġrespect": 3970,
      "Ġlos": 3971,
      "Ġdepending": 3972,
      "Ġfeder": 3973,
      "tt": 3974,
      "Ġrelated": 3975,
      "Ġcontainer": 3976,
      "Ġtakes": 3977,
      "Ġexpect": 3978,
      "Ġanswer": 3979,
      "help": 3980,
      "Ġestablish": 3981,
      "ission": 3982,
      "callback": 3983,
      "png": 3984,
      "Ġ''": 3985,
      "Ġannoun": 3986,
      "comput": 3987,
      "Ġsou": 3988,
      "else": 3989,
      "Ġsem": 3990,
      "Ġ[],": 3991,
      "reset": 3992,
      "Ġvir": 3993,
      "home": 3994,
      "rs": 3995,
      "Ġempty": 3996,
      "Ġpressure": 3997,
      "Ġappoint": 3998,
      "Ġprivate": 3999,
      "ĊĠĠĠĠĠĠĠĠĠĠĠĠĠĠĠĠĠĠĠĠĠ": 4000,
      "Ġcomb": 4001,
      "uri": 4002,
      "Ġice": 4003,
      "Ġnorm": 4004,
      "Ġindepend": 4005,
      "Ġ\"\"": 4006,
      "Ġbaby": 4007,
      "based": 4008,
      "missions": 4009,
      "Ġlearning": 4010,
      "Ġaltern": 4011,
      "weights": 4012,
      "clude": 4013,
      "Ġrub": 4014,
      "Ġpad": 4015,
      "Ġtour": 4016,
      "Ġforms": 4017,
      "Ġmissing": 4018,
      "Ġeverything": 4019,
      "Ġconsist": 4020,
      "plug": 4021,
      "ios": 4022,
      "seed": 4023,
      "Ġstage": 4024,
      "Ġsel": 4025,
      "flag": 4026,
      "alysis": 4027,
      "Ġqt": 4028,
      "policy": 4029,
      "global": 4030,
      "parameter": 4031,
      "Ġach": 4032,
      "Ġprice": 4033,
      "Ġbud": 4034,
      "']:": 4035,
      "va": 4036,
      "Ġenjoy": 4037,
      "writer": 4038,
      "Ġtransl": 4039,
      "Ġdaily": 4040,
      "Ġsav": 4041,
      "ban": 4042,
      "rd": 4043,
      "domain": 4044,
      "itation": 4045,
      "Ġtransfer": 4046,
      "Ġtaken": 4047,
      "roy": 4048,
      "Ġlost": 4049,
      "Ġimprove": 4050,
      "itional": 4051,
      "pb": 4052,
      "mi": 4053,
      "Ġsoon": 4054,
      "Ġdirection": 4055,
      "Ġneighb": 4056,
      "ĊĊĉ": 4057,
      "{\"": 4058,
      "Ġpieces": 4059,
      "Ġfather": 4060,
      "Ġburn": 4061,
      "edit": 4062,
      "background": 4063,
      "Ġing": 4064,
      "Ġeconom": 4065,
      "Ġmilitary": 4066,
      "âĸ": 4067,
      "Ġpolicy": 4068,
      "Ġsafe": 4069,
      "Ġloop": 4070,
      "ynam": 4071,
      "roller": 4072,
      "Ġcalifornia": 4073,
      "Ġemot": 4074,
      "iction": 4075,
      "math": 4076,
      "Ġthing": 4077,
      "fg": 4078,
      "Ġgar": 4079,
      "....": 4080,
      "ipe": 4081,
      "Ġselected": 4082,
      "Ġbrush": 4083,
      "Ġ):": 4084,
      "âģł": 4085,
      "Ġmoved": 4086,
      "lv": 4087,
      "Ġcommunic": 4088,
      "Ġfab": 4089,
      "\").": 4090,
      "Ġcomes": 4091,
      "Ġimplement": 4092,
      "Ġsituation": 4093,
      "Ġisn": 4094,
      "vector": 4095,
      "variable": 4096,
      "ensity": 4097,
      "best": 4098,
      "ples": 4099,
      "your": 4100,
      "Ġpil": 4101,
      "âģłâģł": 4102,
      "Ġsports": 4103,
      "zip": 4104,
      "Ġdelete": 4105,
      "ĠĠĠĠĠĠĠĠĠĠĠĠ": 4106,
      "setup": 4107,
      "orge": 4108,
      "Ġdiscuss": 4109,
      "Ġ#!": 4110,
      "bro": 4111,
      "Ġbgcolor": 4112,
      "ffic": 4113,
      "Ġpair": 4114,
      "Ġ\"/": 4115,
      "Ġextension": 4116,
      "addr": 4117,
      "Ġattribute": 4118,
      "wrap": 4119,
      "Ġindian": 4120,
      "ivers": 4121,
      "Ġtypically": 4122,
      "Ġutil": 4123,
      "Ġsubst": 4124,
      "Ġproduced": 4125,
      "itar": 4126,
      "Ġissues": 4127,
      "Ġdev": 4128,
      "Ġciv": 4129,
      "Ġbag": 4130,
      ")).": 4131,
      "Ġsus": 4132,
      "Ġthroughout": 4133,
      "empty": 4134,
      "bound": 4135,
      "posit": 4136,
      "Ġparticip": 4137,
      "Ġtrust": 4138,
      "Ġpand": 4139,
      "Ġprofile": 4140,
      "how": 4141,
      "Ġspecified": 4142,
      "Ġchampionship": 4143,
      "/{": 4144,
      "wor": 4145,
      "pan": 4146,
      "cam": 4147,
      "gor": 4148,
      "Ġcollect": 4149,
      "Ġagent": 4150,
      "Ġcompleted": 4151,
      "Ġsignific": 4152,
      "sleep": 4153,
      "anger": 4154,
      "ords": 4155,
      "čĊĠĠĠĠĠĠĠĠĠĠĠĠĠĠĠĠĠĠĠ": 4156,
      "Ġsociety": 4157,
      "aud": 4158,
      "cred": 4159,
      "Ġtap": 4160,
      "timeout": 4161,
      "Ġhealthy": 4162,
      "tab": 4163,
      "category": 4164,
      "entity": 4165,
      "metric": 4166,
      "=['": 4167,
      "Ġincludes": 4168,
      "Ġbrown": 4169,
      "decode": 4170,
      "Ġradio": 4171,
      "Ġhom": 4172,
      "Ġmuse": 4173,
      "Ġnews": 4174,
      "Ġidx": 4175,
      ",'": 4176,
      "Ġliter": 4177,
      "setmax": 4178,
      "route": 4179,
      "usion": 4180,
      "hedul": 4181,
      "ky": 4182,
      "uint": 4183,
      "Ġnovel": 4184,
      "sible": 4185,
      "burg": 4186,
      "buffer": 4187,
      "pytest": 4188,
      "Ã¶": 4189,
      "Ġnegative": 4190,
      "Ġdamage": 4191,
      "Ġcredit": 4192,
      "Ġutf": 4193,
      "dataframe": 4194,
      "Ġhun": 4195,
      "Ġshare": 4196,
      "timestamp": 4197,
      "edge": 4198,
      "Ġmich": 4199,
      "Ġanim": 4200,
      "Ġtv": 4201,
      "Ġmaster": 4202,
      "Ġoly": 4203,
      "Ġpytest": 4204,
      "rew": 4205,
      "Ġhall": 4206,
      "Ġbasis": 4207,
      "Ġadministr": 4208,
      "plv": 4209,
      "ĠĊĠĠĠ": 4210,
      "Ġmillion": 4211,
      "encode": 4212,
      "âĶ": 4213,
      "alpha": 4214,
      "inition": 4215,
      "Ġsongs": 4216,
      "Ġrout": 4217,
      "Ġsequence": 4218,
      "Ġshows": 4219,
      "Ġexc": 4220,
      ")*": 4221,
      "async": 4222,
      "Ġclasses": 4223,
      "Ġunless": 4224,
      "fiu": 4225,
      "Ġsaf": 4226,
      "Ġfold": 4227,
      "Ġsql": 4228,
      "Ġassociated": 4229,
      "ĊĠĠĠĠĠĠĠĠĠĠĠĠĠĠĠĠĠĠĠĠĠĠĠĠĠĠĠĠĠĠĠĠĠĠĠĠĠĠĠ": 4230,
      "Ġstri": 4231,
      "while": 4232,
      "iance": 4233,
      "rep": 4234,
      "uda": 4235,
      "ĠĠĠĠĠĠĠĠĠĠĠ": 4236,
      "Ġindividual": 4237,
      "desc": 4238,
      "Ġolymp": 4239,
      "loader": 4240,
      "Ġengland": 4241,
      "tags": 4242,
      "jty": 4243,
      "Ġterms": 4244,
      "Ġtreatment": 4245,
      "}\")": 4246,
      "role": 4247,
      "Ġactual": 4248,
      "Ġcorner": 4249,
      "Ġfinish": 4250,
      "sequence": 4251,
      "Ġscal": 4252,
      "Ġrepl": 4253,
      "hib": 4254,
      "asserttrue": 4255,
      "alt": 4256,
      "force": 4257,
      "sql": 4258,
      "factory": 4259,
      "Ġ\".": 4260,
      "ox": 4261,
      "æľ": 4262,
      "lplv": 4263,
      "mix": 4264,
      "loye": 4265,
      "Ġtemperature": 4266,
      "Ġchoice": 4267,
      "dig": 4268,
      "Ġstock": 4269,
      "sed": 4270,
      "properties": 4271,
      "Ġreference": 4272,
      "../": 4273,
      "Ġcra": 4274,
      "Ġfoods": 4275,
      "Ġfolder": 4276,
      "ialog": 4277,
      "ĊĠĊ": 4278,
      "Ġauth": 4279,
      "Ġoffset": 4280,
      "bon": 4281,
      "Ġnut": 4282,
      "there": 4283,
      "depth": 4284,
      "identifier": 4285,
      "Ġbowl": 4286,
      "Ġfight": 4287,
      "Ġstructure": 4288,
      "Ġpow": 4289,
      "gn": 4290,
      "lr": 4291,
      "Ġsecurity": 4292,
      "Ġvert": 4293,
      "rees": 4294,
      "Ġber": 4295,
      "ja": 4296,
      "Ġaffect": 4297,
      "found": 4298,
      "Ġroyal": 4299,
      "Ġlarger": 4300,
      "lan": 4301,
      "Ġpin": 4302,
      "Ġactivities": 4303,
      "Ġbehind": 4304,
      "clean": 4305,
      "ros": 4306,
      "Ġoperation": 4307,
      "Ġjack": 4308,
      "Ġconc": 4309,
      ")/": 4310,
      "acing": 4311,
      "Ġctx": 4312,
      "Ġscience": 4313,
      "Ġtodo": 4314,
      "Ġsympt": 4315,
      "Ġcomment": 4316,
      "'\\": 4317,
      "sem": 4318,
      "Ġallowed": 4319,
      "vision": 4320,
      "iation": 4321,
      "linear": 4322,
      "Ġful": 4323,
      "craft": 4324,
      "Ġdouble": 4325,
      "ram": 4326,
      "Ġwindows": 4327,
      "{\\": 4328,
      "tuple": 4329,
      "Ġtool": 4330,
      "Ġactivity": 4331,
      "oph": 4332,
      "aws": 4333,
      "final": 4334,
      "Ġtyping": 4335,
      "Ġchem": 4336,
      "Ġinsert": 4337,
      "Ġju": 4338,
      "term": 4339,
      "render": 4340,
      "Ġsteps": 4341,
      "Ġsrc": 4342,
      "Ġheaders": 4343,
      "Ġfavor": 4344,
      "Ġglass": 4345,
      "Ġviol": 4346,
      "ipeline": 4347,
      "Ġ'-": 4348,
      "Ġsquare": 4349,
      "Ġignore": 4350,
      "lect": 4351,
      "Ġmoving": 4352,
      "Ġcmd": 4353,
      "ician": 4354,
      "cloud": 4355,
      "Ġfailed": 4356,
      "tools": 4357,
      "Ġunits": 4358,
      "Ġcharacters": 4359,
      "ological": 4360,
      "argv": 4361,
      "Ġskip": 4362,
      "Ġresol": 4363,
      "setmaxaccess": 4364,
      "Ġbehavior": 4365,
      "Ġpolitical": 4366,
      "oo": 4367,
      "threshold": 4368,
      "Ġkeys": 4369,
      "Ġcompanies": 4370,
      "Ġroute": 4371,
      "Ġattr": 4372,
      "Ġmuseum": 4373,
      "itter": 4374,
      "Ġgets": 4375,
      "Ġaustralia": 4376,
      "Ġkernel": 4377,
      "interval": 4378,
      "Ġcame": 4379,
      "Ġerr": 4380,
      "igger": 4381,
      "Ġship": 4382,
      "za": 4383,
      "Ġfigure": 4384,
      "Ġpush": 4385,
      "press": 4386,
      "Ġpercent": 4387,
      "Ġ\"\\": 4388,
      "Ġgrid": 4389,
      "Ġargument": 4390,
      "++": 4391,
      "Ġbackground": 4392,
      "Ġrepublic": 4393,
      "ya": 4394,
      "chan": 4395,
      "æķ": 4396,
      "ĊĠĠĠĠĠĠ": 4397,
      "dm": 4398,
      "uuid": 4399,
      "Ġflat": 4400,
      "github": 4401,
      "Ġgard": 4402,
      "Ġwent": 4403,
      "Ġliving": 4404,
      "Ġemploy": 4405,
      "indices": 4406,
      "Ġdeaths": 4407,
      "semb": 4408,
      "Ġdecl": 4409,
      "ÐµÐ": 4410,
      "hentic": 4411,
      "wood": 4412,
      "Ġperformance": 4413,
      "Ġwashing": 4414,
      "Ġcurrently": 4415,
      "asket": 4416,
      "aging": 4417,
      "sec": 4418,
      "ida": 4419,
      "Ġissue": 4420,
      "aml": 4421,
      "Ġfat": 4422,
      "foo": 4423,
      "Ġadjust": 4424,
      "Ġnoqa": 4425,
      "warning": 4426,
      "stract": 4427,
      "\"][\"": 4428,
      "Ġdrive": 4429,
      "Ġinstruct": 4430,
      "language": 4431,
      "Ġtowards": 4432,
      "Ġmother": 4433,
      "Ġrules": 4434,
      "groups": 4435,
      "hi": 4436,
      "Ġstd": 4437,
      "çĶ": 4438,
      "Ġfloor": 4439,
      "ometry": 4440,
      "Ġlock": 4441,
      "null": 4442,
      "Ġplann": 4443,
      "Ġsmaller": 4444,
      "learn": 4445,
      "ania": 4446,
      "Ġpolice": 4447,
      "Ġcomfortable": 4448,
      "Ġhelps": 4449,
      "Ġconstruct": 4450,
      "Ġedit": 4451,
      "cerent": 4452,
      "den": 4453,
      "comment": 4454,
      "Ġchanged": 4455,
      "pm": 4456,
      "aches": 4457,
      "Ġdepend": 4458,
      "atives": 4459,
      "Ġlevels": 4460,
      ").__": 4461,
      "gorith": 4462,
      "power": 4463,
      "Ġcivil": 4464,
      "Ġinputs": 4465,
      "Ġusers": 4466,
      "Ġspread": 4467,
      "Ġwestern": 4468,
      "Ġveget": 4469,
      "Ġsugar": 4470,
      "Ġly": 4471,
      "Ġhen": 4472,
      "Ġvolume": 4473,
      "Ġdegree": 4474,
      "ands": 4475,
      "mag": 4476,
      "Ġweeks": 4477,
      "Ġembed": 4478,
      "Ġrat": 4479,
      "hal": 4480,
      "Ġitself": 4481,
      "itect": 4482,
      "Ġimmediately": 4483,
      "apply": 4484,
      "oded": 4485,
      "pix": 4486,
      "Ġprogress": 4487,
      "Ġallows": 4488,
      "Ġgoogle": 4489,
      "ader": 4490,
      "handle": 4491,
      "Ġsorted": 4492,
      "fa": 4493,
      "zone": 4494,
      "steps": 4495,
      "ulate": 4496,
      "Ġbot": 4497,
      "price": 4498,
      "Ġfeeling": 4499,
      "loads": 4500,
      "urt": 4501,
      "Ġpool": 4502,
      "Ġthick": 4503,
      "adian": 4504,
      "Ġmemory": 4505,
      "Ġresp": 4506,
      "'}": 4507,
      "Ġpers": 4508,
      "Ġchall": 4509,
      "Ġsens": 4510,
      "known": 4511,
      "Ġfresh": 4512,
      "ini": 4513,
      "Ġtmp": 4514,
      "Ġvia": 4515,
      "Ġindia": 4516,
      "Ġrace": 4517,
      "nan": 4518,
      "Ġcolumns": 4519,
      "hidden": 4520,
      "hs": 4521,
      "counter": 4522,
      "interface": 4523,
      "what": 4524,
      "Ġworked": 4525,
      "alog": 4526,
      "tri": 4527,
      "mus": 4528,
      "Ġveh": 4529,
      "vent": 4530,
      "anced": 4531,
      "transl": 4532,
      "yl": 4533,
      "Ġschools": 4534,
      "nel": 4535,
      "django": 4536,
      "driver": 4537,
      "Ġuk": 4538,
      "__':": 4539,
      "Ġtor": 4540,
      "obs": 4541,
      "Ġmicro": 4542,
      "greg": 4543,
      "Ġul": 4544,
      "Ġorganization": 4545,
      "summary": 4546,
      "Ġchart": 4547,
      "flags": 4548,
      "~~~~": 4549,
      "Ġsignificant": 4550,
      "single": 4551,
      "mac": 4552,
      "Ġuses": 4553,
      "bra": 4554,
      "Ġpublish": 4555,
      "ãĢ": 4556,
      "Ġcold": 4557,
      "Ġmart": 4558,
      "antic": 4559,
      "Ġbreath": 4560,
      "public": 4561,
      "Ġmetadata": 4562,
      "\"].": 4563,
      "Ġfinanc": 4564,
      "Ġoperations": 4565,
      "pid": 4566,
      "Ġexact": 4567,
      "Ġelements": 4568,
      "ario": 4569,
      "Ġpurchase": 4570,
      "dtype": 4571,
      "Ġdress": 4572,
      "oon": 4573,
      "aur": 4574,
      "čĊĉĉ": 4575,
      "reshape": 4576,
      "Ġnotes": 4577,
      "Ġutils": 4578,
      "ĊĠĠĠĠĠĠĠĠĠĠĠĠĠĠĠĠĠĠĠĠĠĠĠĠĠĠ": 4579,
      "Ġcontribut": 4580,
      "Ð°Ð": 4581,
      "Ġspend": 4582,
      "Ġlimited": 4583,
      "Ġmc": 4584,
      "Ġquality": 4585,
      "Ġpotential": 4586,
      "ipal": 4587,
      "attribute": 4588,
      "Ġwriter": 4589,
      "Ġfrance": 4590,
      "apt": 4591,
      "Ġconfiguration": 4592,
      "dc": 4593,
      "Ġlarg": 4594,
      "Ġsalt": 4595,
      "Ġvariety": 4596,
      "relu": 4597,
      "Ġwarr": 4598,
      "Ġrecent": 4599,
      "Ġfunctions": 4600,
      "Ġappropri": 4601,
      "engine": 4602,
      "pattern": 4603,
      "sr": 4604,
      "Ġeveryone": 4605,
      "enced": 4606,
      "Ġhtml": 4607,
      "Ġconstant": 4608,
      "Ġalpha": 4609,
      "Ġdiet": 4610,
      "Ġcomplex": 4611,
      "Ġmibtable": 4612,
      "Ġgoals": 4613,
      "Ġut": 4614,
      "]+": 4615,
      "amin": 4616,
      "Ġgun": 4617,
      "Ġmarried": 4618,
      "fast": 4619,
      "Ġelection": 4620,
      "icag": 4621,
      "Ġextract": 4622,
      "Ġadding": 4623,
      "logging": 4624,
      "Ġamerica": 4625,
      "Ġprefer": 4626,
      "Ġassum": 4627,
      "region": 4628,
      "Ġsymptoms": 4629,
      "Ġattor": 4630,
      "Ġmanager": 4631,
      "charfield": 4632,
      "Ġones": 4633,
      "har": 4634,
      "cpu": 4635,
      "Ġstren": 4636,
      "Ġtick": 4637,
      "expr": 4638,
      "****************": 4639,
      "Ġlicens": 4640,
      "Ġhosp": 4641,
      "Ġsides": 4642,
      "Ġdise": 4643,
      "paths": 4644,
      "world": 4645,
      "mut": 4646,
      "iles": 4647,
      "portun": 4648,
      "augh": 4649,
      "bounds": 4650,
      "ulated": 4651,
      "ira": 4652,
      "]):": 4653,
      "site": 4654,
      "prop": 4655,
      "elling": 4656,
      "olean": 4657,
      "Ġicon": 4658,
      "rang": 4659,
      "Ġ'--": 4660,
      "Ġseparate": 4661,
      "othes": 4662,
      "Ġpassed": 4663,
      "generic": 4664,
      "Ġpromot": 4665,
      "database": 4666,
      "Ġflag": 4667,
      "servation": 4668,
      "iform": 4669,
      "isco": 4670,
      "Ġhour": 4671,
      "care": 4672,
      "Ġment": 4673,
      "aign": 4674,
      "Ġyet": 4675,
      "vm": 4676,
      "pu": 4677,
      "Ġcsv": 4678,
      "Ġ#!/": 4679,
      "Ġmur": 4680,
      "Ġreser": 4681,
      "area": 4682,
      "ĊĠĠĠĠĠĠĠĠĠĠĠĠĠĠĠĠĠĠĠĠĠĠĠĠĠĠĠĠ": 4683,
      "Ġplatform": 4684,
      "Ġslightly": 4685,
      "future": 4686,
      "eve": 4687,
      "Ġfair": 4688,
      "screen": 4689,
      "training": 4690,
      "Ġexit": 4691,
      "Ġcanada": 4692,
      "Ġcategory": 4693,
      "errors": 4694,
      "Ġcandid": 4695,
      "Ġcommission": 4696,
      "Ġna": 4697,
      "Ġfest": 4698,
      "Ġequal": 4699,
      "bad": 4700,
      "ville": 4701,
      "free": 4702,
      "clear": 4703,
      "Ġblank": 4704,
      "ä»": 4705,
      "Ġvers": 4706,
      "Ġupon": 4707,
      "events": 4708,
      "hor": 4709,
      "Ġesc": 4710,
      "rm": 4711,
      "porary": 4712,
      "Ġdebut": 4713,
      "Ġever": 4714,
      "Ġemploye": 4715,
      "Ġpackage": 4716,
      "dy": 4717,
      "Ġreceive": 4718,
      "Ġmodern": 4719,
      "Ġdiag": 4720,
      "atively": 4721,
      "Ġspot": 4722,
      "ledge": 4723,
      "master": 4724,
      "Ġseen": 4725,
      "plotlib": 4726,
      "curacy": 4727,
      ".\",": 4728,
      "cols": 4729,
      "ĊĊĊĊĊĊĊĊ": 4730,
      "Ġarticle": 4731,
      "xim": 4732,
      "vey": 4733,
      "Ġmanagement": 4734,
      "Ġmeta": 4735,
      "Ġdt": 4736,
      "ded": 4737,
      "Ġcoordin": 4738,
      "Ġcluster": 4739,
      "distance": 4740,
      "Ġ----------": 4741,
      "omb": 4742,
      "Ġmachine": 4743,
      "Ġlegal": 4744,
      "Ġopportun": 4745,
      "starts": 4746,
      "arily": 4747,
      "__,": 4748,
      "Ġeffort": 4749,
      "Ġsignal": 4750,
      "Ġarri": 4751,
      "Ġepo": 4752,
      "Ġtit": 4753,
      "Ġdetect": 4754,
      "Ġ----": 4755,
      "video": 4756,
      "vals": 4757,
      "Ġregard": 4758,
      "Ġjames": 4759,
      "Ġeffective": 4760,
      "Ġdecision": 4761,
      "Ġ()": 4762,
      "Ġtermin": 4763,
      "pers": 4764,
      "fam": 4765,
      "Ġschedule": 4766,
      "}\"": 4767,
      "factor": 4768,
      "=#": 4769,
      "configuration": 4770,
      "Ġrelax": 4771,
      "Ġpulumi": 4772,
      "sqrt": 4773,
      "Ġ'%": 4774,
      "Ġrequires": 4775,
      "container": 4776,
      "Ġwash": 4777,
      "'d": 4778,
      "Ġord": 4779,
      "Ġsigned": 4780,
      "lor": 4781,
      "migr": 4782,
      "Ġsmooth": 4783,
      "Ġkit": 4784,
      "member": 4785,
      "enter": 4786,
      "Ġprote": 4787,
      "('\\": 4788,
      "Ġstudent": 4789,
      "Ġvector": 4790,
      "short": 4791,
      "ris": 4792,
      "commit": 4793,
      "dl": 4794,
      "Ġprop": 4795,
      "Ġdefe": 4796,
      "bus": 4797,
      "pad": 4798,
      "Ġsaying": 4799,
      "mas": 4800,
      "Ġexperi": 4801,
      "collection": 4802,
      "shot": 4803,
      "Ġbattle": 4804,
      "eg": 4805,
      "storage": 4806,
      "Ġexamples": 4807,
      "Ġstudies": 4808,
      "inner": 4809,
      "Â°": 4810,
      "Ġopened": 4811,
      "Ġmixture": 4812,
      "Ġexisting": 4813,
      "Ġcompute": 4814,
      "Ġmatches": 4815,
      "oll": 4816,
      "Ġmulti": 4817,
      "Ġactions": 4818,
      "zero": 4819,
      "Ġdesigned": 4820,
      "testcase": 4821,
      "vec": 4822,
      "Ġalmost": 4823,
      "rank": 4824,
      "rote": 4825,
      "Ġdead": 4826,
      "wt": 4827,
      "rupt": 4828,
      "Ġlisted": 4829,
      "Ġeight": 4830,
      "xi": 4831,
      "Ġbay": 4832,
      "Ġdut": 4833,
      "Ġnom": 4834,
      "staticmethod": 4835,
      "Ġconversation": 4836,
      "Ġprograms": 4837,
      "states": 4838,
      "named": 4839,
      "install": 4840,
      "ald": 4841,
      "Ġsect": 4842,
      "series": 4843,
      "sur": 4844,
      "eps": 4845,
      "ael": 4846,
      "ships": 4847,
      "ulty": 4848,
      "Ġingred": 4849,
      "pet": 4850,
      "ades": 4851,
      "Ġdomain": 4852,
      "Ġsam": 4853,
      "Ġstores": 4854,
      "imin": 4855,
      "Ġinvolved": 4856,
      "Ġgiving": 4857,
      "ugg": 4858,
      "Ġtab": 4859,
      "Ġgeorge": 4860,
      "resol": 4861,
      "Ġannounced": 4862,
      "Ġjoined": 4863,
      "orough": 4864,
      "gui": 4865,
      "ably": 4866,
      "()).": 4867,
      "Ġaren": 4868,
      "Ġmoist": 4869,
      "åĽ": 4870,
      "Ġhorse": 4871,
      "Ġmouth": 4872,
      "Ġproperties": 4873,
      "loop": 4874,
      "etype": 4875,
      "Ġsea": 4876,
      "Ġfro": 4877,
      "Ġmagaz": 4878,
      "cost": 4879,
      ")+": 4880,
      "----------------------------------------------------------------": 4881,
      "Ġguitar": 4882,
      "amma": 4883,
      "Ġdecor": 4884,
      "iling": 4885,
      "vo": 4886,
      "Ġgenerated": 4887,
      ":%": 4888,
      "Ġstack": 4889,
      "Ġfeelings": 4890,
      "Ġ//": 4891,
      "Ġce": 4892,
      "Ġplug": 4893,
      "ato": 4894,
      "units": 4895,
      "Ġplastic": 4896,
      "Ġindu": 4897,
      "convert": 4898,
      "Ġmatter": 4899,
      "_{": 4900,
      "Ġpsy": 4901,
      "Ġspan": 4902,
      "Ġwide": 4903,
      "Ġeuropean": 4904,
      "Ġshop": 4905,
      "Ġepoch": 4906,
      "osen": 4907,
      "Ġserious": 4908,
      "Ġwrong": 4909,
      "encoder": 4910,
      "Ġpadding": 4911,
      "lying": 4912,
      "extend": 4913,
      "Ġconcern": 4914,
      "ech": 4915,
      "ette": 4916,
      "Ġpeak": 4917,
      "Ġtend": 4918,
      "elist": 4919,
      "Ġdriver": 4920,
      "Ġhous": 4921,
      "Ġjoint": 4922,
      "prim": 4923,
      "Ġcorrespon": 4924,
      "Ġremoved": 4925,
      "Ġcore": 4926,
      "Ġwil": 4927,
      "Ġsig": 4928,
      "allel": 4929,
      "Ġplants": 4930,
      "reek": 4931,
      "tool": 4932,
      "Ġ\"__": 4933,
      "Ġvoice": 4934,
      "faces": 4935,
      "Ġmovie": 4936,
      "Ġbeginning": 4937,
      "quee": 4938,
      "Ġthom": 4939,
      "apter": 4940,
      "environ": 4941,
      "Ġfunc": 4942,
      "yer": 4943,
      "*(": 4944,
      "Ġteams": 4945,
      "Ġinflu": 4946,
      "dem": 4947,
      "neg": 4948,
      "menu": 4949,
      "pick": 4950,
      "Ġdecide": 4951,
      "alo": 4952,
      "plan": 4953,
      "uals": 4954,
      "times": 4955,
      "implement": 4956,
      "æķ°": 4957,
      "program": 4958,
      "ustri": 4959,
      "secret": 4960,
      "čĊčĊč": 4961,
      "Ġstorage": 4962,
      "Ã¤": 4963,
      "åħ": 4964,
      "Ġmaximum": 4965,
      "Ġmovement": 4966,
      "Ġmad": 4967,
      "thern": 4968,
      "Ġcoach": 4969,
      "Ġcreating": 4970,
      "nes": 4971,
      "Ġresid": 4972,
      "Ġgod": 4973,
      "Ġhang": 4974,
      "notes": 4975,
      "Ġhab": 4976,
      "Ġbri": 4977,
      "bind": 4978,
      "produ": 4979,
      "Ġmunic": 4980,
      "Ġze": 4981,
      "Ġtransport": 4982,
      "Ġskills": 4983,
      "ji": 4984,
      "Ġweights": 4985,
      "Ġvan": 4986,
      "tokens": 4987,
      "Ġeating": 4988,
      "Ġbytes": 4989,
      "Ġfabric": 4990,
      "Ġbath": 4991,
      "Ġlou": 4992,
      "cursor": 4993,
      "Ġwind": 4994,
      "Ġtherap": 4995,
      "period": 4996,
      "Ġepisode": 4997,
      "Ġinstr": 4998,
      "acity": 4999,
      "fetch": 5000,
      "Ġargparse": 5001,
      "Ġinternet": 5002,
      "Ġacqu": 5003,
      "Ġnorthern": 5004,
      "Ġmaintain": 5005,
      "rl": 5006,
      "Ġsense": 5007,
      "Ġfederal": 5008,
      "ufact": 5009,
      "Ġminister": 5010,
      "Ġmedal": 5011,
      "Ġprem": 5012,
      "Ġgirl": 5013,
      "metrics": 5014,
      "ils": 5015,
      "Ġfinally": 5016,
      "ays": 5017,
      "olic": 5018,
      "dates": 5019,
      "Ġarchitect": 5020,
      "Ġsupported": 5021,
      "}.": 5022,
      "Ġmibtablecolumn": 5023,
      "Ġalbums": 5024,
      "hest": 5025,
      "Ġusername": 5026,
      "wer": 5027,
      "(\\": 5028,
      "Ġheavy": 5029,
      "socket": 5030,
      "Ġbasket": 5031,
      "bn": 5032,
      "Ġdavid": 5033,
      "Ġrepeat": 5034,
      "Ġeventually": 5035,
      "px": 5036,
      "cker": 5037,
      "}\\": 5038,
      "Ġserve": 5039,
      "conn": 5040,
      "nam": 5041,
      "erry": 5042,
      "Ġrelig": 5043,
      "Ġspray": 5044,
      "Ġmoment": 5045,
      "Ġmetal": 5046,
      "lab": 5047,
      "prev": 5048,
      "zen": 5049,
      "iqu": 5050,
      "Ġseed": 5051,
      "Ġpoly": 5052,
      "Ġpup": 5053,
      "exist": 5054,
      "Ġtimeout": 5055,
      "volume": 5056,
      "selves": 5057,
      "Ġast": 5058,
      "extension": 5059,
      "Ġcache": 5060,
      "atom": 5061,
      "utions": 5062,
      "enty": 5063,
      "Ġroman": 5064,
      "nc": 5065,
      "Ġscr": 5066,
      "urance": 5067,
      "inese": 5068,
      "Ġangle": 5069,
      "-%": 5070,
      "enabled": 5071,
      "corpor": 5072,
      "################################################################": 5073,
      "Ġtape": 5074,
      "Ġresources": 5075,
      "Ġcit": 5076,
      "Ġmut": 5077,
      "ested": 5078,
      "document": 5079,
      "Ġthrow": 5080,
      "Ġeth": 5081,
      "operation": 5082,
      "Ġswitch": 5083,
      "Ġappropriate": 5084,
      "equ": 5085,
      "Ġleaves": 5086,
      "extract": 5087,
      "Ġequip": 5088,
      "Ġvot": 5089,
      "Ġmigrations": 5090,
      "Ġmis": 5091,
      "Ġgermany": 5092,
      "ares": 5093,
      "Ġauto": 5094,
      "trace": 5095,
      "isl": 5096,
      "Ġinterview": 5097,
      "Ġsources": 5098,
      "||": 5099,
      "Ġsuccessful": 5100,
      "izers": 5101,
      "vars": 5102,
      "Ġopening": 5103,
      "Ġadult": 5104,
      "tee": 5105,
      "Ġconstit": 5106,
      "outputs": 5107,
      "Ġpred": 5108,
      "ancy": 5109,
      "Ġ'_": 5110,
      "freq": 5111,
      "fp": 5112,
      "lt": 5113,
      "binary": 5114,
      "Ġsystems": 5115,
      "Ġcampaign": 5116,
      "Ġnodes": 5117,
      "().__": 5118,
      "Ġkingdom": 5119,
      "stry": 5120,
      "Ġgently": 5121,
      "Ġedges": 5122,
      "initialize": 5123,
      "Ġcas": 5124,
      "Ġprovince": 5125,
      "Ġerrors": 5126,
      "Ġolder": 5127,
      "Ġfoundation": 5128,
      "Ġtex": 5129,
      "called": 5130,
      "Ġexists": 5131,
      "Ġability": 5132,
      "umni": 5133,
      "assign": 5134,
      "Ġmessages": 5135,
      "Ġconstraint": 5136,
      "Ġdaugh": 5137,
      "Ġaustralian": 5138,
      "arter": 5139,
      "iet": 5140,
      "Ġperfect": 5141,
      "memory": 5142,
      "Ġexperiment": 5143,
      "crit": 5144,
      "skip": 5145,
      "Ġfine": 5146,
      "Ġtables": 5147,
      "Ġpandas": 5148,
      "organ": 5149,
      "Ġgas": 5150,
      "generate": 5151,
      "Ġgall": 5152,
      "\"\\": 5153,
      "Ġstrateg": 5154,
      "Ġfemale": 5155,
      "Ġfinancial": 5156,
      "Ġath": 5157,
      "support": 5158,
      "Ġexpand": 5159,
      "Ġfif": 5160,
      "Ġdan": 5161,
      "Ġthemselves": 5162,
      "Ġwrote": 5163,
      "Ġnothing": 5164,
      "returns": 5165,
      "Ġtro": 5166,
      "upper": 5167,
      "izont": 5168,
      "uous": 5169,
      "oura": 5170,
      "Ġvariables": 5171,
      "izations": 5172,
      "ota": 5173,
      "Ġha": 5174,
      "Ġforces": 5175,
      "Ġinches": 5176,
      "Ġchina": 5177,
      "si": 5178,
      "Ġprofess": 5179,
      "Ġattorney": 5180,
      "pd": 5181,
      "prob": 5182,
      "entials": 5183,
      "cn": 5184,
      "ĊĠĠĠĠĠĠĠĠĠĠĠĠĠĠĠĠĠĠĠĠĠĠĠĠĠĠĠĠĠ": 5185,
      "()))": 5186,
      "download": 5187,
      "more": 5188,
      ",,": 5189,
      "Ġoverall": 5190,
      "watch": 5191,
      "Ġfa": 5192,
      "Ġdetermin": 5193,
      "andatory": 5194,
      "package": 5195,
      "hr": 5196,
      "Ġprec": 5197,
      "Ġpurpose": 5198,
      "Ġmex": 5199,
      "Ġital": 5200,
      "basic": 5201,
      "reference": 5202,
      "solute": 5203,
      "widgets": 5204,
      "Ġkeeping": 5205,
      "gorithm": 5206,
      "Ġtalking": 5207,
      "Ġrecorded": 5208,
      "è¯": 5209,
      "cuda": 5210,
      "voc": 5211,
      "Ġ{}\".": 5212,
      "helper": 5213,
      "ription": 5214,
      "Ġconsum": 5215,
      "Ġdepth": 5216,
      "friend": 5217,
      "Ġchance": 5218,
      "Ġintegr": 5219,
      "Ġentity": 5220,
      "Ġlayers": 5221,
      "Ġjun": 5222,
      "Ġsouthern": 5223,
      "Ġquant": 5224,
      "black": 5225,
      "urls": 5226,
      "Ġexam": 5227,
      "mu": 5228,
      "vs": 5229,
      "Ġdoor": 5230,
      "Ġclosed": 5231,
      "Ġruns": 5232,
      "mapping": 5233,
      "delet": 5234,
      "Ġbeaut": 5235,
      "children": 5236,
      "tol": 5237,
      "water": 5238,
      "iger": 5239,
      "__()": 5240,
      "Ġgoes": 5241,
      "Ġ((": 5242,
      "Ġjer": 5243,
      "ifying": 5244,
      "Ġdefined": 5245,
      "Ġsets": 5246,
      "Ġtourn": 5247,
      "Ġmatplotlib": 5248,
      "Ġcards": 5249,
      "mic": 5250,
      "Ġfort": 5251,
      "ĠĠĠĠĠĠĠĠĠ": 5252,
      "ano": 5253,
      "Ġseven": 5254,
      "Ġdebug": 5255,
      "details": 5256,
      "Ġcream": 5257,
      "Ġinstitute": 5258,
      "blue": 5259,
      "Ġstaff": 5260,
      "Ġgrant": 5261,
      "tod": 5262,
      "Ġcharge": 5263,
      "'},": 5264,
      "Ġflask": 5265,
      "ander": 5266,
      "avg": 5267,
      "Ġmeeting": 5268,
      "unt": 5269,
      "Ġdirected": 5270,
      "aker": 5271,
      "Ġevidence": 5272,
      "ea": 5273,
      "()[": 5274,
      "Ġmary": 5275,
      "validation": 5276,
      "Ġjapanese": 5277,
      "strict": 5278,
      "Ġends": 5279,
      "cohol": 5280,
      "kernel": 5281,
      "zy": 5282,
      "generator": 5283,
      "vant": 5284,
      "'{": 5285,
      "Ġ\"--": 5286,
      "Ġdeveloped": 5287,
      "xff": 5288,
      "Ġcalculate": 5289,
      "Ġtechnology": 5290,
      "irtual": 5291,
      "correct": 5292,
      "Ġpret": 5293,
      "startswith": 5294,
      "Ġda": 5295,
      "Ġchair": 5296,
      "Ġcamera": 5297,
      "æĸ": 5298,
      "union": 5299,
      "even": 5300,
      "ests": 5301,
      "Ġchunk": 5302,
      "Ġic": 5303,
      "__)": 5304,
      "('-": 5305,
      "Ġbutter": 5306,
      "Ġsoil": 5307,
      "ndarray": 5308,
      "Ġapproach": 5309,
      "Ġhospital": 5310,
      "berg": 5311,
      "Ġarts": 5312,
      "pdf": 5313,
      "Ġearl": 5314,
      "Ġartist": 5315,
      "chain": 5316,
      "Ġcorpor": 5317,
      "ctors": 5318,
      "][\"": 5319,
      "ivity": 5320,
      "well": 5321,
      "Ġrows": 5322,
      "wr": 5323,
      "eq": 5324,
      "ste": 5325,
      "google": 5326,
      "failed": 5327,
      "Ġtoday": 5328,
      "hips": 5329,
      "Ġcrow": 5330,
      "fra": 5331,
      "Ġconstruction": 5332,
      "Ġgain": 5333,
      "`.": 5334,
      "Ġvisual": 5335,
      "Ġfollowed": 5336,
      "Ġhidden": 5337,
      "Ġleading": 5338,
      "Ġprefix": 5339,
      "poly": 5340,
      "Ġforeign": 5341,
      "Ġabs": 5342,
      "retch": 5343,
      "Ġprovides": 5344,
      "speed": 5345,
      "Ġboy": 5346,
      "fd": 5347,
      "Ġinvalid": 5348,
      "Ġborder": 5349,
      "Ġshell": 5350,
      "Ġfirm": 5351,
      "Ġchain": 5352,
      "ike": 5353,
      "cb": 5354,
      "Ġlegs": 5355,
      "###": 5356,
      "Ġsamples": 5357,
      "Ġrailway": 5358,
      "ĠĠĠĠĠĠĠĠĠĠ": 5359,
      "eff": 5360,
      "Ġcoast": 5361,
      "exper": 5362,
      "Ġreverse": 5363,
      "Ġjudge": 5364,
      "Ġrobert": 5365,
      "Ġplaced": 5366,
      "Ġremaining": 5367,
      "Ġfully": 5368,
      "Ġfle": 5369,
      "Ġcapital": 5370,
      "Ġmaterials": 5371,
      "gers": 5372,
      "cks": 5373,
      "Ġwife": 5374,
      "many": 5375,
      "house": 5376,
      "ensus": 5377,
      "Ġpaul": 5378,
      "Ġchief": 5379,
      "}/": 5380,
      "inct": 5381,
      "protocol": 5382,
      "Ġmeaning": 5383,
      "docs": 5384,
      "ĊĠĠĠĠĠĠĠĠĠĠĠĠĠĠĠĠĠĠĠĠĠĠĠĠĠĠĠĠĠĠ": 5385,
      "Ġminor": 5386,
      "vas": 5387,
      "dirname": 5388,
      "astype": 5389,
      "Ġ[[": 5390,
      "}'": 5391,
      "derr": 5392,
      "çĶ¨": 5393,
      "Ġmanufact": 5394,
      "Ġteacher": 5395,
      "Ġlake": 5396,
      "Ġindependent": 5397,
      "Ġmotion": 5398,
      "Ġbat": 5399,
      "={'": 5400,
      "Ġcontinued": 5401,
      "Ġlooks": 5402,
      "Ġiron": 5403,
      "Ġfranc": 5404,
      "Ġearn": 5405,
      "è¿": 5406,
      "Ġimag": 5407,
      "Ġcarry": 5408,
      "Ġparticularly": 5409,
      "pal": 5410,
      "aste": 5411,
      "unique": 5412,
      "ua": 5413,
      "once": 5414,
      "shire": 5415,
      "readonly": 5416,
      "Ġattach": 5417,
      "members": 5418,
      "Ġmilk": 5419,
      "rece": 5420,
      "illa": 5421,
      "Ġcentre": 5422,
      "(**": 5423,
      "ican": 5424,
      "feed": 5425,
      "Ġliqu": 5426,
      "nb": 5427,
      "__\":": 5428,
      "roid": 5429,
      "Ġshot": 5430,
      "}')": 5431,
      "Ġawards": 5432,
      "Ġmorn": 5433,
      "Ġcath": 5434,
      "month": 5435,
      "obile": 5436,
      "dumps": 5437,
      "edy": 5438,
      "Ġtesting": 5439,
      "ighest": 5440,
      "Ġgives": 5441,
      "Ġâ": 5442,
      "Ġperformed": 5443,
      "Ġreported": 5444,
      "Ġuseful": 5445,
      "Ġbon": 5446,
      "Ġconn": 5447,
      "publ": 5448,
      "Ġalone": 5449,
      "Ġbranch": 5450,
      "under": 5451,
      "modules": 5452,
      "optional": 5453,
      "Ġthus": 5454,
      "covery": 5455,
      "Ġserialized": 5456,
      "bucket": 5457,
      "Ġlif": 5458,
      "deg": 5459,
      "Ġingredients": 5460,
      "':'": 5461,
      "Ġwarn": 5462,
      "orial": 5463,
      "rier": 5464,
      "amount": 5465,
      "Ġsurv": 5466,
      "Ġwinter": 5467,
      "!!": 5468,
      "sembly": 5469,
      "queeze": 5470,
      "Ġcro": 5471,
      "Ġtrade": 5472,
      "Ġflor": 5473,
      "Ġstatement": 5474,
      "attributes": 5475,
      "Ġcommer": 5476,
      "stdout": 5477,
      "=_": 5478,
      "Ġaware": 5479,
      "Ġowner": 5480,
      "xt": 5481,
      "Ġtank": 5482,
      "å¤": 5483,
      "Ġjew": 5484,
      "Ã§": 5485,
      "Ġneck": 5486,
      "scores": 5487,
      "]*": 5488,
      "export": 5489,
      "cir": 5490,
      "Ġformed": 5491,
      "eli": 5492,
      "shift": 5493,
      "'m": 5494,
      "Ġarms": 5495,
      "extra": 5496,
      "Ġlu": 5497,
      "[(": 5498,
      "Ġacademy": 5499,
      "Ġseq": 5500,
      "Ġalcohol": 5501,
      "dump": 5502,
      "isions": 5503,
      "Ġeffects": 5504,
      "Ġexcess": 5505,
      "choice": 5506,
      "je": 5507,
      "Ġsecure": 5508,
      "Ġfounded": 5509,
      "Ġded": 5510,
      "Ġlinear": 5511,
      "gate": 5512,
      "Ġcollections": 5513,
      "forward": 5514,
      "Ġdemoc": 5515,
      "mitted": 5516,
      "rb": 5517,
      "Ġencoding": 5518,
      "Ġshown": 5519,
      "atically": 5520,
      "Ġ\"-": 5521,
      "adow": 5522,
      "dp": 5523,
      "uated": 5524,
      "Ġsites": 5525,
      "ongs": 5526,
      "Ġsymbol": 5527,
      "mal": 5528,
      "Ð»": 5529,
      "distribut": 5530,
      "(['": 5531,
      "two": 5532,
      "Ġwild": 5533,
      "Ġincome": 5534,
      "ategories": 5535,
      "Ġdra": 5536,
      "compile": 5537,
      "äº": 5538,
      "Ġhash": 5539,
      "ffix": 5540,
      "Ġcatch": 5541,
      "classmethod": 5542,
      "Ġactor": 5543,
      "Ġ\"%": 5544,
      "iced": 5545,
      "Ġven": 5546,
      "Ġproto": 5547,
      "Ġpix": 5548,
      "redu": 5549,
      "Ġtun": 5550,
      "flict": 5551,
      "Ġring": 5552,
      "tax": 5553,
      "Ġspr": 5554,
      "Ġpicture": 5555,
      "pulumi": 5556,
      "flo": 5557,
      "white": 5558,
      "volution": 5559,
      "Ġsheet": 5560,
      "ynamic": 5561,
      "Ġcommittee": 5562,
      "sole": 5563,
      "iring": 5564,
      "Ġhistoric": 5565,
      "ko": 5566,
      "Ġindustry": 5567,
      "liament": 5568,
      "ura": 5569,
      "Ġapproxim": 5570,
      "efield": 5571,
      "contin": 5572,
      "Ġworth": 5573,
      "Ġwire": 5574,
      "eries": 5575,
      "Ġmeat": 5576,
      "Ġanti": 5577,
      "bott": 5578,
      "internal": 5579,
      "ani": 5580,
      "Ġleaving": 5581,
      "Ġangel": 5582,
      "Ġtags": 5583,
      "implemented": 5584,
      "lers": 5585,
      "Ġnumer": 5586,
      "iders": 5587,
      "Ġcaused": 5588,
      "stud": 5589,
      "ben": 5590,
      "Ġcapture": 5591,
      "Ġartists": 5592,
      "Ġdocuments": 5593,
      "Ġculture": 5594,
      "ĊĠĠĠĠĠĠĠĠĠĠĠĠĠĠĠĠĠĠĠĠĠĠĠĠĠĠĠĠĠĠĠĠĠĠĠĠĠĠĠĠĠĠĠ": 5595,
      "Ġstations": 5596,
      "percent": 5597,
      "Ġbottle": 5598,
      "Ġscient": 5599,
      "Ġattributes": 5600,
      "mes": 5601,
      "Ġsubprocess": 5602,
      "Ġsaw": 5603,
      "Ġslowly": 5604,
      "identity": 5605,
      "Ġhimself": 5606,
      "âĸĪ": 5607,
      "Ġlicensed": 5608,
      "prior": 5609,
      "Ġmedium": 5610,
      "Ġcritic": 5611,
      "tw": 5612,
      "Ġeg": 5613,
      "(\"/": 5614,
      "Ġviews": 5615,
      "validate": 5616,
      "Ġoutputs": 5617,
      "multi": 5618,
      "Ġtheat": 5619,
      "scalar": 5620,
      "variables": 5621,
      "mk": 5622,
      "Ġ\")": 5623,
      "Ġunittest": 5624,
      "double": 5625,
      "concat": 5626,
      "Ġdisease": 5627,
      "Ġinterested": 5628,
      "Ġconduct": 5629,
      "Ġble": 5630,
      "Ġbridge": 5631,
      "Ġinstructions": 5632,
      "Ġbroadcast": 5633,
      "eras": 5634,
      "atever": 5635,
      "Ġmorning": 5636,
      "Ġpsych": 5637,
      "Ġtrace": 5638,
      "'+": 5639,
      "gc": 5640,
      "Ġfootballers": 5641,
      "mc": 5642,
      "lst": 5643,
      "component": 5644,
      "Ġkne": 5645,
      "Ġafrican": 5646,
      "Ġfra": 5647,
      "pn": 5648,
      "lig": 5649,
      "byte": 5650,
      "Ġwashington": 5651,
      "Ġdogs": 5652,
      "]],": 5653,
      "Ġwarrant": 5654,
      "Ġtraditional": 5655,
      "Ġfinger": 5656,
      "pite": 5657,
      "Ġcanadian": 5658,
      "serializer": 5659,
      "testing": 5660,
      ":\\": 5661,
      "rgb": 5662,
      "Ġspir": 5663,
      "Ġappearance": 5664,
      "Ġchallen": 5665,
      "Ġwoman": 5666,
      "Ġbeg": 5667,
      "quant": 5668,
      "Ġfestival": 5669,
      "Ġordered": 5670,
      "Ġcfg": 5671,
      "aland": 5672,
      "åŃ": 5673,
      "Ġpour": 5674,
      "Ġminimum": 5675,
      "Ġvalidation": 5676,
      "Ġfruit": 5677,
      "Ġtopic": 5678,
      "effect": 5679,
      "ester": 5680,
      "plugin": 5681,
      "Ġcleaning": 5682,
      "Ġnewsp": 5683,
      "Ġclothes": 5684,
      "Ġcouple": 5685,
      "Ġcountries": 5686,
      "kw": 5687,
      "Ġpatch": 5688,
      "čĊĠĠĠĠ": 5689,
      "ava": 5690,
      "plies": 5691,
      "Ġbalance": 5692,
      "Ġgreater": 5693,
      "Ġagreed": 5694,
      "elt": 5695,
      "simple": 5696,
      "Ġvirgin": 5697,
      "Ġhappy": 5698,
      "Ġhill": 5699,
      "')),": 5700,
      "chen": 5701,
      "chunk": 5702,
      "ella": 5703,
      "related": 5704,
      "bias": 5705,
      "endpoint": 5706,
      "Ġrecommended": 5707,
      "Ġqueue": 5708,
      "ribe": 5709,
      "Ġfactor": 5710,
      "Ġdegrees": 5711,
      "jpg": 5712,
      "ipy": 5713,
      "ustr": 5714,
      "Ġstrip": 5715,
      "inary": 5716,
      "star": 5717,
      "Ġmail": 5718,
      "Ġparliament": 5719,
      "days": 5720,
      "Ġprotein": 5721,
      "Ġalumni": 5722,
      "Ġdistribution": 5723,
      "Ġcoming": 5724,
      "exc": 5725,
      "beta": 5726,
      "abc": 5727,
      "Ġsuit": 5728,
      "original": 5729,
      "prec": 5730,
      "Ġiv": 5731,
      "enable": 5732,
      "å®": 5733,
      "segment": 5734,
      "Ġbrother": 5735,
      "Ġappeared": 5736,
      "ola": 5737,
      "ratio": 5738,
      "Ġprofessor": 5739,
      "Ġml": 5740,
      "signed": 5741,
      "Ġofficer": 5742,
      "Ġbasketball": 5743,
      "Ġideas": 5744,
      "Ġolympics": 5745,
      "mot": 5746,
      "Ġsaint": 5747,
      "Ġclo": 5748,
      "Ġelected": 5749,
      "grade": 5750,
      "ĠĊĠĠĠĠĠĠĠĠĠĠĠ": 5751,
      "Ġdrag": 5752,
      "Ġproperly": 5753,
      "colors": 5754,
      "Ġguard": 5755,
      "Ġcomponent": 5756,
      "repr": 5757,
      "controller": 5758,
      "ki": 5759,
      "Ġhook": 5760,
      "Ġdaughter": 5761,
      "ales": 5762,
      "Ġproduce": 5763,
      "Ġwet": 5764,
      "âķ": 5765,
      "seg": 5766,
      "Ġcallback": 5767,
      "ums": 5768,
      "asion": 5769,
      "Ġspring": 5770,
      "symbol": 5771,
      "Ġappointed": 5772,
      "Ġbuildings": 5773,
      "hl": 5774,
      "Ġstir": 5775,
      "ĊĊĠĠĠĠĠĠĠĠĠĠĠĠĠĠĠĠĠĠĠ": 5776,
      "Ġlargest": 5777,
      "Ġagreement": 5778,
      "apes": 5779,
      "gi": 5780,
      "Ġmas": 5781,
      "upload": 5782,
      "Ġcolon": 5783,
      "Ġafrica": 5784,
      "commands": 5785,
      "Ġimplied": 5786,
      "Ġaim": 5787,
      "Ġrev": 5788,
      "blank": 5789,
      "sey": 5790,
      "Ġzero": 5791,
      "Ġcursor": 5792,
      "erv": 5793,
      "Ġbrand": 5794,
      "platform": 5795,
      "lands": 5796,
      "relation": 5797,
      "fold": 5798,
      "\"},": 5799,
      "Ġreward": 5800,
      "Ġrecommend": 5801,
      "prot": 5802,
      "mn": 5803,
      "Ġlie": 5804,
      "syn": 5805,
      "Ġlisten": 5806,
      "mov": 5807,
      "Ġestim": 5808,
      "sampl": 5809,
      "ĊĠĠĠĠĠĠĠĠĠĠĠĠĠĠĠĠĠĠĠĠĠĠĠĠĠĠĠĠĠĠĠĠĠ": 5810,
      "ifications": 5811,
      "compute": 5812,
      "Ġpermission": 5813,
      "begin": 5814,
      "wa": 5815,
      "atten": 5816,
      "release": 5817,
      "raises": 5818,
      "Ġinvestig": 5819,
      "ilies": 5820,
      "backend": 5821,
      "Ġyellow": 5822,
      "idae": 5823,
      "Ġtasks": 5824,
      "Ġ')": 5825,
      "Ġpun": 5826,
      "Ġconnected": 5827,
      "Ġchinese": 5828,
      "Ġhasattr": 5829,
      "Ġmist": 5830,
      "Ġtools": 5831,
      "Ġconference": 5832,
      "payload": 5833,
      "Ġlack": 5834,
      "Ġgro": 5835,
      "frames": 5836,
      "Ġcart": 5837,
      "ieved": 5838,
      "Ġmit": 5839,
      "family": 5840,
      "Ġimpact": 5841,
      "contrib": 5842,
      "Ġdie": 5843,
      "filters": 5844,
      "Ġoriginally": 5845,
      "Ġì": 5846,
      "front": 5847,
      "Ġchoices": 5848,
      "Ġschema": 5849,
      "Ġitalian": 5850,
      "topic": 5851,
      "Ġmir": 5852,
      "Ġol": 5853,
      "Ġlose": 5854,
      "({'": 5855,
      "bing": 5856,
      "icians": 5857,
      "team": 5858,
      "pin": 5859,
      "available": 5860,
      "Ġtournament": 5861,
      "Ġgrowth": 5862,
      "pair": 5863,
      "pository": 5864,
      "Ġbatter": 5865,
      "ificate": 5866,
      "Ġcircle": 5867,
      "appro": 5868,
      "accept": 5869,
      "Ġmention": 5870,
      "green": 5871,
      "Ġdiff": 5872,
      "Ġds": 5873,
      "iler": 5874,
      "Ġearth": 5875,
      "posite": 5876,
      "Ġsquad": 5877,
      "\"/": 5878,
      "lar": 5879,
      "+'": 5880,
      "Ġminute": 5881,
      "missing": 5882,
      "irs": 5883,
      "Ġinterface": 5884,
      "park": 5885,
      "Ġshift": 5886,
      "Ġmaybe": 5887,
      "Ġcab": 5888,
      "_(": 5889,
      "road": 5890,
      "Ġthomas": 5891,
      "Ġcommands": 5892,
      "cross": 5893,
      "Ġpenn": 5894,
      "warn": 5895,
      "yles": 5896,
      "Ġapplied": 5897,
      "Ġsport": 5898,
      "Ġgetattr": 5899,
      "Ġconsult": 5900,
      "Ġmont": 5901,
      "Ġcompetition": 5902,
      "Ġupload": 5903,
      "Ġsoap": 5904,
      "Ġretri": 5905,
      "optimizer": 5906,
      "views": 5907,
      "Ġexplain": 5908,
      "elif": 5909,
      "Ġtherefore": 5910,
      "js": 5911,
      "ighter": 5912,
      "geometry": 5913,
      "Ġil": 5914,
      "ao": 5915,
      "Ġphoto": 5916,
      "Ġnice": 5917,
      "Ġannot": 5918,
      "Ġgal": 5919,
      "before": 5920,
      "Ġmagazine": 5921,
      "Ġstrength": 5922,
      "within": 5923,
      "Ġanimal": 5924,
      "zil": 5925,
      "Ġfarm": 5926,
      "raise": 5927,
      "Ġchemical": 5928,
      "clip": 5929,
      "Ġcells": 5930,
      "Ġfavorite": 5931,
      "Ġnar": 5932,
      "Ġfingers": 5933,
      "Ġglue": 5934,
      "counts": 5935,
      "Ġcele": 5936,
      "Ġprinc": 5937,
      "expand": 5938,
      "dro": 5939,
      "Ġrect": 5940,
      "Ġreplaced": 5941,
      "Ġban": 5942,
      "pen": 5943,
      "Ġ</": 5944,
      "Ġwhatever": 5945,
      "covered": 5946,
      "ropy": 5947,
      "Ġsuffer": 5948,
      "owner": 5949,
      "Ġgarden": 5950,
      "messages": 5951,
      "wf": 5952,
      "Ġsummary": 5953,
      "Ġshel": 5954,
      "Ġinsurance": 5955,
      "push": 5956,
      "Ġclothing": 5957,
      "verbose": 5958,
      "construct": 5959,
      "Ġeastern": 5960,
      "Ġanalysis": 5961,
      "detect": 5962,
      "Ġtrial": 5963,
      "mandatory": 5964,
      "><": 5965,
      "super": 5966,
      "Ġbecomes": 5967,
      "Ġxml": 5968,
      "ership": 5969,
      "Ġbeat": 5970,
      "break": 5971,
      "Ġknowledge": 5972,
      "forms": 5973,
      "mid": 5974,
      "ona": 5975,
      "Ġsurround": 5976,
      "Ġsettle": 5977,
      "Ġpreviously": 5978,
      "\"}": 5979,
      "Ġaircraft": 5980,
      "oke": 5981,
      "Ġholding": 5982,
      "iny": 5983,
      "Ġelectric": 5984,
      "Ġfake": 5985,
      "Ġcharg": 5986,
      "inder": 5987,
      "Ġthreshold": 5988,
      "foot": 5989,
      "Ġsafety": 5990,
      "Ġwhose": 5991,
      "rab": 5992,
      "clus": 5993,
      "Ġparis": 5994,
      "ration": 5995,
      "las": 5996,
      "riage": 5997,
      "ffff": 5998,
      "Ġpositions": 5999,
      "Ġthin": 6000,
      "Ġbinary": 6001,
      "kin": 6002,
      "Ġvit": 6003,
      "Ġhd": 6004,
      "Ġ\"_": 6005,
      "rome": 6006,
      "Ġanc": 6007,
      "reader": 6008,
      "Ġcoff": 6009,
      "repo": 6010,
      "pts": 6011,
      "edges": 6012,
      "vid": 6013,
      "Ġhousehold": 6014,
      "hook": 6015,
      "Ġkilled": 6016,
      "Ġzealand": 6017,
      "Ġdraft": 6018,
      "Ġhelpful": 6019,
      "complete": 6020,
      "onom": 6021,
      "Ġreached": 6022,
      "erial": 6023,
      "arange": 6024,
      "Ġmichael": 6025,
      "Ġpap": 6026,
      "signal": 6027,
      "Ġasking": 6028,
      "Ġattract": 6029,
      "Ġcarol": 6030,
      "Ġdesired": 6031,
      "english": 6032,
      "Ġappears": 6033,
      "brow": 6034,
      "sin": 6035,
      "Ġachieve": 6036,
      "Ġkore": 6037,
      "Ġsubsequ": 6038,
      "Ġscene": 6039,
      "Ġclip": 6040,
      "Ġscott": 6041,
      "Ġsess": 6042,
      "mak": 6043,
      "Ðº": 6044,
      "Ġinternal": 6045,
      "Ġtexas": 6046,
      "Ġleader": 6047,
      "Ġba": 6048,
      "bridge": 6049,
      "Ġserving": 6050,
      "lon": 6051,
      "Ġ%(": 6052,
      "Ġdecre": 6053,
      "Ġmetric": 6054,
      "figure": 6055,
      "ĠĠĠĠĠĠĠĠĠĠĠĠĠĠĠ": 6056,
      "Ġchick": 6057,
      "Ġhighest": 6058,
      "Ġvary": 6059,
      "Ġcharles": 6060,
      "Ġmess": 6061,
      "=%": 6062,
      "proxy": 6063,
      "filepath": 6064,
      "Ġdestroy": 6065,
      "Ġbecoming": 6066,
      "vd": 6067,
      "Ġidentify": 6068,
      "squ": 6069,
      "processing": 6070,
      "Ġfrank": 6071,
      "Ġalex": 6072,
      "Ġ{}'.": 6073,
      "Ġvehicle": 6074,
      "ems": 6075,
      "Ġnature": 6076,
      "Ġsegment": 6077,
      "Ġflags": 6078,
      "Ġtoward": 6079,
      "Ġrecip": 6080,
      "dims": 6081,
      "compl": 6082,
      "]])": 6083,
      "Ġkids": 6084,
      "hex": 6085,
      "iki": 6086,
      "Ġemerg": 6087,
      "Ġterrit": 6088,
      "holder": 6089,
      ":.": 6090,
      "Ġdance": 6091,
      "Ġreve": 6092,
      "Ġspect": 6093,
      "Ġschedul": 6094,
      "issue": 6095,
      "Ġsentence": 6096,
      "dropout": 6097,
      ".\\": 6098,
      "Ġanaly": 6099,
      "coordin": 6100,
      "aling": 6101,
      "Ġgave": 6102,
      "Ġathlet": 6103,
      "}{": 6104,
      "Ġsau": 6105,
      "sect": 6106,
      "ĊĠĠĠĠĠĠĠĠĊĠĠĠ": 6107,
      "Ġshoot": 6108,
      "Ġvegetables": 6109,
      "foreign": 6110,
      "Ġros": 6111,
      "zo": 6112,
      "Ġdum": 6113,
      "Ġsales": 6114,
      "detail": 6115,
      "Ġscen": 6116,
      "Ġcosts": 6117,
      "isc": 6118,
      "Ġcovered": 6119,
      "Ġsod": 6120,
      "Ġstarts": 6121,
      "Ġloan": 6122,
      "Ġruss": 6123,
      "Ġrussian": 6124,
      "good": 6125,
      "bel": 6126,
      "delta": 6127,
      "Ġapproximately": 6128,
      "wall": 6129,
      "Ġmos": 6130,
      "Ġassembly": 6131,
      "fake": 6132,
      "Ġcarefully": 6133,
      "Ġconcept": 6134,
      "Ġsigns": 6135,
      "hot": 6136,
      "ali": 6137,
      ")\"": 6138,
      "Ġplans": 6139,
      "Ġeditor": 6140,
      "Ġga": 6141,
      "Ġguide": 6142,
      "Ġexhib": 6143,
      "Ġnoise": 6144,
      "unknown": 6145,
      "mos": 6146,
      "boxes": 6147,
      "Ġstone": 6148,
      "ston": 6149,
      ";\"": 6150,
      "big": 6151,
      "Ġweather": 6152,
      "war": 6153,
      "Ġplease": 6154,
      "licens": 6155,
      "è¡": 6156,
      "theta": 6157,
      "Ġredirect": 6158,
      "Ġwish": 6159,
      "Ġsocket": 6160,
      "ronic": 6161,
      "Ġcalls": 6162,
      "Ġupdated": 6163,
      "Ġtk": 6164,
      "Ġ-------": 6165,
      "Ġtowel": 6166,
      "Ġtip": 6167,
      "opts": 6168,
      "âĶĢ": 6169,
      "Ġæ": 6170,
      "done": 6171,
      "Ġvac": 6172,
      "selected": 6173,
      "Ġtail": 6174,
      "Ġlouis": 6175,
      "mesh": 6176,
      "early": 6177,
      "Ġinch": 6178,
      "Ġvalidate": 6179,
      "Ġchampionships": 6180,
      "Ġlogin": 6181,
      "Ġstats": 6182,
      "Ġactivation": 6183,
      "Ġsmith": 6184,
      "clone": 6185,
      "Ġfourth": 6186,
      "Ġ[-": 6187,
      "Ġdefine": 6188,
      "ibly": 6189,
      "changed": 6190,
      "Ġequipment": 6191,
      "/%": 6192,
      "?\"": 6193,
      "Ġbright": 6194,
      "Ġwarranties": 6195,
      "lap": 6196,
      "Ġverify": 6197,
      "Ġchristian": 6198,
      "take": 6199,
      "Ġdelet": 6200,
      "nat": 6201,
      "Ġselection": 6202,
      "jac": 6203,
      "resources": 6204,
      "hum": 6205,
      "Ã¨": 6206,
      "Ġhop": 6207,
      "contact": 6208,
      "running": 6209,
      "Ġcustomer": 6210,
      "Ġtight": 6211,
      "Ġsolid": 6212,
      "âģĦ": 6213,
      "Ġcommercial": 6214,
      "Ġthinking": 6215,
      "follow": 6216,
      "Ġdifference": 6217,
      "uffle": 6218,
      "Ġcrick": 6219,
      "bf": 6220,
      "Ġinner": 6221,
      "Ġdish": 6222,
      "aven": 6223,
      "Ġtrip": 6224,
      "Ġedition": 6225,
      "Ġpep": 6226,
      "Ġvel": 6227,
      "oto": 6228,
      ".',": 6229,
      "Ġwriters": 6230,
      "Ġhole": 6231,
      "Ġreset": 6232,
      "ining": 6233,
      "Ġdelta": 6234,
      "rum": 6235,
      "ora": 6236,
      "Ġsilver": 6237,
      "Ġpermissions": 6238,
      "ç»": 6239,
      "ĊĠĊĠ": 6240,
      "Ġpk": 6241,
      "Ġeps": 6242,
      ".'": 6243,
      "Ġdisable": 6244,
      "origin": 6245,
      "Ġsaved": 6246,
      "./": 6247,
      "()),": 6248,
      "lc": 6249,
      "Ġts": 6250,
      "viet": 6251,
      "iven": 6252,
      "Ġ})": 6253,
      "Ċĉĉĉĉĉ": 6254,
      "Ġaudience": 6255,
      "Ġfee": 6256,
      "Ġruntime": 6257,
      "Ġoccup": 6258,
      "nr": 6259,
      "hu": 6260,
      "ireland": 6261,
      "Ġcatholic": 6262,
      "crete": 6263,
      "Ġcd": 6264,
      "Ġforest": 6265,
      "Ñĥ": 6266,
      "Ġtwice": 6267,
      ")])": 6268,
      "Ġå": 6269,
      "vr": 6270,
      "Ġletters": 6271,
      "setdescription": 6272,
      "seconds": 6273,
      "Ġencoura": 6274,
      "which": 6275,
      ")-": 6276,
      "Ġ_,": 6277,
      "Ġvictor": 6278,
      "Ġapart": 6279,
      "Ġio": 6280,
      "Ġessential": 6281,
      "icial": 6282,
      "ockey": 6283,
      "Ġdespite": 6284,
      "ĠĊĊ": 6285,
      "Ġcer": 6286,
      "fixture": 6287,
      "Ġstretch": 6288,
      "Ġpoet": 6289,
      "cli": 6290,
      "Ġanyone": 6291,
      "Ġrecording": 6292,
      "windows": 6293,
      "git": 6294,
      "iber": 6295,
      "Ġprepared": 6296,
      "Ġproced": 6297,
      "Ġjose": 6298,
      "Ġwearing": 6299,
      "setter": 6300,
      "Ġphilip": 6301,
      "Ġreader": 6302,
      "traises": 6303,
      "cipe": 6304,
      "Ġwat": 6305,
      "Ġresist": 6306,
      "pus": 6307,
      "ugs": 6308,
      "ãĢĤ": 6309,
      "Ġign": 6310,
      "Ġnative": 6311,
      "Ġgather": 6312,
      "include": 6313,
      "outs": 6314,
      "ocity": 6315,
      "Ġunknown": 6316,
      "Ġapplicable": 6317,
      "abstract": 6318,
      "Ġseat": 6319,
      "Ġpages": 6320,
      "Ġcompar": 6321,
      "Ġcareful": 6322,
      "Ġsenior": 6323,
      "bits": 6324,
      "Ġraised": 6325,
      "Ġearlier": 6326,
      "Ġglob": 6327,
      "Ġpolish": 6328,
      "Ġliquid": 6329,
      "abor": 6330,
      "Ġshoes": 6331,
      "Ġib": 6332,
      "Ġthoughts": 6333,
      "Ġrough": 6334,
      "Ġbrain": 6335,
      "duration": 6336,
      "iful": 6337,
      "stra": 6338,
      "oma": 6339,
      "Ġsays": 6340,
      "Ġautomatically": 6341,
      "Ġdevices": 6342,
      "Ġsant": 6343,
      "ala": 6344,
      "_,": 6345,
      "spect": 6346,
      "Ġcooking": 6347,
      "Ġactress": 6348,
      "iro": 6349,
      "Ġincreased": 6350,
      "tv": 6351,
      "assertraises": 6352,
      "Ġ'{": 6353,
      "inet": 6354,
      "pres": 6355,
      "ita": 6356,
      "uations": 6357,
      "bec": 6358,
      "attrs": 6359,
      "operator": 6360,
      "Ġacid": 6361,
      "Ġsklearn": 6362,
      "abet": 6363,
      "Ġcos": 6364,
      "encoding": 6365,
      "čĊčĊ": 6366,
      "hab": 6367,
      "mr": 6368,
      "Ã£": 6369,
      "Ġlad": 6370,
      "plus": 6371,
      "Ġmotor": 6372,
      "uv": 6373,
      "Ġrelative": 6374,
      "Ġlegisl": 6375,
      "Ġtrigger": 6376,
      "Ġdigital": 6377,
      "Ġwhom": 6378,
      "Ġ-=": 6379,
      "Ġpowder": 6380,
      "Ġvet": 6381,
      "Ġweak": 6382,
      "Ġexchange": 6383,
      "ishop": 6384,
      "ounder": 6385,
      "Ġpeter": 6386,
      "Ġtom": 6387,
      "%(": 6388,
      "izontal": 6389,
      "Ġgovernor": 6390,
      "Ġbaking": 6391,
      "Ġpoor": 6392,
      "Ġtea": 6393,
      "Ġstudio": 6394,
      "Ġmountain": 6395,
      "Ġreq": 6396,
      "Ġrequirements": 6397,
      "Ġaudio": 6398,
      "lic": 6399,
      "apshot": 6400,
      "Ġthreat": 6401,
      "bg": 6402,
      "iting": 6403,
      "Ġalt": 6404,
      "coords": 6405,
      "Ġliber": 6406,
      "Ġcopies": 6407,
      "ĊĠĠĠĠĠĠĠĠĠĠĠĠĠĠĠĠĠĠĠĠĠĠĠĠĠĠĠĠĠĠĠĠĠĠĠĠ": 6408,
      "elta": 6409,
      "Ġmechan": 6410,
      "olar": 6411,
      "rich": 6412,
      "aped": 6413,
      "Ġoptimizer": 6414,
      "Ġaw": 6415,
      ")',": 6416,
      "Ġspanish": 6417,
      "effic": 6418,
      "Ġasked": 6419,
      "clos": 6420,
      "Ġmonitor": 6421,
      "Ġexport": 6422,
      "\"][": 6423,
      "fire": 6424,
      "stage": 6425,
      "claim": 6426,
      "ned": 6427,
      "Ġapache": 6428,
      "Ġprojects": 6429,
      "displaystyle": 6430,
      "Ġdataframe": 6431,
      "Ġrichard": 6432,
      "Ġcoffee": 6433,
      "may": 6434,
      "tel": 6435,
      "istration": 6436,
      "general": 6437,
      "axes": 6438,
      "------------": 6439,
      ":,": 6440,
      "Ġlabor": 6441,
      "inated": 6442,
      "repe": 6443,
      "Ġslo": 6444,
      "Ġbuf": 6445,
      "enses": 6446,
      "Ġnavy": 6447,
      "ĊĠĠĠĠĠĠĠĠĠĠĠĠĊĠĠĠĠĠĠĠĠĠĠĠ": 6448,
      "Ġdiam": 6449,
      "Ġhus": 6450,
      "Ġkar": 6451,
      "Ġwa": 6452,
      "icago": 6453,
      "pie": 6454,
      "Ġbelieve": 6455,
      ")}": 6456,
      "Ġbaseball": 6457,
      "vin": 6458,
      "Ġdemon": 6459,
      "ratic": 6460,
      "cand": 6461,
      "assoc": 6462,
      "________": 6463,
      "pipeline": 6464,
      "Ġpayment": 6465,
      "Ġscores": 6466,
      "ĊĊĊĊĊĊ": 6467,
      "Ġopportunity": 6468,
      "cook": 6469,
      "Ġconflict": 6470,
      "neighb": 6471,
      "lam": 6472,
      "Ġanimals": 6473,
      "mbols": 6474,
      "ĉĉĉ": 6475,
      "Ġfacebook": 6476,
      "Ġintroduced": 6477,
      "Ġwel": 6478,
      "Ġram": 6479,
      "Ġple": 6480,
      "ti": 6481,
      "hd": 6482,
      "Ġzone": 6483,
      "Ġswim": 6484,
      "yy": 6485,
      "Ġbrief": 6486,
      "Ġbucket": 6487,
      "Ġsupply": 6488,
      "orders": 6489,
      "Ġinsp": 6490,
      ":-": 6491,
      "bor": 6492,
      "iate": 6493,
      "country": 6494,
      "Ġcalm": 6495,
      "progress": 6496,
      "liter": 6497,
      "Ġlists": 6498,
      "bul": 6499,
      "Ġindices": 6500,
      "Ġinstalled": 6501,
      "=[\"": 6502,
      "Ġhu": 6503,
      "also": 6504,
      "Ġincorpor": 6505,
      "anguages": 6506,
      "Ġ###": 6507,
      "uits": 6508,
      "Ġ'<": 6509,
      "joint": 6510,
      "Ġaz": 6511,
      "Ġcelebr": 6512,
      "Ġformula": 6513,
      "Ġpayload": 6514,
      "aled": 6515,
      "Ġremote": 6516,
      ",âĢĿ": 6517,
      "âģłâģłâģłâģł": 6518,
      "iano": 6519,
      "Ġfeatured": 6520,
      "lu": 6521,
      "apache": 6522,
      "Ġpac": 6523,
      "Ġfinding": 6524,
      "vocab": 6525,
      "bat": 6526,
      "Ġexpression": 6527,
      "subject": 6528,
      "Ġimm": 6529,
      "sex": 6530,
      "ĠÃ": 6531,
      "Ġfund": 6532,
      "Ġcensus": 6533,
      "Ġneighbor": 6534,
      "Ġplanning": 6535,
      "bottom": 6536,
      "Ġstated": 6537,
      "Ġphase": 6538,
      "inger": 6539,
      "Ġresponsible": 6540,
      "/'": 6541,
      "Ġrang": 6542,
      "namespace": 6543,
      "Ġannual": 6544,
      "Ġawarded": 6545,
      "Ġshared": 6546,
      "Ġcombined": 6547,
      "Ġglo": 6548,
      "atri": 6549,
      "sync": 6550,
      "constant": 6551,
      "Ġsr": 6552,
      "Ġbudget": 6553,
      "istan": 6554,
      "urer": 6555,
      "Ġtenn": 6556,
      "`,": 6557,
      "Ġ'',": 6558,
      "Ġcot": 6559,
      "Ġdy": 6560,
      "security": 6561,
      "buf": 6562,
      "olf": 6563,
      "Ġapple": 6564,
      "Ġdream": 6565,
      "ĊĠĠĠĠĠĠĠĠĠĠĠĠĠĠĠĠĠĠĠĠĠĠĠĠĠĠĠĠĠĠĠĠĠĠ": 6566,
      "Ġcub": 6567,
      "Ġwed": 6568,
      "Ġbass": 6569,
      "media": 6570,
      "lec": 6571,
      "icks": 6572,
      "Ġaspect": 6573,
      "remote": 6574,
      "Ġlaunch": 6575,
      "decl": 6576,
      "Ġox": 6577,
      "iot": 6578,
      "Ġfixed": 6579,
      "\"]:": 6580,
      "regular": 6581,
      "Ġreasons": 6582,
      "Ġcalling": 6583,
      "Ġjobs": 6584,
      "Ġfeat": 6585,
      "imag": 6586,
      "unittest": 6587,
      "Ġdecided": 6588,
      "onal": 6589,
      "Ġcycle": 6590,
      "Ġhear": 6591,
      "Ġquarter": 6592,
      "chat": 6593,
      "Ġteeth": 6594,
      "Ġparties": 6595,
      "merge": 6596,
      "(\"--": 6597,
      "Ġunic": 6598,
      "measure": 6599,
      "Ġsinger": 6600,
      "uer": 6601,
      "Ġcompos": 6602,
      "Ġ<<": 6603,
      "Ġns": 6604,
      "wing": 6605,
      "Ġagency": 6606,
      "arian": 6607,
      "boolean": 6608,
      "Ġflash": 6609,
      "Ġbacter": 6610,
      "Ġec": 6611,
      "charge": 6612,
      "Ġpolitician": 6613,
      "Ġhistorical": 6614,
      "Ġlives": 6615,
      "[:-": 6616,
      "curs": 6617,
      "Ġorganizations": 6618,
      "week": 6619,
      "transaction": 6620,
      ":\",": 6621,
      "mach": 6622,
      "Å¡": 6623,
      "Ġtrim": 6624,
      "Ġpictures": 6625,
      "Ġdou": 6626,
      "poon": 6627,
      "Ġmuscles": 6628,
      "condition": 6629,
      "branch": 6630,
      "Ġcoat": 6631,
      "Ġdimension": 6632,
      "ads": 6633,
      "Ġmapping": 6634,
      "Ġadvis": 6635,
      "}\".": 6636,
      "Ġvirginia": 6637,
      "selection": 6638,
      "Ġdanger": 6639,
      "Ġfamilies": 6640,
      "Ġfurn": 6641,
      "Ġsimtype": 6642,
      "Ġregularly": 6643,
      "emy": 6644,
      "actor": 6645,
      "Ġattend": 6646,
      "æĪ": 6647,
      "Ġtokens": 6648,
      "Ġobser": 6649,
      "tail": 6650,
      "ously": 6651,
      "usters": 6652,
      "Ġod": 6653,
      "bd": 6654,
      "resp": 6655,
      "Ġrh": 6656,
      "Ġwilling": 6657,
      ".*": 6658,
      "Ġscope": 6659,
      "pret": 6660,
      "Ġcloud": 6661,
      "ifact": 6662,
      "components": 6663,
      ":',": 6664,
      "gre": 6665,
      "Ġprompt": 6666,
      "Ġestablishments": 6667,
      "llib": 6668,
      "season": 6669,
      "Ġbuffer": 6670,
      "Ġrestaur": 6671,
      "Ġphotos": 6672,
      "Ġbrought": 6673,
      "licenses": 6674,
      "Ġfellow": 6675,
      "}'.": 6676,
      "usage": 6677,
      "delay": 6678,
      "Ġpickle": 6679,
      "Ġrabb": 6680,
      "gpu": 6681,
      "provider": 6682,
      "bow": 6683,
      "Ġcandidate": 6684,
      "mir": 6685,
      "Ġprime": 6686,
      "ĊĠĠĠĠĠĠĠĠĠĠĠĠĠĠĠĠĠĠĠĠĠĠĠĠĠĠĠĠĠĠĠĠĠĠĠĠĠĠĠĠĠĠĠĠĠĠĠĠĠĠĠĠĠĠĠĠĠĠĠĠĠĠĠĠ": 6687,
      "rtype": 6688,
      "Ġrug": 6689,
      "è®": 6690,
      "Ġreflect": 6691,
      "Ġtheory": 6692,
      "nx": 6693,
      "trained": 6694,
      "nos": 6695,
      "Ġspl": 6696,
      "Ġpitch": 6697,
      "Ġstories": 6698,
      "Ġplays": 6699,
      "isation": 6700,
      "Ġwis": 6701,
      "Ġmagic": 6702,
      "scan": 6703,
      "sym": 6704,
      "pointer": 6705,
      "calcul": 6706,
      "Ã£o": 6707,
      "Ġhenry": 6708,
      "Ġahead": 6709,
      "Ġlawyer": 6710,
      "Ġwit": 6711,
      "Ġbeta": 6712,
      "Ġeggs": 6713,
      "Ġsweet": 6714,
      "Ġconcent": 6715,
      "Ġlas": 6716,
      "(\"%": 6717,
      "tc": 6718,
      "Ġapplying": 6719,
      "Ġ).": 6720,
      "Ġcauses": 6721,
      "Ġprotection": 6722,
      "âĶĢâĶĢ": 6723,
      "čĊĠĠĠĠĠĠĠĠ": 6724,
      "Ġbol": 6725,
      "unte": 6726,
      "fname": 6727,
      "Ġscot": 6728,
      "diag": 6729,
      "Ġidentity": 6730,
      "Ġnation": 6731,
      "Ġenable": 6732,
      "Ġnose": 6733,
      "nl": 6734,
      "pic": 6735,
      "Ġinstrument": 6736,
      "Ġtie": 6737,
      "Ġairport": 6738,
      "tasks": 6739,
      "Ġquite": 6740,
      "ador": 6741,
      "Ġputting": 6742,
      "Ġrib": 6743,
      "Ġhockey": 6744,
      "safe": 6745,
      "Ġgirls": 6746,
      "Ġmexico": 6747,
      "hello": 6748,
      "ĊĊĊĊĊĊĊĊĊ": 6749,
      "rency": 6750,
      "radius": 6751,
      "answer": 6752,
      "igan": 6753,
      "ideos": 6754,
      "Ġ[(": 6755,
      "Ġeconomic": 6756,
      "Ġpriv": 6757,
      ")\\": 6758,
      "ilon": 6759,
      "ders": 6760,
      "pur": 6761,
      "Ġmixed": 6762,
      "Ġfc": 6763,
      "definition": 6764,
      "Ġtheatre": 6765,
      "Ġegg": 6766,
      "\"+": 6767,
      "blocks": 6768,
      "iques": 6769,
      "rase": 6770,
      "logs": 6771,
      "Ġmental": 6772,
      "wrapper": 6773,
      "framework": 6774,
      "subsc": 6775,
      "Ċĉĉĉĉĉĉĉĉĉĉ": 6776,
      "Ġyog": 6777,
      "Ġcancer": 6778,
      "Ġireland": 6779,
      "execut": 6780,
      "lang": 6781,
      "Ġmission": 6782,
      "Ġlift": 6783,
      "Ġmeas": 6784,
      "Ġstrings": 6785,
      "anner": 6786,
      "elements": 6787,
      "Ġorient": 6788,
      "Ġadvert": 6789,
      "Ġtypeerror": 6790,
      "Ġindividuals": 6791,
      "Ġsin": 6792,
      "Ġworkers": 6793,
      "Ġsingles": 6794,
      "Ġhandler": 6795,
      "Ġpygame": 6796,
      "ride": 6797,
      "Ġnotimplemented": 6798,
      "Ġprison": 6799,
      "stock": 6800,
      "Ġnic": 6801,
      "Ġdro": 6802,
      "ifiers": 6803,
      "Ġmusical": 6804,
      "ĊĠĠĠĠĠĠĠĠĠĠĠĠĠĠĠĠĠĠĠĠĠĠĠĠĠĠĠĠĠĠĠĠĠĠĠĠĠ": 6805,
      "rical": 6806,
      "Ġcontr": 6807,
      "icated": 6808,
      "ni": 6809,
      "Ġphotograph": 6810,
      "phone": 6811,
      "Ġextended": 6812,
      "Ġped": 6813,
      "hat": 6814,
      "Ġremained": 6815,
      "Ġveter": 6816,
      "Ġbond": 6817,
      "Ġwalking": 6818,
      "Ġlocations": 6819,
      "entially": 6820,
      "plates": 6821,
      "experiment": 6822,
      "Ġgeorg": 6823,
      "Ġchosen": 6824,
      "Ġexactly": 6825,
      "Ġpretty": 6826,
      "mass": 6827,
      "iana": 6828,
      "phere": 6829,
      "Ġisra": 6830,
      "otes": 6831,
      "Ġfrequently": 6832,
      "Ġtensorflow": 6833,
      "Ġtimestamp": 6834,
      "Ġinfection": 6835,
      "Ġlip": 6836,
      "cour": 6837,
      "ĊĊĊĠĠĠĠĠĠĠ": 6838,
      "Ġstatistics": 6839,
      "Ġplate": 6840,
      "Ġseeds": 6841,
      "Ġseems": 6842,
      "authentic": 6843,
      "jan": 6844,
      "Ġctypes": 6845,
      "Ġportion": 6846,
      "Ġrul": 6847,
      "Ġmm": 6848,
      "question": 6849,
      "Ġparsed": 6850,
      "Ġsuccessfully": 6851,
      "Ġids": 6852,
      "Ġru": 6853,
      "zh": 6854,
      "exceptions": 6855,
      "Ġworry": 6856,
      "Ġinjury": 6857,
      "Ġgym": 6858,
      "Ġconver": 6859,
      "mg": 6860,
      "plicit": 6861,
      "during": 6862,
      "Ġhappen": 6863,
      "gon": 6864,
      "Ġfetch": 6865,
      "weet": 6866,
      "],[": 6867,
      "Ġstored": 6868,
      "ptr": 6869,
      "Ġproducer": 6870,
      "ulations": 6871,
      "Ġscored": 6872,
      "sat": 6873,
      "aming": 6874,
      "night": 6875,
      "ingu": 6876,
      "Ġestate": 6877,
      "wb": 6878,
      "Ġtraffic": 6879,
      "Ġcalc": 6880,
      "pot": 6881,
      "life": 6882,
      "Ġrespond": 6883,
      "ashion": 6884,
      "Äģ": 6885,
      "Ġchest": 6886,
      "Ġvs": 6887,
      "Ġ:,": 6888,
      "worker": 6889,
      "Ġdrug": 6890,
      "Ġhonor": 6891,
      "dx": 6892,
      "Ġnur": 6893,
      "Ġphilos": 6894,
      "glob": 6895,
      "Ġgi": 6896,
      "sess": 6897,
      "Ġarrang": 6898,
      "Ġrespons": 6899,
      "present": 6900,
      "Ġblocks": 6901,
      "Ġissu": 6902,
      "getlogger": 6903,
      "tz": 6904,
      "Ġcats": 6905,
      "ena": 6906,
      "Ġshut": 6907,
      "Ġsections": 6908,
      "Ġdestination": 6909,
      "Ġthorough": 6910,
      "music": 6911,
      "Ġadvance": 6912,
      "Ġvocals": 6913,
      "Ġsnow": 6914,
      "Ġbenefits": 6915,
      "haps": 6916,
      "ertain": 6917,
      "čĊĠ": 6918,
      "Ġdefaults": 6919,
      "Äĩ": 6920,
      "sources": 6921,
      "Ġpaid": 6922,
      "Ġspent": 6923,
      "Ġmetrics": 6924,
      "Ġbeautiful": 6925,
      "city": 6926,
      "Ġinitially": 6927,
      "Ġcry": 6928,
      "Ġemployees": 6929,
      "kind": 6930,
      "Ġoffers": 6931,
      "Ġregional": 6932,
      "thr": 6933,
      "embedding": 6934,
      "squeeze": 6935,
      "Ġvalley": 6936,
      "Ġfilters": 6937,
      "Ġwinning": 6938,
      "Ġrose": 6939,
      "Ġitaly": 6940,
      "bles": 6941,
      "Ġsir": 6942,
      "nic": 6943,
      "unc": 6944,
      "umes": 6945,
      "Ġflavor": 6946,
      "direction": 6947,
      "reals": 6948,
      "Ġdrama": 6949,
      "Ġabsolute": 6950,
      ")(": 6951,
      "Ġdefend": 6952,
      "dk": 6953,
      "Ġpregn": 6954,
      "inse": 6955,
      "Ġstride": 6956,
      "Ġusage": 6957,
      "Ġjuice": 6958,
      "Ġmort": 6959,
      "Ġcutting": 6960,
      "Ġrare": 6961,
      "isf": 6962,
      "Ġforget": 6963,
      "\");": 6964,
      "ressed": 6965,
      "avoid": 6966,
      "Ġboxes": 6967,
      "energy": 6968,
      "Ġratio": 6969,
      "Ġoh": 6970,
      "tip": 6971,
      "cript": 6972,
      "ipality": 6973,
      "Ġstuff": 6974,
      "Ġran": 6975,
      "randint": 6976,
      "Ġspeech": 6977,
      "Ġmarriage": 6978,
      "Ġchannels": 6979,
      "Ġkid": 6980,
      "Ġexpensive": 6981,
      "åĬ": 6982,
      "Ġfailure": 6983,
      "Ġstrugg": 6984,
      "Ġtooth": 6985,
      "publish": 6986,
      "Ġempire": 6987,
      "hone": 6988,
      "Ġinterval": 6989,
      "Ġextrem": 6990,
      "Ġrepresented": 6991,
      "Ġms": 6992,
      "Ġpaths": 6993,
      "middle": 6994,
      "={\"": 6995,
      "Ġpeace": 6996,
      "subplot": 6997,
      "sylv": 6998,
      "Ġtargets": 6999,
      "æĹ": 7000,
      "sha": 7001,
      "wan": 7002,
      "((\"": 7003,
      "learning": 7004,
      "iled": 7005,
      "Ġchicago": 7006,
      "will": 7007,
      "Ġfn": 7008,
      "Ġdefinition": 7009,
      "icult": 7010,
      "yaml": 7011,
      "edelta": 7012,
      "Ġplus": 7013,
      "Ġfan": 7014,
      "Ġ\"{": 7015,
      "environment": 7016,
      "Ġversions": 7017,
      "Ġdates": 7018,
      "methods": 7019,
      "oes": 7020,
      "colate": 7021,
      "Ġbias": 7022,
      "Ġweap": 7023,
      "ategor": 7024,
      "Ġinform": 7025,
      "props": 7026,
      "Ġallowing": 7027,
      "Ġprocessing": 7028,
      "Ġmultip": 7029,
      "Ġcraft": 7030,
      "Ġemb": 7031,
      "Ġnav": 7032,
      ")\",": 7033,
      "setting": 7034,
      "Ġswed": 7035,
      "Ñı": 7036,
      "Ġmedication": 7037,
      "arest": 7038,
      "xiety": 7039,
      "Ġbob": 7040,
      "health": 7041,
      "Ġflorida": 7042,
      "azz": 7043,
      "Åį": 7044,
      "Ġaccounts": 7045,
      "Ġcow": 7046,
      "Ġwidget": 7047,
      "boot": 7048,
      "Ġpatient": 7049,
      "Ġgenerator": 7050,
      "hour": 7051,
      "ifies": 7052,
      "Ġseg": 7053,
      "epis": 7054,
      "since": 7055,
      "consider": 7056,
      "icing": 7057,
      "Ġbor": 7058,
      "Ġsampl": 7059,
      "mul": 7060,
      "typ": 7061,
      "Ġatom": 7062,
      "Ġparallel": 7063,
      "Ġwants": 7064,
      "Ġreserved": 7065,
      "asy": 7066,
      "isters": 7067,
      "Ġcin": 7068,
      "apped": 7069,
      "Ġadministration": 7070,
      "Ġneut": 7071,
      "undle": 7072,
      "estyle": 7073,
      "Ġincreasing": 7074,
      "Ġseasons": 7075,
      "cry": 7076,
      "intern": 7077,
      "rules": 7078,
      "Ġmostly": 7079,
      "private": 7080,
      "Ġdemonstr": 7081,
      "includ": 7082,
      "čĊĠĠĠĠĠĠĠĠĠĠĠĠĠĠĠĠĠĠĠĠĠĠĠ": 7083,
      "Ġflowers": 7084,
      "hard": 7085,
      "dings": 7086,
      "regex": 7087,
      "expression": 7088,
      "Ġnewspaper": 7089,
      "Ġengineering": 7090,
      "Ġended": 7091,
      "erve": 7092,
      "Ġsar": 7093,
      "Ġperman": 7094,
      "rx": 7095,
      "Ġwx": 7096,
      "Ġfrequency": 7097,
      "Ġcomponents": 7098,
      "Ġmp": 7099,
      "emp": 7100,
      "assertis": 7101,
      "Ġsecretary": 7102,
      "Ġadvant": 7103,
      "/',": 7104,
      "Ġgoverning": 7105,
      "Ġtheme": 7106,
      "ĠÂ": 7107,
      "career": 7108,
      "Ġcompliance": 7109,
      "cii": 7110,
      "ilation": 7111,
      "ups": 7112,
      "univers": 7113,
      "xxxxxxxx": 7114,
      ")],": 7115,
      "Ġteen": 7116,
      "Ġbrazil": 7117,
      "keras": 7118,
      "fixed": 7119,
      "elled": 7120,
      "Ġauthentic": 7121,
      "Ġlimitations": 7122,
      "Ġtu": 7123,
      "Ġbird": 7124,
      "entries": 7125,
      "âĸĪâĸĪ": 7126,
      "Ġdelay": 7127,
      "gra": 7128,
      "æĺ": 7129,
      "coming": 7130,
      "marks": 7131,
      "fm": 7132,
      "Ġguid": 7133,
      "Ġentered": 7134,
      "iday": 7135,
      "Ġflight": 7136,
      "standard": 7137,
      "Ġcompare": 7138,
      "Ġcorporation": 7139,
      "eper": 7140,
      "unched": 7141,
      "############": 7142,
      "Ġsauce": 7143,
      "Ġhabit": 7144,
      "sch": 7145,
      "amm": 7146,
      "small": 7147,
      "Ġvolunte": 7148,
      "fac": 7149,
      "Ġmakeup": 7150,
      "Ġ\"\",": 7151,
      "average": 7152,
      "Ġsurvey": 7153,
      "ool": 7154,
      "=[],": 7155,
      "Ġtrouble": 7156,
      "Ġcreates": 7157,
      "Ġsubmit": 7158,
      "Ġgrowing": 7159,
      "Ġstars": 7160,
      "Ġroutine": 7161,
      "Ġarticles": 7162,
      "Ġchallenge": 7163,
      "translate": 7164,
      "']))": 7165,
      "foreignkey": 7166,
      "ras": 7167,
      "awn": 7168,
      "Ġrid": 7169,
      "classifier": 7170,
      "Ġyouth": 7171,
      "Ġopin": 7172,
      "lik": 7173,
      "Ġfaster": 7174,
      "(?": 7175,
      "Ġstad": 7176,
      "sylvania": 7177,
      "audio": 7178,
      "Ġhurt": 7179,
      "ĠĠĠĠĠĠĠĠĠĠĠĠĠ": 7180,
      "ici": 7181,
      "canc": 7182,
      "router": 7183,
      "Ġalgorithm": 7184,
      "Ġdialog": 7185,
      "analy": 7186,
      "Ġchap": 7187,
      "Ġcorresponding": 7188,
      "Ġjump": 7189,
      "Ġbey": 7190,
      "Ġmr": 7191,
      "Ġelev": 7192,
      "Ġstain": 7193,
      "sorted": 7194,
      "ckets": 7195,
      "Ġcarolina": 7196,
      "Ġhur": 7197,
      "updated": 7198,
      "attach": 7199,
      "Ġnearby": 7200,
      "examples": 7201,
      "cop": 7202,
      "resents": 7203,
      "checkpoint": 7204,
      "zing": 7205,
      "Ġoperator": 7206,
      "Ġislands": 7207,
      "Ġcitiz": 7208,
      "depend": 7209,
      "Ġbron": 7210,
      "legend": 7211,
      "tor": 7212,
      "Ġcash": 7213,
      "Ġkick": 7214,
      "Ġmanage": 7215,
      "cycle": 7216,
      "Ġexplo": 7217,
      "->": 7218,
      "Ġles": 7219,
      "ogram": 7220,
      "('%": 7221,
      "uniform": 7222,
      "Ġhope": 7223,
      "Ġps": 7224,
      "Ġhyper": 7225,
      "Ġpanel": 7226,
      "Ġassess": 7227,
      "Ġreligious": 7228,
      "sheet": 7229,
      "Ġdidn": 7230,
      "amps": 7231,
      "stone": 7232,
      "']),": 7233,
      "company": 7234,
      "Ġanxiety": 7235,
      "define": 7236,
      "Ġturned": 7237,
      "Ġsexual": 7238,
      "Ġalternative": 7239,
      "frequ": 7240,
      "Ġspirit": 7241,
      "Ġtruth": 7242,
      "Ġmajority": 7243,
      "Ġchanging": 7244,
      "Ġpit": 7245,
      "Ġmeal": 7246,
      "Ġ{},": 7247,
      "noise": 7248,
      "Ġentertain": 7249,
      "that": 7250,
      "aks": 7251,
      "Ġqueen": 7252,
      "Ġultim": 7253,
      "Ġfly": 7254,
      "aaaaaaaa": 7255,
      "estim": 7256,
      "mad": 7257,
      "Ġinfect": 7258,
      "Ġstanding": 7259,
      "Ġdomin": 7260,
      "ĊĠĠĠĠĠĠĠĠĠĠĠĠĠĠĠĠĠĠĠĠĠĠĠĠĠĠĠĠĠĠĠĠĠĠĠĠĠĠ": 7261,
      "Ġdeb": 7262,
      "Ġmarker": 7263,
      "Ġlayout": 7264,
      "proc": 7265,
      "Ġcommunication": 7266,
      "Ġdetail": 7267,
      "Ġali": 7268,
      ",),": 7269,
      "poses": 7270,
      "archive": 7271,
      "Ġ(-": 7272,
      "schedul": 7273,
      "parts": 7274,
      "Ġabsor": 7275,
      "aloader": 7276,
      "Ġqtwidgets": 7277,
      "mel": 7278,
      "comfort": 7279,
      "Ġcongress": 7280,
      "Ġloose": 7281,
      "Ġpresc": 7282,
      "Ġexecute": 7283,
      "dimension": 7284,
      "sky": 7285,
      "eb": 7286,
      "Ġinvent": 7287,
      "Ġaccident": 7288,
      "accuracy": 7289,
      "mond": 7290,
      "Ġprepar": 7291,
      "Ġlap": 7292,
      "library": 7293,
      "Ġangeles": 7294,
      "Ġclim": 7295,
      "Ġcoordinates": 7296,
      "Ġnotimplementederror": 7297,
      "stderr": 7298,
      "deep": 7299,
      "termin": 7300,
      "Ġtracks": 7301,
      "åĽŀ": 7302,
      "Ġpartners": 7303,
      "Ġmerge": 7304,
      "Ġcpp": 7305,
      "phase": 7306,
      "processor": 7307,
      "Ġvine": 7308,
      "Ġassistant": 7309,
      "åº": 7310,
      "wc": 7311,
      "tar": 7312,
      "endar": 7313,
      "Ġmunicipality": 7314,
      "oint": 7315,
      "Ġproceed": 7316,
      "oken": 7317,
      "Ġirrit": 7318,
      "Ġideal": 7319,
      "Ġfactors": 7320,
      "Ġsharp": 7321,
      "Ġindicate": 7322,
      "Ġassigned": 7323,
      "sav": 7324,
      "coord": 7325,
      "Ġirish": 7326,
      "east": 7327,
      "feat": 7328,
      "%%": 7329,
      "links": 7330,
      "Ġdefense": 7331,
      "Ġchocolate": 7332,
      "slice": 7333,
      "enet": 7334,
      "added": 7335,
      "Ġsv": 7336,
      "elines": 7337,
      "rolled": 7338,
      ":#": 7339,
      "Ġcaptain": 7340,
      "jobs": 7341,
      "Ġspin": 7342,
      "iest": 7343,
      "Ġexternal": 7344,
      "Ġbrowser": 7345,
      "integr": 7346,
      "nu": 7347,
      "heast": 7348,
      "epochs": 7349,
      "Ð¸Ð": 7350,
      "gian": 7351,
      "large": 7352,
      "Ġscipy": 7353,
      "Ġinitialize": 7354,
      "Ġpatterns": 7355,
      "constants": 7356,
      "Ġalert": 7357,
      "targets": 7358,
      "kit": 7359,
      "switch": 7360,
      "ucle": 7361,
      "Ġhighly": 7362,
      "Ġspecifically": 7363,
      "wx": 7364,
      "Ġpul": 7365,
      "Ġexecutive": 7366,
      "Ġpier": 7367,
      "subtype": 7368,
      "Ġtrees": 7369,
      "slot": 7370,
      "Ġrestrict": 7371,
      "perm": 7372,
      "processed": 7373,
      "same": 7374,
      "Ġtx": 7375,
      "tile": 7376,
      "ystem": 7377,
      "codes": 7378,
      "Ġagr": 7379,
      "Ġsoviet": 7380,
      "gry": 7381,
      "Ġcausing": 7382,
      "Ġwheel": 7383,
      "Ġstructures": 7384,
      "Ġwarning": 7385,
      "ftime": 7386,
      "arguments": 7387,
      "Ġnamespace": 7388,
      "oly": 7389,
      "(\"-": 7390,
      "Ġbegins": 7391,
      "Ġprize": 7392,
      "Ġseek": 7393,
      "iat": 7394,
      "Ġknife": 7395,
      "constraints": 7396,
      "Ġcreation": 7397,
      "Ġunderstanding": 7398,
      "Ġ;": 7399,
      "Ġbenefit": 7400,
      "kl": 7401,
      "Ġchat": 7402,
      "iso": 7403,
      "anda": 7404,
      "Ġconfidence": 7405,
      "Ġfp": 7406,
      "Ġlots": 7407,
      "Ġadvice": 7408,
      "Ġclubs": 7409,
      "Ġnine": 7410,
      "Ġcommonly": 7411,
      "Ġdot": 7412,
      "coll": 7413,
      "ey": 7414,
      "analysis": 7415,
      "rf": 7416,
      "Ġwanted": 7417,
      "Ġsmart": 7418,
      "Ġhaw": 7419,
      "sid": 7420,
      "Ġreaction": 7421,
      "à¸": 7422,
      "Ġbell": 7423,
      "gal": 7424,
      "Ġnick": 7425,
      "workers": 7426,
      "requests": 7427,
      "Ġsubstit": 7428,
      "Ġmesh": 7429,
      "pipe": 7430,
      "structure": 7431,
      "Ġcombination": 7432,
      "chas": 7433,
      "loyment": 7434,
      "omen": 7435,
      "dic": 7436,
      "Ġattended": 7437,
      "rence": 7438,
      "Ġelimin": 7439,
      "Ġcustomers": 7440,
      "contents": 7441,
      "Ġprovider": 7442,
      "chron": 7443,
      "Ġchicken": 7444,
      "walk": 7445,
      "Ġbeach": 7446,
      "activity": 7447,
      "Ġsituations": 7448,
      "sigma": 7449,
      "Ġbroken": 7450,
      "urb": 7451,
      "Ġoperating": 7452,
      "Ġdocumentation": 7453,
      "mom": 7454,
      "ugh": 7455,
      "Ġlr": 7456,
      "Ġtaste": 7457,
      "Ġmerch": 7458,
      "()]": 7459,
      "Ġcities": 7460,
      "Ġconcert": 7461,
      ">\\": 7462,
      "prom": 7463,
      "asset": 7464,
      "films": 7465,
      "alarm": 7466,
      "agraph": 7467,
      "transpose": 7468,
      "pars": 7469,
      "Ġpennsylvania": 7470,
      "iner": 7471,
      "gamma": 7472,
      "Ġtransaction": 7473,
      "major": 7474,
      "fur": 7475,
      "Ġdoll": 7476,
      "jun": 7477,
      "Ġtone": 7478,
      "comb": 7479,
      "Ġshr": 7480,
      "icate": 7481,
      "></": 7482,
      "Ġ?": 7483,
      "Ġpipeline": 7484,
      "ria": 7485,
      "imp": 7486,
      "suit": 7487,
      "Ġperhaps": 7488,
      "{}'.": 7489,
      "uries": 7490,
      "aux": 7491,
      "dialog": 7492,
      "Ġinterests": 7493,
      "john": 7494,
      "phi": 7495,
      "Ġteas": 7496,
      "pyplot": 7497,
      "Ġgate": 7498,
      "Ġvent": 7499,
      "services": 7500,
      "oking": 7501,
      "Ġgrade": 7502,
      "Ġprotocol": 7503,
      "Ġflex": 7504,
      "Ġgreek": 7505,
      "Ġaccuracy": 7506,
      "Ġmedications": 7507,
      "Ġcel": 7508,
      "Ġfear": 7509,
      "Ġopposite": 7510,
      "!\")": 7511,
      "Ġshowing": 7512,
      "Ġ))": 7513,
      "Ġprob": 7514,
      "Ġrinse": 7515,
      "Ġadvanced": 7516,
      "timer": 7517,
      "primary": 7518,
      "bour": 7519,
      "reason": 7520,
      "asp": 7521,
      "dh": 7522,
      "clock": 7523,
      "Ġrent": 7524,
      "Ġkeyword": 7525,
      "Ġopts": 7526,
      "Ġwebsites": 7527,
      "decoder": 7528,
      "Ġbind": 7529,
      "gest": 7530,
      "webio": 7531,
      "Ġnob": 7532,
      "Ġremains": 7533,
      "Ġbreed": 7534,
      "Ġtherapy": 7535,
      "eto": 7536,
      "Ġstatic": 7537,
      "Ġrelevant": 7538,
      "uing": 7539,
      "brit": 7540,
      "Ġgene": 7541,
      "Ġrand": 7542,
      "Ġsky": 7543,
      "Ġowned": 7544,
      "Ġbreathing": 7545,
      "Ġsteel": 7546,
      "Ġrice": 7547,
      "ä¸Ģ": 7548,
      "nov": 7549,
      "tm": 7550,
      "Ġmobile": 7551,
      "({\"": 7552,
      "chi": 7553,
      "bank": 7554,
      "functions": 7555,
      "Ġnormally": 7556,
      "Ġtwist": 7557,
      "Ġpainting": 7558,
      "Ġplenty": 7559,
      "{'": 7560,
      "Ġ])": 7561,
      "Ġshutil": 7562,
      "Ġfer": 7563,
      "Ġcontents": 7564,
      "rid": 7565,
      "oh": 7566,
      "Ġgent": 7567,
      "qs": 7568,
      "Ġdrain": 7569,
      "lets": 7570,
      "Ġmuscle": 7571,
      "Ġsister": 7572,
      "preci": 7573,
      "chemy": 7574,
      "wal": 7575,
      "Ġfashion": 7576,
      "Ġpp": 7577,
      "ypes": 7578,
      "Ġsecondary": 7579,
      "imize": 7580,
      "ĠâĢĺ": 7581,
      "Ġdun": 7582,
      "Ġcheese": 7583,
      "padding": 7584,
      "ila": 7585,
      "~~~~~~~~": 7586,
      "ylabel": 7587,
      "hz": 7588,
      "Ġvisible": 7589,
      "Ġgolden": 7590,
      "settext": 7591,
      "kins": 7592,
      "Ġbread": 7593,
      "tu": 7594,
      "Ġurllib": 7595,
      "records": 7596,
      "Ġ:]": 7597,
      "Ġwales": 7598,
      "activation": 7599,
      "enames": 7600,
      "Ġdeliver": 7601,
      "iy": 7602,
      "article": 7603,
      "Ġdefeated": 7604,
      "Ġclock": 7605,
      "Ġworker": 7606,
      "Ġoven": 7607,
      "Ġwrest": 7608,
      "Ġatl": 7609,
      "Ġtall": 7610,
      "Ġdepression": 7611,
      "Ġjac": 7612,
      "positions": 7613,
      "Ġpig": 7614,
      "Ġduration": 7615,
      "Ġcapt": 7616,
      "Ġfollows": 7617,
      "Ġholes": 7618,
      "heat": 7619,
      "aked": 7620,
      "Ġgray": 7621,
      "Ġanch": 7622,
      "\\\"": 7623,
      "lad": 7624,
      "Ġactors": 7625,
      "qdm": 7626,
      "generical": 7627,
      "repeat": 7628,
      "Ġ----------------------------------------------------------------": 7629,
      "Ġcotton": 7630,
      "Ġoffered": 7631,
      "Ġspouse": 7632,
      "Ġak": 7633,
      "phy": 7634,
      "Ġconfident": 7635,
      "uz": 7636,
      "gas": 7637,
      "slug": 7638,
      "igen": 7639,
      "Ġslice": 7640,
      "monitor": 7641,
      "Ġplugin": 7642,
      "blob": 7643,
      "Ġemergency": 7644,
      "town": 7645,
      "Ġpremier": 7646,
      "iences": 7647,
      "ancing": 7648,
      "Ġhearing": 7649,
      "Ġreject": 7650,
      "Ġmartin": 7651,
      "Ġunable": 7652,
      "iture": 7653,
      "phas": 7654,
      "Ġcars": 7655,
      "gov": 7656,
      "frac": 7657,
      "Ġcapacity": 7658,
      "Ġfactory": 7659,
      "Ġscan": 7660,
      "btn": 7661,
      "cerentgenerical": 7662,
      "gery": 7663,
      "')[": 7664,
      "execution": 7665,
      "Ġstrategy": 7666,
      "erk": 7667,
      "ether": 7668,
      "Ġlanguages": 7669,
      "atriate": 7670,
      "wide": 7671,
      "Ġjoseph": 7672,
      "sen": 7673,
      "Ġarab": 7674,
      "([[": 7675,
      "lot": 7676,
      "stick": 7677,
      ">'": 7678,
      "!\"": 7679,
      "plicate": 7680,
      "Ġlord": 7681,
      "Ġleaf": 7682,
      "schedule": 7683,
      "Ġcastle": 7684,
      "failure": 7685,
      "Ġthumb": 7686,
      "verify": 7687,
      "Ġrepresents": 7688,
      "datasets": 7689,
      "Ġencourage": 7690,
      "_.": 7691,
      "Ġcultural": 7692,
      "Ġwing": 7693,
      "Ġentries": 7694,
      "latest": 7695,
      "âĪ": 7696,
      "cean": 7697,
      "oy": 7698,
      "Ġstadium": 7699,
      "species": 7700,
      "Ġreviews": 7701,
      "?âĢĿ": 7702,
      "Ġey": 7703,
      "station": 7704,
      "Ġrugby": 7705,
      "Ġtam": 7706,
      "Ġgt": 7707,
      "Ð´": 7708,
      "Ġflip": 7709,
      "Ġattached": 7710,
      "Ġgram": 7711,
      "Ġvote": 7712,
      "bbox": 7713,
      "Ġendpoint": 7714,
      "}\",": 7715,
      "Ġskill": 7716,
      "Ġsubsc": 7717,
      "chart": 7718,
      "Ġrepresenting": 7719,
      "}:": 7720,
      "Ġmol": 7721,
      "Ġdensity": 7722,
      "typespec": 7723,
      "ĊĠĠĠĠĠĠĠĠĠĠĠĠĠĠĠĠĠĠĠĠĠĠĠĠĠĠĠĠĠĠĠĠĠĠĠĠĠĠĠĠĠĠĠĠĠĠĠ": 7724,
      "defined": 7725,
      "Ġhusband": 7726,
      "rout": 7727,
      "abspath": 7728,
      "Ġsteam": 7729,
      "anim": 7730,
      "Ġsoup": 7731,
      "Ġray": 7732,
      "Ġforced": 7733,
      "Ġconfirm": 7734,
      "cisco": 7735,
      "Ġemotions": 7736,
      "Ġmodified": 7737,
      "Ġpurchased": 7738,
      "etri": 7739,
      "Ġnotification": 7740,
      "hemat": 7741,
      "ifest": 7742,
      "Ġrelationships": 7743,
      "cas": 7744,
      "ĊĊĠĠĠĠĠ": 7745,
      "uzz": 7746,
      "alchemy": 7747,
      "urally": 7748,
      "ellig": 7749,
      "]).": 7750,
      "Ġacting": 7751,
      "Ġpink": 7752,
      "Ġrevolution": 7753,
      "Ġouter": 7754,
      "hh": 7755,
      "cha": 7756,
      "Ġstro": 7757,
      "develop": 7758,
      "lint": 7759,
      "Ġcolumb": 7760,
      "Ġbishop": 7761,
      "Ġtrap": 7762,
      "sz": 7763,
      "Ġnc": 7764,
      "éĩ": 7765,
      "Ġremoving": 7766,
      "Ġdent": 7767,
      "Ġproviding": 7768,
      "Ġauthority": 7769,
      "Ġhotel": 7770,
      "Ġpresence": 7771,
      "Ġlemon": 7772,
      "upt": 7773,
      "Ġclin": 7774,
      "Ġaid": 7775,
      "Ġnas": 7776,
      "disc": 7777,
      "icies": 7778,
      "Ġsignature": 7779,
      "Ġcomplaint": 7780,
      "ims": 7781,
      "Ġsham": 7782,
      "Ġpip": 7783,
      "Ġdip": 7784,
      "Ġpt": 7785,
      "uten": 7786,
      "Ñĭ": 7787,
      "formatter": 7788,
      "bell": 7789,
      "Ġsha": 7790,
      "Ġcritical": 7791,
      "camera": 7792,
      "Ġprocessed": 7793,
      "Äį": 7794,
      "raid": 7795,
      "Ġmurder": 7796,
      "Ġsounds": 7797,
      ")\")": 7798,
      "ologist": 7799,
      "bp": 7800,
      "Ġvideos": 7801,
      "webioea": 7802,
      "+\"": 7803,
      "Ġquiet": 7804,
      "mixin": 7805,
      "Ġunicode": 7806,
      "mil": 7807,
      "Ġbeyond": 7808,
      "Ġsale": 7809,
      "ĠĠĠĠĠĠĠĠĠĠĠĠĠĠ": 7810,
      "Ġextremely": 7811,
      "Ġhide": 7812,
      "Ġorange": 7813,
      "Ġfamous": 7814,
      "Ġfacing": 7815,
      "ĠĊĠĠĠĠĠĠĠĠĠĠĠĠĠĠĠ": 7816,
      "/\"": 7817,
      "secut": 7818,
      "Ġarc": 7819,
      "Ġsevere": 7820,
      "))).": 7821,
      "Ġsmell": 7822,
      "Ġcounsel": 7823,
      "Ġsucceed": 7824,
      "Ġnullable": 7825,
      "Ġcollabor": 7826,
      "Ġpod": 7827,
      "ih": 7828,
      "Ġwave": 7829,
      "Ġblow": 7830,
      "Ġharm": 7831,
      "agement": 7832,
      "bins": 7833,
      "lists": 7834,
      "xlabel": 7835,
      "Ġta": 7836,
      "Ġcallable": 7837,
      "Ġreduced": 7838,
      "Ġfootballer": 7839,
      "oe": 7840,
      "Ġlaws": 7841,
      "Ġabstract": 7842,
      "Ġcertificate": 7843,
      "Ġshouldn": 7844,
      "Ġrussia": 7845,
      "fish": 7846,
      "undred": 7847,
      "Ġthank": 7848,
      "oral": 7849,
      "Ġstom": 7850,
      "strftime": 7851,
      "proble": 7852,
      "mann": 7853,
      "Ġcomedy": 7854,
      "require": 7855,
      "dst": 7856,
      "Ġnumerous": 7857,
      "Ġcorrectly": 7858,
      "educ": 7859,
      "perform": 7860,
      "Ġgrass": 7861,
      "packages": 7862,
      "Ġinspect": 7863,
      "Ġkeyboard": 7864,
      "\"\")": 7865,
      "ensors": 7866,
      "requires": 7867,
      "Ġcircuit": 7868,
      "transport": 7869,
      "adv": 7870,
      "reward": 7871,
      "Ġintended": 7872,
      "Ġtar": 7873,
      "Ġinfant": 7874,
      "attle": 7875,
      "Ġsigma": 7876,
      "Ġprediction": 7877,
      "Ġgeneration": 7878,
      "Ġapplications": 7879,
      "Ġdrinking": 7880,
      "emet": 7881,
      "personal": 7882,
      "namedvalues": 7883,
      "gz": 7884,
      "national": 7885,
      "Ġlisting": 7886,
      "song": 7887,
      "ansion": 7888,
      "Ġcurr": 7889,
      "Ġrelatively": 7890,
      "Ġcomments": 7891,
      "Ġcontem": 7892,
      "awa": 7893,
      "Ġbacteria": 7894,
      "runtime": 7895,
      "Ġlang": 7896,
      "dif": 7897,
      "Ġvice": 7898,
      "Ġdesk": 7899,
      "([\"": 7900,
      "Ġoccasion": 7901,
      "Ġresolution": 7902,
      "Ġarr": 7903,
      "Ġdepart": 7904,
      "Ġaccepted": 7905,
      "Ġroles": 7906,
      "atial": 7907,
      "Ġwalls": 7908,
      "iments": 7909,
      "////": 7910,
      "Ġaxes": 7911,
      "Ġhat": 7912,
      "Ġenabled": 7913,
      "azy": 7914,
      "orient": 7915,
      "cnt": 7916,
      "Ġrain": 7917,
      "connected": 7918,
      "ulator": 7919,
      "gray": 7920,
      "iliar": 7921,
      "Ġnoted": 7922,
      "ught": 7923,
      "teen": 7924,
      "Ġlaunched": 7925,
      "Ġvictory": 7926,
      "legal": 7927,
      "review": 7928,
      "Ġfaculty": 7929,
      "inity": 7930,
      "candid": 7931,
      "Ġagricult": 7932,
      "mol": 7933,
      "Ġnail": 7934,
      "plane": 7935,
      "Ġama": 7936,
      "sep": 7937,
      "strateg": 7938,
      "Ġdecimal": 7939,
      ",(": 7940,
      "Ġmedicine": 7941,
      "share": 7942,
      "sis": 7943,
      "posure": 7944,
      "Ġrates": 7945,
      "Ġtransition": 7946,
      "Ġfitness": 7947,
      "Ġemotional": 7948,
      "Ġfelt": 7949,
      "Ġkeras": 7950,
      "åĩ": 7951,
      "Ġemployee": 7952,
      "Ġlee": 7953,
      "encing": 7954,
      "Ġwarnings": 7955,
      "Ġdefinit": 7956,
      "Ġradius": 7957,
      "Ġdrawing": 7958,
      "Ġpi": 7959,
      "Ġarrest": 7960,
      "pixel": 7961,
      "oul": 7962,
      "Ġpartial": 7963,
      "()):": 7964,
      "Ġexcell": 7965,
      "Ġbuying": 7966,
      "hon": 7967,
      "Ġregiment": 7968,
      ")'": 7969,
      "Ġauthors": 7970,
      "Ġsitting": 7971,
      "Ġcake": 7972,
      "Ġacademic": 7973,
      "Ġhip": 7974,
      "Ġcham": 7975,
      "Ġhelping": 7976,
      "Ġadopt": 7977,
      "elet": 7978,
      "Ġbod": 7979,
      "Ġreports": 7980,
      "migration": 7981,
      "Ġchampion": 7982,
      "Ġjustice": 7983,
      "Ġpra": 7984,
      "Ġtemporary": 7985,
      "Ġnearly": 7986,
      "reduce": 7987,
      "marg": 7988,
      "inds": 7989,
      "{}\".": 7990,
      "================================================================": 7991,
      "Ġdirt": 7992,
      "pub": 7993,
      "Ġofficers": 7994,
      "fb": 7995,
      "Ġhighway": 7996,
      "Ġapps": 7997,
      "rp": 7998,
      "Ġliterature": 7999,
      "Ġmood": 8000,
      "Ġhouses": 8001,
      "reverse": 8002,
      "Ġboot": 8003,
      "Ġfeels": 8004,
      "his": 8005,
      "Ġjim": 8006,
      "Ġdemand": 8007,
      "utc": 8008,
      "Ġresulting": 8009,
      "books": 8010,
      "Ġ\"<": 8011,
      "Ġevaluate": 8012,
      "Ġdebt": 8013,
      ",)": 8014,
      "ading": 8015,
      "Ġfees": 8016,
      "dn": 8017,
      "almost": 8018,
      "scene": 8019,
      "ÅĤ": 8020,
      "Ġaccur": 8021,
      "Ġwitness": 8022,
      "Ġinfluence": 8023,
      "Ġ'#": 8024,
      "Ġadvantage": 8025,
      "Ã±": 8026,
      "Ġboost": 8027,
      "Ġroots": 8028,
      "going": 8029,
      "_%": 8030,
      "Ġcrime": 8031,
      "Ġspending": 8032,
      "Ġvirtual": 8033,
      "æł": 8034,
      "Ġpag": 8035,
      "Ġlived": 8036,
      "Ġobs": 8037,
      "olicy": 8038,
      "dictionary": 8039,
      "Ġobserv": 8040,
      "ĠÎ": 8041,
      "flatten": 8042,
      "Ġiii": 8043,
      "]/": 8044,
      "built": 8045,
      "subtypespec": 8046,
      "Ġvertical": 8047,
      "ansas": 8048,
      "Ġmodify": 8049,
      "Ġregistered": 8050,
      "Ġsurpr": 8051,
      "Ġcreative": 8052,
      "encil": 8053,
      "Ġstdout": 8054,
      "ÑĮ": 8055,
      "irmed": 8056,
      "Ġdemocratic": 8057,
      "south": 8058,
      "objectname": 8059,
      "Ġregarding": 8060,
      "Ġstim": 8061,
      "Ġteaching": 8062,
      "conver": 8063,
      "Ġkept": 8064,
      "Ġfilled": 8065,
      "Ġclassic": 8066,
      "phys": 8067,
      "Ġpresented": 8068,
      "Ġcriter": 8069,
      "Ġdust": 8070,
      "Ġrecipe": 8071,
      "Ġloved": 8072,
      "Ġpak": 8073,
      "Ġspain": 8074,
      "Ġbreast": 8075,
      "Ġtechnique": 8076,
      "Ġsett": 8077,
      "Ġrepresentation": 8078,
      "Ġmerg": 8079,
      "Ġappreci": 8080,
      "bur": 8081,
      "uset": 8082,
      "attention": 8083,
      "vy": 8084,
      "lm": 8085,
      "Ġwinner": 8086,
      "Ġrepresentative": 8087,
      "should": 8088,
      "emon": 8089,
      "Ġconvention": 8090,
      "Ġreferred": 8091,
      "vious": 8092,
      "micro": 8093,
      "æį": 8094,
      "Ġpairs": 8095,
      "ema": 8096,
      "door": 8097,
      "Ġmd": 8098,
      "^{": 8099,
      "bib": 8100,
      "Ġslide": 8101,
      "sensor": 8102,
      "}',": 8103,
      "Ġcalories": 8104,
      "sun": 8105,
      "Ġslip": 8106,
      "Ġbc": 8107,
      "Ġshower": 8108,
      "Ġguy": 8109,
      "oston": 8110,
      "Ġboss": 8111,
      "Ġoccurs": 8112,
      "Ġcrop": 8113,
      "Ġcombine": 8114,
      "Ġrelations": 8115,
      "such": 8116,
      "instr": 8117,
      "design": 8118,
      "Ġcurve": 8119,
      "Ġnarrow": 8120,
      "balance": 8121,
      "bir": 8122,
      "Ġplane": 8123,
      "Ġmoves": 8124,
      "Ġescape": 8125,
      "Ġarchitecture": 8126,
      "enate": 8127,
      "Ġhr": 8128,
      "configure": 8129,
      "alias": 8130,
      "shared": 8131,
      "Ġpose": 8132,
      "Ġcategories": 8133,
      "suffix": 8134,
      "Ġtold": 8135,
      "Ġinteresting": 8136,
      "Ġships": 8137,
      "distribution": 8138,
      "__.": 8139,
      "supported": 8140,
      "mount": 8141,
      "orph": 8142,
      "umin": 8143,
      "ãģ®": 8144,
      "Ġsink": 8145,
      "prof": 8146,
      "Ġbomb": 8147,
      "here": 8148,
      ",},": 8149,
      "normalize": 8150,
      "Ġkitchen": 8151,
      "Ġtechniques": 8152,
      "Ġformal": 8153,
      "Ġlosing": 8154,
      "tube": 8155,
      "Ġpipe": 8156,
      "Ġbyte": 8157,
      "Ġmeant": 8158,
      "Ġbelong": 8159,
      "Ġaside": 8160,
      "Ġgenus": 8161,
      "endswith": 8162,
      "Ġmanaged": 8163,
      "Ġindent": 8164,
      "tom": 8165,
      "Ġscientific": 8166,
      "Ġapproved": 8167,
      "prediction": 8168,
      "Ġnations": 8169,
      "Ġagree": 8170,
      "semble": 8171,
      "Ġ\"+": 8172,
      "Ġdisk": 8173,
      "decay": 8174,
      "Ġjar": 8175,
      "foc": 8176,
      "ela": 8177,
      "iration": 8178,
      "credentials": 8179,
      "Ġcontroller": 8180,
      "hens": 8181,
      "Ġdepends": 8182,
      "Ġorche": 8183,
      "Ġwine": 8184,
      "Ġelections": 8185,
      "Ġprin": 8186,
      "ctrl": 8187,
      "pow": 8188,
      "gypt": 8189,
      "calc": 8190,
      "crop": 8191
    },
    "merges": [
      "Ġ Ġ",
      "ĠĠ ĠĠ",
      "Ġ t",
      "i n",
      "Ġ a",
      "e r",
      "ĠĠ Ġ",
      "o n",
      "r e",
      "Ġ s",
      "h e",
      "a t",
      "ĠĠĠĠ ĠĠĠĠ",
      "o r",
      "Ġ c",
      "e n",
      "Ġt he",
      "o u",
      "e s",
      "Ġ f",
      "a n",
      "i t",
      "Ġ p",
      "e l",
      "a l",
      "i s",
      "Ġ w",
      "a r",
      "Ġ b",
      "Ġ d",
      "ĠĠĠĠ ĠĠĠ",
      "Ġ m",
      "Ġ o",
      "e d",
      "Ġ in",
      "in g",
      "l e",
      "Ċ ĠĠĠĠĠĠĠ",
      "i on",
      "Ġ =",
      "a s",
      "i c",
      "Ċ ĠĠĠĠĠĠĠĠ",
      "Ġa n",
      "e t",
      "r o",
      "Ġ n",
      "Ġt o",
      "Ġ y",
      "Ċ ĠĠĠ",
      "Ġo f",
      "s t",
      "Ġ l",
      "a m",
      "Ġy ou",
      "Ġ re",
      "Ġ h",
      "Ġan d",
      "i l",
      "i m",
      "en t",
      "c t",
      "el f",
      "i d",
      "Ġ g",
      "i f",
      "o m",
      "Ġt h",
      "s e",
      "u r",
      "Ġ e",
      "o t",
      "a d",
      "o l",
      "Ġ \"",
      "c h",
      "u t",
      "i g",
      "ĊĠĠĠĠĠĠĠĠ ĠĠĠ",
      "c e",
      "Ġf or",
      "o d",
      "Ġ u",
      "r a",
      "Ġs t",
      "- -",
      "Ġ '",
      "Ġ (",
      "v e",
      "l o",
      "Ġ is",
      "Ġs elf",
      "a y",
      "p e",
      "at ion",
      "u l",
      "es t",
      "u m",
      "e f",
      "v er",
      "or t",
      "a g",
      "Ġ on",
      "is t",
      "Ġa s",
      "i r",
      "# #",
      "at e",
      "t h",
      "Ġyou r",
      "am e",
      ") :",
      "l y",
      "Ġ if",
      "Ġb e",
      "it h",
      "k e",
      "a b",
      "t er",
      "c k",
      "e m",
      "e x",
      "Ġ or",
      "ro m",
      "q u",
      "Ġ it",
      "u n",
      "Ġ v",
      "Ġ r",
      "o w",
      "re s",
      "u s",
      "Ġc on",
      "er s",
      "p ort",
      "r i",
      "ou t",
      "' ,",
      "Ġa l",
      "o p",
      "a p",
      "s elf",
      "Ġw ith",
      "ĊĠĠĠĠĠĠĠĠ ĠĠĠĠĠĠĠĠ",
      "an d",
      "( )",
      "u e",
      "Ġ #",
      "Ċ Ċ",
      "es s",
      "in t",
      "p l",
      "ou n",
      "e ct",
      "Ġth at",
      "as s",
      "il l",
      "en d",
      ") ,",
      "on e",
      "Ġw h",
      "Ġ he",
      "ur n",
      "p t",
      "Ġe x",
      "c on",
      "h t",
      "o s",
      "â Ģ",
      "Ġ j",
      "Ċ ĊĠĠĠ",
      "ĊĠĠĠĠĠĠĠĠ ĠĠĠĠĠĠĠ",
      "c l",
      "Ġ im",
      "Ġp ro",
      "\" ,",
      "Ġc h",
      "t urn",
      "-- --",
      "Ġd ef",
      "Ġc om",
      "i z",
      "ar t",
      "Ġn ot",
      "o re",
      "\" \"",
      "Ġa t",
      "Ġa re",
      "al l",
      "at h",
      "i le",
      "at a",
      "Ġ k",
      "_ _",
      "ag e",
      "Ġn e",
      "Ġs u",
      "t y",
      "Ġs h",
      "Ġre turn",
      "Ġc an",
      "n ame",
      "= =",
      "g et",
      "Ġs e",
      "a in",
      "Ġu n",
      "ig ht",
      "Ġd e",
      "Ġf rom",
      "## ##",
      "an t",
      "i p",
      "ul t",
      "Ġw as",
      "g e",
      "s er",
      "Ġb y",
      "f or",
      "Ġl o",
      "Ġp l",
      "in d",
      "in e",
      "a c",
      ") )",
      "l d",
      "t o",
      "Ġ [",
      "i v",
      "Ġ le",
      "p er",
      "im e",
      "( '",
      "a ve",
      "Ġt r",
      "Ġ -",
      "Ġth is",
      "Ġ +",
      "it y",
      "er e",
      "Ġa r",
      "ar d",
      "i es",
      "m ent",
      "ou r",
      "t r",
      "ion s",
      "v al",
      "i al",
      "Ġw ill",
      "' :",
      "p ro",
      "u re",
      "Ġim port",
      "Ġm a",
      "' s",
      "i ve",
      "ex t",
      "p ut",
      "a ck",
      "Ġ el",
      "d er",
      "' ]",
      "b er",
      "' )",
      "ĉ ĉ",
      "e p",
      "c om",
      "Ċ ĊĠĠĠĠĠĠĠ",
      "Ġd o",
      "u d",
      "st r",
      "( \"",
      "i re",
      "ab le",
      "Ġc l",
      "u b",
      "p ar",
      "Ġre s",
      "i b",
      "a re",
      "ic t",
      "o st",
      "[ '",
      "ĠĠĠĠĠĠĠĠ ĠĠĠĠĠĠĠĠ",
      "s et",
      "g s",
      "a ct",
      "for m",
      "ic e",
      "p le",
      "Ġ {",
      "or d",
      "Ġa d",
      "s o",
      "Ġ\" \"\"",
      "od e",
      "Ġh ave",
      "\" )",
      "\" :",
      "oun d",
      "d ef",
      "as t",
      "f rom",
      "u st",
      "Ġ out",
      "i e",
      "f f",
      "d ata",
      "at ed",
      "Ġa p",
      "ty pe",
      "an s",
      "id e",
      "Ġ en",
      "as e",
      "or k",
      "od el",
      "a ce",
      "ou ld",
      "o k",
      "] ,",
      "Ġs o",
      "lo w",
      "iz e",
      "Ġa b",
      "Ġcon t",
      "o b",
      "ke y",
      "g r",
      "ar y",
      "p ath",
      "m a",
      "Ġ ro",
      "Ġ= =",
      "Ġp r",
      "Ġg et",
      "Ġn one",
      "s h",
      "ig n",
      "f er",
      "el l",
      "r it",
      "en s",
      "an ce",
      "Ġs c",
      "a v",
      "j ect",
      "an g",
      "u p",
      "a k",
      "c ess",
      "ĊĠĠĠĠĠĠĠĠĠĠĠĠĠĠĠĠ ĠĠĠ",
      "he n",
      "Ġg o",
      "om e",
      "Ġu p",
      "Ġst r",
      "---- ----",
      "th er",
      "i a",
      "er r",
      "ic h",
      "Ġu s",
      "ap p",
      "ct ion",
      "Ġc ol",
      "ic k",
      "res s",
      "on g",
      "Ġf e",
      "Ġv al",
      "Ġ *",
      "== ==",
      ". _",
      "en c",
      "Ġw e",
      "Ġm ay",
      "t he",
      "Ġ :",
      "s c",
      "f ile",
      "t e",
      "p h",
      "Ġ x",
      "oun t",
      "al ly",
      "re n",
      "Ġp ar",
      "#### ####",
      ") .",
      "or y",
      "= '",
      "ou g",
      "ver s",
      "a il",
      "is h",
      "a ch",
      "Ġb ut",
      "ow n",
      "i el",
      "Ġt ime",
      "Ġ i",
      "Ġne w",
      "Ġs p",
      "t est",
      "âĢ ĵ",
      "o g",
      "Ġal so",
      "c ol",
      "âĢ Ļ",
      "cl ass",
      "Ġthe y",
      "f ig",
      "Ġa c",
      "ad d",
      "Ġal l",
      "ing s",
      "d u",
      "ĠĠĠĠ Ġ",
      "i an",
      "iel d",
      "Ġp re",
      "il d",
      "it ion",
      "p o",
      "r y",
      "l ist",
      "Ġt est",
      "ent s",
      "Ġg r",
      "Ġs er",
      "Ġc o",
      "err or",
      "Ġon e",
      "ation s",
      "at ch",
      "d e",
      "pt ion",
      "w e",
      "Ġ ra",
      "qu est",
      "b o",
      "t ra",
      "et h",
      "en ce",
      "p s",
      "Ġn um",
      "ot h",
      "n e",
      "an ge",
      "im port",
      "at er",
      "Ġ |",
      "al se",
      "p on",
      "i x",
      "= \"",
      "u g",
      "Ġu se",
      "] )",
      "Ġh is",
      "oug h",
      "Ġw hen",
      "Ġpr int",
      "Ġthe m",
      "Ġl i",
      "f t",
      "Ġh as",
      "c re",
      "Ġs et",
      "Ġwh ich",
      "o c",
      "in k",
      "Ġp art",
      "pe c",
      "Ġma ke",
      "Ċ Ġ",
      "c he",
      "Ġo ther",
      "Ġd ata",
      "v el",
      "Ġl ist",
      "re e",
      "Ġb o",
      "ic al",
      "Ġt y",
      "is e",
      "Ġp er",
      "par am",
      "Ġ _",
      "ir st",
      "Ġel se",
      "p r",
      "l p",
      "ou s",
      "Ġe v",
      "Ġm ore",
      "Ġad d",
      "m o",
      "or s",
      ". .",
      "Ġcom m",
      "t ext",
      "re ad",
      "m s",
      "Ġn ame",
      "* *",
      "Ġw ork",
      "p y",
      "ter n",
      "at es",
      "ar gs",
      "Ġm an",
      "Ġn o",
      "Ġc re",
      "Ġsh ould",
      "it e",
      "Ġs ome",
      "Ġin d",
      "Ġt ra",
      "en er",
      "ab el",
      "č Ċ",
      "es c",
      "Ġan y",
      "Ġd is",
      "ĊĠĠĠĠĠĠĠĠĠĠĠĠĠĠĠĠ ĠĠĠĠĠĠĠĠ",
      "tr ue",
      "m odel",
      "l l",
      "Ġn p",
      "ol d",
      "d ict",
      "Ġm e",
      "s on",
      "Ġ qu",
      "ra y",
      "Ġp e",
      "Ġne ed",
      "Ġf il",
      "g er",
      "ro w",
      "i ent",
      "Ġa f",
      "s ize",
      "p os",
      "Ġo p",
      "as k",
      "Ġa m",
      "Ġthe ir",
      "ri b",
      "Ġs y",
      "lo ad",
      "l es",
      "lo g",
      "[ \"",
      "a u",
      "a ult",
      "w o",
      "f o",
      "Ġpl ay",
      "Ġ )",
      "Ġ %",
      "' t",
      "Ġf irst",
      "Ġm o",
      "Ġab out",
      "val ue",
      "m in",
      "n um",
      "el y",
      "Ġo ver",
      "a ke",
      "i o",
      "Ġhe lp",
      "Ġm ar",
      "Ġt e",
      "Ġin to",
      "p re",
      "c ur",
      "ser t",
      "er t",
      "cl ud",
      "Ġo b",
      "n one",
      "Ġa g",
      "c o",
      "Ġa ct",
      "t ime",
      "č ĊĠĠĠĠĠĠĠ",
      "f il",
      "e ar",
      "Ġof f",
      "ur l",
      "ĊĠĠĠĠĠĠĠĠĠĠĠĠĠĠĠĠ ĠĠĠĠĠĠĠĠĠĠĠĠĠĠĠĠ",
      "ig h",
      "op le",
      "is s",
      "m an",
      "Ġm odel",
      "Ġb u",
      "Ġin t",
      "Ċ ĉĉ",
      "in it",
      "Ġwh o",
      "am es",
      "l en",
      "ver y",
      "Ġtr y",
      "Ġp o",
      "Ġh ow",
      "Ġfor m",
      "Ġh er",
      "st at",
      "a w",
      "ĊĠĠĠĠĠĠĠĠĠĠĠĠĠĠĠĠ ĠĠĠĠĠĠĠ",
      "s s",
      "\" ]",
      "Ġ __",
      ". ,",
      "a pe",
      "Ġc he",
      "ou p",
      "Ġs he",
      "u es",
      "Ġw ere",
      "a ir",
      "č ĊĠĠĠ",
      "con fig",
      "Ġf ile",
      "Ġp h",
      "Ġlo g",
      "Ġl en",
      "Ġsu b",
      "Ġ| |",
      "Ġm in",
      "Ġthe n",
      "Ġf l",
      "v ice",
      "Ċ ĠĠĠĠĠ",
      "am ple",
      "ie w",
      "d ir",
      "c ount",
      "Ġaf ter",
      "an n",
      "Ġb r",
      "w ard",
      "ce pt",
      "l ine",
      "Ġp os",
      "Ġat t",
      "d ate",
      "al s",
      "us er",
      "Ġin st",
      "ul l",
      "he d",
      "Ġcom p",
      "Ġk n",
      "Ġval ue",
      "t s",
      "Ġli ke",
      "Ġre g",
      "app end",
      "if ic",
      "Ġw ant",
      "ar g",
      "Ġin clud",
      "Ġres ult",
      "Ġth ere",
      "Ġty pe",
      "c es",
      "ar n",
      "Ġtr ue",
      "Ġst art",
      "it s",
      "w ay",
      "con t",
      "c ord",
      "form at",
      "Ġas sert",
      "Ċ ĉ",
      "ar i",
      "Ġe m",
      "s p",
      "Ġf r",
      "at or",
      "or m",
      "e v",
      "ic s",
      "Ġ z",
      "pe ct",
      "Ġpe ople",
      "b y",
      "f ield",
      "i ed",
      "\"\" \"",
      "Ġlo c",
      "Ġo s",
      "Ġin ter",
      "Ġf o",
      "Ġt wo",
      "ma x",
      "==== ====",
      "y s",
      "Ġs pec",
      "Ġb et",
      "ef ore",
      "ad e",
      "a x",
      "Ġd on",
      "or n",
      "Ġ <",
      "eth od",
      "enc es",
      "ar ch",
      "Ġ end",
      "ire ct",
      "t ing",
      "d at",
      "b u",
      "Ġun der",
      "i er",
      "at ing",
      "pon se",
      "Ġ âĢ",
      "t on",
      "our ce",
      "ch o",
      "j o",
      "com m",
      "Ġcl ass",
      "f l",
      "Ġ âĢĵ",
      "ub l",
      "Ġon ly",
      "ren t",
      "an k",
      "ect ion",
      "Ġf un",
      "-------- --------",
      "Ġb ack",
      "ut h",
      "Ġ id",
      "ers on",
      "u al",
      "w ork",
      "in put",
      "f alse",
      "in fo",
      "v ed",
      "Ġ ed",
      "f e",
      "Ġc ur",
      "Ġit s",
      "am p",
      "Ġd ist",
      "n ot",
      "at t",
      "w n",
      "f r",
      "Ġ key",
      "ess age",
      "ind ex",
      "Ġs m",
      "/ /",
      "c ent",
      "######## ########",
      "ag es",
      "Ġop en",
      "Ġre l",
      "( ):",
      "Ġwh ile",
      "con d",
      "rit e",
      "Ġb l",
      "Ġthe se",
      "en se",
      "Ġ ent",
      "rib ut",
      "um n",
      "Ġ @",
      "Ġ >",
      "op t",
      "um ent",
      "Ġwh at",
      "Ġe ach",
      "Ġb efore",
      "} ,",
      "Ġth an",
      "Ġs k",
      "Ġs im",
      "Ġr un",
      "lo ck",
      "ic es",
      "Ġp ass",
      "l abel",
      "er y",
      "Ġst ate",
      "vers ion",
      "al e",
      "Ġ ke",
      "s ub",
      "Ġp ol",
      "c i",
      "u res",
      "ra ph",
      "Ġd own",
      "Ġd if",
      "m e",
      "ob ject",
      "on t",
      "in es",
      "__ (",
      "ul ar",
      "po int",
      "Ġm ost",
      "au se",
      "in al",
      "Ġg ener",
      "ar ray",
      "Ġnum ber",
      "ation al",
      "Ġy ear",
      "Ġh ad",
      "Ġtr ans",
      "qu al",
      "esc ri",
      "er n",
      "at ure",
      "Ġc all",
      "Ġl ine",
      "Ġf alse",
      "Ġd ay",
      "g th",
      "er ic",
      "Ġf ol",
      "Ġth r",
      "Ġcon s",
      "Ġwh ere",
      "et er",
      "o se",
      "as ed",
      "in s",
      "re g",
      "Ġf ind",
      "in st",
      "it em",
      "v iew",
      "it ed",
      "Ġc oun",
      "u le",
      "ur ing",
      "l and",
      "c ode",
      "w ord",
      "Ġw ay",
      "ar get",
      "Ġ /",
      "e c",
      "u ct",
      "Ġh and",
      "il y",
      "d b",
      "Ġc ar",
      "lo c",
      "k en",
      "re at",
      "Ġj ust",
      "ire d",
      "Ġr ange",
      "Ġm ed",
      "y n",
      "ĠĠĠĠ ĠĠ",
      "at ive",
      "Ġa v",
      "d f",
      "m l",
      "b r",
      "] .",
      "Ġre ad",
      "Ġpar am",
      "ment s",
      "b le",
      "fer ences",
      "Ġthr ough",
      "Ġsu re",
      "em ber",
      "Ġp y",
      "st art",
      "st ate",
      "f ul",
      "Ġus ed",
      "Ġpro v",
      "Ġc ent",
      "' '",
      "Ġpro du",
      "is ion",
      "Ġbe c",
      "Ġlo ok",
      "Ġbe en",
      "as h",
      "el ect",
      "od y",
      "Ġh igh",
      "pr int",
      "ib le",
      "\" .",
      "Ġd at",
      "( [",
      "Ġse e",
      "b ack",
      "Ġdef ault",
      "oth er",
      "Ġche ck",
      "it ies",
      "pl ay",
      "ess ion",
      "Ġp erson",
      "Ġw ater",
      "ut il",
      "in ter",
      "Ġt ake",
      "ar k",
      "as on",
      "Ġj o",
      "lo at",
      "Ġg u",
      "Ġke ep",
      "stat us",
      "Ġu ser",
      "re d",
      "Ġ[ ]",
      "res ult",
      "Ġsu ch",
      "c ed",
      "Ġde p",
      "tra in",
      "id er",
      "out put",
      "cho ol",
      "Ġre quest",
      "Ġw ell",
      "Ġm u",
      "( (",
      "b e",
      "n t",
      "Ġc le",
      "Ġl ong",
      "Ġ+ =",
      "r ic",
      "st em",
      "Ġhe ad",
      "Ġsu p",
      "op y",
      "Ġd es",
      "Ġr ight",
      "u c",
      "t en",
      "Ġ .",
      "Ġm et",
      "w h",
      "m ain",
      "Ġch ild",
      "Ġp ath",
      "ra ct",
      "ist s",
      "Ġex p",
      "em ent",
      "t p",
      "ow er",
      "pl ic",
      "Ġto p",
      "w ith",
      "Ġus ing",
      "Ġgo od",
      "n p",
      "qu e",
      "p es",
      "a f",
      "Ġw or",
      "re quest",
      "m od",
      "Ġs chool",
      "ar s",
      "n o",
      "Ġfe el",
      "pl it",
      "str ing",
      "Ġfol low",
      "Ġd el",
      "Ġev en",
      "Ġap p",
      "Ġin put",
      "âĢ Ŀ",
      "Ġb re",
      "m et",
      "re ferences",
      "it le",
      "g an",
      "k ing",
      "Ġd irect",
      "Ġch ar",
      "he ad",
      "Ġpo int",
      "Ġel if",
      "m ap",
      "' re",
      "Ġ Ċ",
      "Ġman y",
      "d is",
      "we en",
      "im es",
      "Ċ ĊĠĠĠĠĠĠĠĠĠĠĠ",
      "Ġp res",
      "Ġ{ }",
      "` `",
      "Ġw ould",
      "tr ans",
      "f un",
      "jo in",
      "Ġ q",
      "re turn",
      "n et",
      "Ġun i",
      "Ġpl ace",
      "m p",
      "Ġc al",
      "as et",
      "Ġs ign",
      "Ġd uring",
      "Ġtra in",
      "o f",
      ": //",
      "ort h",
      "Ġm on",
      "Ġm us",
      "ra w",
      "Ġre qu",
      "Ġar gs",
      "Ġen g",
      "u ally",
      "ne w",
      "iz ed",
      "Ġma x",
      "b all",
      "Ġst ud",
      "r un",
      "Ġag ain",
      "val id",
      "Ġsh ow",
      "if e",
      "Ġcre ate",
      "Ġcon fig",
      "Ġt em",
      "Ġout put",
      "t il",
      "Ġf ield",
      "l ed",
      "Ġw ar",
      "id ent",
      "Ġm at",
      "Ġp ubl",
      "Ġe very",
      "ĠâĢ ľ",
      "Ġbet ween",
      "ro p",
      "gr am",
      "b s",
      "Ġo pt",
      "i ous",
      "Ġde c",
      "mo ve",
      "Ġ \\",
      "Ġf ound",
      "is hed",
      "w id",
      "d el",
      "ou se",
      "en ame",
      "Ġin v",
      ". __",
      "Ġcol le",
      "ut e",
      "n er",
      "ass er",
      "Ġse cond",
      "ri end",
      "Ġt ext",
      "c s",
      "Ġra ise",
      "eric an",
      "Ġs l",
      "a z",
      "w args",
      "im age",
      "Ġm od",
      "Ġex ample",
      "Ġar t",
      "Ġb est",
      "ver t",
      "if y",
      "l i",
      "() )",
      "a it",
      "Ġl abel",
      "Ġex cept",
      "Ġob ject",
      "Ġs om",
      "ot t",
      "Ġh im",
      "w rite",
      "ce ption",
      "re en",
      "sh ape",
      "č ĊĠĠĠĠĠĠĠĠĠĠĠ",
      "Ġc or",
      "Ġl ink",
      "j son",
      "Ġdif fer",
      "or ch",
      "Ġ- >",
      "Ġre p",
      "Ġo wn",
      "Ġf in",
      "d s",
      "ol og",
      "Ġd ict",
      "and om",
      "m at",
      "s y",
      "d o",
      "Ġkn ow",
      "Ġ( '",
      "em b",
      "s um",
      "Ġs ur",
      "Ġor der",
      "pl ace",
      "Ġcom ple",
      "l ay",
      "Ġs ame",
      "Ġdo es",
      "id s",
      "Ġre cord",
      "] [",
      "Ġcont ain",
      "ic ense",
      "Ġch o",
      "Ġw rit",
      "tern al",
      "Ġpro cess",
      "c c",
      "ut ion",
      "ĊĠĠĠĠĠĠĠĠĠĠĠĠĠĠĠĠĠĠĠĠĠĠĠĠ ĠĠĠ",
      "Ġv ari",
      "Ġ }",
      "' ),",
      "in ce",
      "Ġsm all",
      "t x",
      "it t",
      "il ity",
      "Ċ ĠĠĠĠ",
      ". \"",
      "cl ient",
      "n ect",
      "Ġf am",
      "b in",
      "e ver",
      "d escri",
      "Ġal low",
      "Ġbe ing",
      "an y",
      "inst ance",
      "h er",
      "r ight",
      "an c",
      "Ġit em",
      "ac he",
      "ind ow",
      "y le",
      "m ed",
      "us h",
      "Ġm ight",
      "ath er",
      "e k",
      "Ġun til",
      "n ing",
      "d a",
      "def ault",
      "n ode",
      "m y",
      "gr oup",
      "Ġd r",
      "Ġar ound",
      "Ġst at",
      "che ck",
      "y ou",
      "pl ot",
      "l er",
      "Ġar g",
      "Ġo ption",
      "form ation",
      "Ġc r",
      "col or",
      "ap i",
      "Ġle t",
      "act ion",
      "Ġs ing",
      "g ing",
      "param s",
      "g o",
      "c le",
      "ann el",
      "Ġd i",
      "'] ,",
      "asser te",
      "Ġgr oup",
      "ist er",
      "Ġc ould",
      "Ġc are",
      "m essage",
      "Ġ* *",
      "Ġ est",
      "che s",
      "Ġs a",
      "ct or",
      "ou th",
      "cre ate",
      "() .",
      "c all",
      "et ers",
      "ant s",
      "Ġf riend",
      "per ty",
      "Ġe as",
      "x x",
      "Ġh t",
      "Ġbec ause",
      "iz er",
      "** **",
      "Ġbu ild",
      "b l",
      "Ġb oth",
      "Ġcur rent",
      "am pl",
      "it er",
      "() ,",
      "Ġm ethod",
      "Ġb el",
      "bo x",
      "[ :",
      "pro cess",
      "en v",
      "b ase",
      "Ġwor ld",
      "' .",
      "Ġim age",
      "i k",
      "lo b",
      "m on",
      "al k",
      "lo se",
      "asserte qual",
      "res h",
      "m ethod",
      "Ġdiffer ent",
      "Ã ©",
      "t able",
      "s plit",
      "tr y",
      "Ġg iv",
      "fr ame",
      "al th",
      "Ġa ir",
      "ter s",
      "Ġcont in",
      "Ġev ent",
      "t em",
      "Ġres ponse",
      "Ġte am",
      "et s",
      "Ġp op",
      "Ġth ree",
      "a h",
      "Ġs w",
      "Ġfo ot",
      "v es",
      "g in",
      "ens or",
      "ĊĊ ĊĊ",
      "ass ert",
      "Ġh ist",
      "h and",
      "se arch",
      "Ġyour self",
      "to ken",
      "Ġo per",
      "o ff",
      "Ġ( \"",
      "th on",
      "ur y",
      "Ġmu ch",
      "am b",
      "Ġa x",
      "\" ),",
      "Ġm ust",
      "Ġm ain",
      "id d",
      "Ġare a",
      "s ide",
      "ate g",
      "Ġt er",
      "g ener",
      "Ġc ap",
      "Ġe ff",
      "Ġe ar",
      "d ay",
      "o id",
      "Ġuni vers",
      "Ġcol or",
      "a a",
      "et y",
      "Ġex t",
      "Ġs ol",
      "w are",
      "t a",
      "Ġh ome",
      "res ponse",
      "Ġb ody",
      "col umn",
      "Ġin it",
      "Ġinclud e",
      "Ġind ex",
      "p are",
      "Ġpre v",
      "val ues",
      "Ġloc al",
      "str uct",
      "ip s",
      "Ġto o",
      "Ġhow ever",
      "Ġp ort",
      "Ġre t",
      "Ġsy stem",
      "m b",
      "uth or",
      "Ġst ep",
      "Ġp at",
      "et ime",
      "Ġl ast",
      "Ġin formation",
      "or der",
      "Ġst ates",
      "n ess",
      "v ing",
      "Ġc our",
      "m er",
      "Ġon ce",
      "if ied",
      "it ions",
      "======== ========",
      "Ġb as",
      "Ġsu per",
      "ĉĉ ĉĉ",
      "ro l",
      "Ġsup port",
      "Ġj son",
      "a ut",
      "on s",
      "iz ation",
      "Ġmar k",
      "Ġap pe",
      "Ġl ar",
      "vel op",
      "Ġb ir",
      "at ures",
      "m iss",
      "od es",
      "Ġt ak",
      "Ġ ve",
      "Ġm ade",
      "f ace",
      "m d",
      "Ġw ord",
      "Ġp ri",
      "l ib",
      "len gth",
      "Ġ !",
      "Ġ `",
      "k wargs",
      "par ser",
      "Ġb ro",
      "p ing",
      "Ġre le",
      "up date",
      "re l",
      "Ġp ost",
      "Ġas k",
      "pect ed",
      ", -",
      "t ings",
      "d im",
      "Ġs ide",
      "Ġwith out",
      "f ix",
      "Ġ very",
      "re qu",
      "Ġpos s",
      "re am",
      "Ġb us",
      "ro ss",
      "ir on",
      "ang u",
      "av ing",
      "Ġ[ '",
      "os s",
      "ial ly",
      "m ark",
      "w w",
      "Ġn ext",
      "Ġs ize",
      "us s",
      "ob j",
      "Ġam erican",
      "Ġt orch",
      "Ġl ife",
      "et e",
      "Ġ &",
      "Ġl aw",
      "orm al",
      "Ġyear s",
      "Ġb ase",
      "Ġfun ction",
      "p ol",
      "ag s",
      "Ġp ut",
      "Ġbo ok",
      "{ }",
      "Ġcomm and",
      "Ġp ur",
      "Ġn ow",
      "Ġl icense",
      "util s",
      "ur al",
      "Ġex per",
      "u se",
      "Ġs ay",
      "in ess",
      "s w",
      "Ġle ft",
      "Ġs um",
      "s ign",
      "Ġ ver",
      "Ġc opy",
      "Ġl ater",
      "Ġt arget",
      "Ġs it",
      "Ġd et",
      "ab les",
      "Ġro w",
      "Ġv is",
      "ri p",
      "Ġp a",
      "s l",
      "num ber",
      "Ġcons ider",
      "Ġor ig",
      "Ġle ad",
      "Ġcle an",
      "Ġ{ '",
      "Ġle vel",
      "Ġo ld",
      "p ost",
      "i ence",
      "e ad",
      "at tr",
      "at s",
      ".. .",
      "f loat",
      "Ġunivers ity",
      "Ġfo od",
      "ent ion",
      "eth ing",
      "= [",
      "ic ally",
      "Ġ! =",
      "ra p",
      "Ġn orth",
      "Ġl ay",
      "p ass",
      "Ġm ib",
      "Ġfam ily",
      "le t",
      "Ġstr ing",
      "as es",
      "re f",
      "Ġw on",
      "z e",
      "Ġp ay",
      "Ġn et",
      "'] )",
      "Ġ version",
      "ac es",
      "enc y",
      "t op",
      "Ġ error",
      "Ġg ive",
      "Ġan other",
      "Ġc ity",
      "cur rent",
      "Ġ ]",
      "Ġl a",
      "ot s",
      "Ġg ame",
      "m ber",
      "y e",
      "Ġun ited",
      "u ary",
      "n ames",
      "com e",
      "Ġm essage",
      "b ut",
      "st ep",
      "Ġmo ve",
      "Ġ ,",
      "Ġde velop",
      "Ġc ount",
      "Ġn ational",
      "Ġimport ant",
      "ar m",
      "Ġse ver",
      "Ġmodel s",
      "Ġpro ject",
      "com p",
      "Ġplay ers",
      "end ing",
      "n g",
      "Ġpro gram",
      "Ġsom ething",
      "s u",
      "r c",
      "id x",
      "Ġs pe",
      "Ġh air",
      "Ġg l",
      "ty pes",
      "x c",
      "ap er",
      "Ġlink s",
      "comm and",
      "p ed",
      "th s",
      "Ġh ouse",
      "as ter",
      "l ish",
      "Ġse ason",
      "Ġd iv",
      "x b",
      "z er",
      "n a",
      "model s",
      "arg ument",
      "Ġs elect",
      "Ġdo c",
      "x f",
      "' ll",
      "Ġm y",
      "id es",
      "Ġre ce",
      "Ġb ar",
      "b atch",
      "t arget",
      "Ġl im",
      "Ġmus ic",
      "Ġbre ak",
      "Ġcomm un",
      "Ġfe w",
      "par se",
      "Ġm ult",
      "ex ternal",
      "Ġpart ic",
      "Ġfollow ing",
      "am ed",
      "g en",
      "Ġcon st",
      "qu ery",
      "Ġc ut",
      "c or",
      "Ġgo ver",
      "an e",
      "Ġact iv",
      "b ug",
      "ch ar",
      "ens ion",
      "Ġt urn",
      "Ġa ut",
      "Ġfil m",
      "og raph",
      "fil ter",
      "Ġg reat",
      "d ist",
      "ex p",
      "ust om",
      "Ġlo ad",
      "ight s",
      "ent ial",
      "lo ss",
      "lo s",
      "Ġf our",
      "t itle",
      "on d",
      "Ġg e",
      "p art",
      "iv ed",
      "Ġre st",
      "Ġw he",
      "ol s",
      "t im",
      "ul ation",
      "Ġc a",
      "Ġper form",
      "Ġof ten",
      "s ol",
      "Ġst and",
      "ck et",
      "Ġ url",
      "Ġap pro",
      "sh ip",
      "h n",
      "Ġhe alth",
      "re ct",
      "Ġen c",
      "Ġc ode",
      "h ost",
      "con text",
      "g u",
      "c ial",
      "ampl es",
      "Ġt f",
      "v is",
      "i or",
      "Ġcon d",
      "in a",
      "er g",
      "Ġp are",
      "Ġle g",
      "ri es",
      "Ġs ince",
      "t ps",
      "Ġs al",
      "Ġp ress",
      "i um",
      "Ġth ings",
      "fer ence",
      "Ġpubl ic",
      "Ġval id",
      "Ġre f",
      "s k",
      "Ġpro f",
      "Ġinclud ing",
      "Ġto t",
      "ĊĠĠĠĠĠĠĠĠ Ġ",
      "angu age",
      "pl ate",
      "ro ll",
      "Ġfoot ball",
      "Ġf ull",
[...]
