{
  "version": "1.0",
  "truncation": null,
  "padding": null,
  "added_tokens": [
    {
      "id": 0,
      "content": "<|endoftext|>",
      "single_word": false,
      "lstrip": false,
      "rstrip": false,
      "normalized": false,
      "special": true
    },
    {
      "id": 1,
      "content": "<|pad|>",
      "single_word": false,
      "lstrip": false,
      "rstrip": false,
      "normalized": false,
      "special": true
    }
  ],
  "normalizer": {
    "type": "Sequence",
    "normalizers": [
      {
        "type": "NFKC"
      },
      {
        "type": "Lowercase"
      },
      {
        "type": "StripAccents"
      }
    ]
  },
  "pre_tokenizer": {
    "type": "Sequence",
    "pretokenizers": [
      {
        "type": "ByteLevel",
        "add_prefix_space": true,
        "trim_offsets": true,
        "use_regex": true
      },
      {
        "type": "Digits",
        "individual_digits": true
      }
    ]
  },
  "post_processor": {
    "type": "ByteLevel",
    "add_prefix_space": true,
    "trim_offsets": true,
    "use_regex": true
  },
  "decoder": {
    "type": "Sequence",
    "decoders": [
      {
        "type": "ByteLevel",
        "add_prefix_space": true,
        "trim_offsets": true,
        "use_regex": true
      }
    ]
  },
  "model": {
    "type": "BPE",
    "dropout": null,
    "unk_token": null,
    "continuing_subword_prefix": null,
    "end_of_word_suffix": null,
    "fuse_unk": false,
    "byte_fallback": false,
    "vocab": {
      "<|endoftext|>": 0,
      "<|pad|>": 1,
      "!": 2,
      "\"": 3,
      "#": 4,
      "$": 5,
      "%": 6,
      "&": 7,
      "'": 8,
      "(": 9,
      ")": 10,
      "*": 11,
      "+": 12,
      ",": 13,
      "-": 14,
      ".": 15,
      "/": 16,
      "0": 17,
      "1": 18,
      "2": 19,
      "3": 20,
      "4": 21,
      "5": 22,
      "6": 23,
      "7": 24,
      "8": 25,
      "9": 26,
      ":": 27,
      ";": 28,
      "<": 29,
      "=": 30,
      ">": 31,
      "?": 32,
      "@": 33,
      "[": 34,
      "\\": 35,
      "]": 36,
      "_": 37,
      "`": 38,
      "a": 39,
      "b": 40,
      "c": 41,
      "d": 42,
      "e": 43,
      "f": 44,
      "g": 45,
      "h": 46,
      "i": 47,
      "j": 48,
      "k": 49,
      "l": 50,
      "m": 51,
      "n": 52,
      "o": 53,
      "p": 54,
      "q": 55,
      "r": 56,
      "s": 57,
      "t": 58,
      "u": 59,
      "v": 60,
      "w": 61,
      "x": 62,
      "y": 63,
      "z": 64,
      "{": 65,
      "|": 66,
      "}": 67,
      "~": 68,
      "¡": 69,
      "¢": 70,
      "£": 71,
      "¤": 72,
      "¥": 73,
      "¦": 74,
      "§": 75,
      "¨": 76,
      "©": 77,
      "ª": 78,
      "«": 79,
      "¬": 80,
      "®": 81,
      "¯": 82,
      "°": 83,
      "±": 84,
      "³": 85,
      "´": 86,
      "µ": 87,
      "¶": 88,
      "·": 89,
      "¸": 90,
      "¹": 91,
      "º": 92,
      "»": 93,
      "½": 94,
      "¾": 95,
      "¿": 96,
      "Â": 97,
      "Ã": 98,
      "Ä": 99,
      "Å": 100,
      "É": 101,
      "Ê": 102,
      "Ñ": 103,
      "Ò": 104,
      "á": 105,
      "â": 106,
      "ã": 107,
      "ä": 108,
      "å": 109,
      "æ": 110,
      "ç": 111,
      "è": 112,
      "é": 113,
      "î": 114,
      "ï": 115,
      "ð": 116,
      "ĉ": 117,
      "Ċ": 118,
      "Ġ": 119,
      "Ģ": 120,
      "ģ": 121,
      "Ĥ": 122,
      "ĥ": 123,
      "Ħ": 124,
      "ħ": 125,
      "Ĩ": 126,
      "ĩ": 127,
      "Ī": 128,
      "ī": 129,
      "Ĭ": 130,
      "ĭ": 131,
      "Į": 132,
      "į": 133,
      "İ": 134,
      "ı": 135,
      "Ĳ": 136,
      "ĳ": 137,
      "Ĵ": 138,
      "ĵ": 139,
      "Ķ": 140,
      "ķ": 141,
      "ĸ": 142,
      "ĺ": 143,
      "Ļ": 144,
      "ļ": 145,
      "Ľ": 146,
      "ľ": 147,
      "Ŀ": 148,
      "ŀ": 149,
      "Ł": 150,
      "ł": 151,
      "Ń": 152,
      "Ġt": 153,
      "he": 154,
      "Ġa": 155,
      "Ġs": 156,
      "Ġthe": 157,
      "Ġw": 158,
      "nd": 159,
      "ed": 160,
      "Ġb": 161,
      "Ġto": 162,
      "Ġand": 163,
      "Ġh": 164,
      "Ġf": 165,
      "Ġi": 166,
      "Ġl": 167,
      "Ġwa": 168,
      "re": 169,
      "Ġhe": 170,
      "ou": 171,
      "Ġd": 172,
      "Ġm": 173,
      "on": 174,
      "Ġc": 175,
      "Ġp": 176,
      "ay": 177,
      "in": 178,
      "Ġwas": 179,
      "er": 180,
      "Ġsa": 181,
      "it": 182,
      "Ġn": 183,
      "ar": 184,
      "im": 185,
      "ll": 186,
      "id": 187,
      "om": 188,
      "Ġthey": 189,
      "Ġha": 190,
      "Ġg": 191,
      "is": 192,
      "at": 193,
      "ing": 194,
      "ot": 195,
      "Ġit": 196,
      "an": 197,
      "en": 198,
      "le": 199,
      "or": 200,
      "end": 201,
      "Ġshe": 202,
      "Ġon": 203,
      "Ġtim": 204,
      "ir": 205,
      "of": 206,
      "Ġth": 207,
      "et": 208,
      "ig": 209,
      "Ġin": 210,
      "Ġli": 211,
      "Ġpl": 212,
      "am": 213,
      "Ġy": 214,
      "Ġ\"": 215,
      "ow": 216,
      "ver": 217,
      "ri": 218,
      "Ġbe": 219,
      "ut": 220,
      "ly": 221,
      "Ġu": 222,
      "Ġsaid": 223,
      "Ġplay": 224,
      "Ġwit": 225,
      "Ġwith": 226,
      "Ġday": 227,
      "pp": 228,
      "Ġr": 229,
      "Ġher": 230,
      "oo": 231,
      "Ġhis": 232,
      "ked": 233,
      "Ġyou": 234,
      "ld": 235,
      "ce": 236,
      "ex": 237,
      "Ġst": 238,
      "ke": 239,
      "Ġbig": 240,
      "nt": 241,
      "ck": 242,
      "st": 243,
      "very": 244,
      "ve": 245,
      "Ġwe": 246,
      "Ġma": 247,
      "un": 248,
      "Ġhapp": 249,
      "Ġe": 250,
      "riend": 251,
      "Ġfriend": 252,
      "ext": 253,
      "oft": 254,
      "Ġba": 255,
      "her": 256,
      "Ġhad": 257,
      "Ġnot": 258,
      "Ġup": 259,
      "Ġdo": 260,
      "Ġmom": 261,
      "Ġwant": 262,
      "Ġbut": 263,
      "Ġof": 264,
      "itt": 265,
      "<|": 266,
      "|>": 267,
      "endoft": 268,
      "endoftext": 269,
      "se": 270,
      "Ġso": 271,
      "Ġthat": 272,
      "Ġhappy": 273,
      "ent": 274,
      "Ġvery": 275,
      "Ġbo": 276,
      "es": 277,
      "Ġsaw": 278,
      "'s": 279,
      "ould": 280,
      "Ġfor": 281,
      "Ġsh": 282,
      "Ġk": 283,
      "ittle": 284,
      "Ġlittle": 285,
      "ch": 286,
      "Ġthere": 287,
      "Ġnam": 288,
      ".\"": 289,
      "Ġtime": 290,
      "ound": 291,
      "Ġan": 292,
      "Ġj": 293,
      "Ġnamed": 294,
      "Ġsm": 295,
      "one": 296,
      "Ġlily": 297,
      "Ġwere": 298,
      "Ġne": 299,
      "Ġwanted": 300,
      "Ġtom": 301,
      "out": 302,
      "the": 303,
      "Ġfriends": 304,
      "ved": 305,
      "!\"": 306,
      "Ġsu": 307,
      "Ġwh": 308,
      "ht": 309,
      "Ġbir": 310,
      "Ġone": 311,
      "Ġbird": 312,
      "al": 313,
      "Ġall": 314,
      "Ġtoo": 315,
      "ome": 316,
      "lp": 317,
      "ra": 318,
      "Ġwent": 319,
      "el": 320,
      "ug": 321,
      "Ġsp": 322,
      "Ġis": 323,
      "ad": 324,
      "Ġhelp": 325,
      "Ġloo": 326,
      "Ġlo": 327,
      "il": 328,
      "ter": 329,
      "Ġupon": 330,
      "ry": 331,
      "Ġas": 332,
      "all": 333,
      "ore": 334,
      "Ġat": 335,
      "Ġfun": 336,
      "get": 337,
      "Ġtoy": 338,
      "Ġre": 339,
      "ind": 340,
      "ill": 341,
      "ame": 342,
      "Ġo": 343,
      "Ġdid": 344,
      "Ġfr": 345,
      "gether": 346,
      "ide": 347,
      "Ġtogether": 348,
      "Ġcan": 349,
      "Ġse": 350,
      "Ġcat": 351,
      "Ġtre": 352,
      "Ġonce": 353,
      "ood": 354,
      "Ġdog": 355,
      "ted": 356,
      "ic": 357,
      "Ġtheir": 358,
      "Ġcould": 359,
      "Ġro": 360,
      "ard": 361,
      "ark": 362,
      "ec": 363,
      "Ġle": 364,
      "Ġgir": 365,
      "Ġgo": 366,
      "Ġball": 367,
      "Ġplayed": 368,
      "Ġhim": 369,
      "?\"": 370,
      "Ġgirl": 371,
      "way": 372,
      "Ġare": 373,
      "hed": 374,
      "Ġout": 375,
      "Ġca": 376,
      "ain": 377,
      "hen": 378,
      "Ġkn": 379,
      "my": 380,
      "Ġthem": 381,
      "'t": 382,
      "um": 383,
      "Ġsad": 384,
      "de": 385,
      "Ġman": 386,
      "Ġboy": 387,
      "ul": 388,
      "Ġtree": 389,
      "Ġhave": 390,
      "other": 391,
      "Ġcl": 392,
      "Ġloved": 393,
      "Ġlooked": 394,
      "oug": 395,
      "Ġfound": 396,
      "Ġstar": 397,
      "ur": 398,
      "Ġsue": 399,
      "hing": 400,
      "Ġsc": 401,
      "Ġback": 402,
      "ily": 403,
      "own": 404,
      "Ġmax": 405,
      "Ġlike": 406,
      "Ġfrom": 407,
      "ful": 408,
      "side": 409,
      "Ġme": 410,
      "Ġbec": 411,
      "Ġla": 412,
      "Ġevery": 413,
      "Ġcar": 414,
      "Ġta": 415,
      "Ġpark": 416,
      "ight": 417,
      "ong": 418,
      "Ġfa": 419,
      "Ġwould": 420,
      "elt": 421,
      "Ġsam": 422,
      "Ġliked": 423,
      "op": 424,
      "Ġben": 425,
      "Ġmake": 426,
      "round": 427,
      "Ġfelt": 428,
      "Ġsee": 429,
      "Ġno": 430,
      "as": 431,
      "omet": 432,
      "Ġthen": 433,
      "Ġasked": 434,
      "Ġnew": 435,
      "ouse": 436,
      "Ġal": 437,
      "Ġstarted": 438,
      "ared": 439,
      "Ġcame": 440,
      "Ġwhen": 441,
      "Ġsomet": 442,
      "Ġother": 443,
      "ought": 444,
      "iled": 445,
      "Ġbr": 446,
      "Ġgood": 447,
      "Ġag": 448,
      "Ġfl": 449,
      "Ġsmall": 450,
      "Ġwhat": 451,
      "Ġsmiled": 452,
      "Ġsay": 453,
      "ried": 454,
      "ings": 455,
      "Ġfe": 456,
      "th": 457,
      "Ġspot": 458,
      "Ġwor": 459,
      "Ġfind": 460,
      "Ġco": 461,
      "Ġaway": 462,
      "Ġput": 463,
      "ia": 464,
      "Ġsomething": 465,
      "Ġex": 466,
      "ty": 467,
      "Ġmade": 468,
      "Ġthought": 469,
      "ened": 470,
      "ice": 471,
      "Ġhome": 472,
      "Ġplaying": 473,
      "ue": 474,
      "Ġwal": 475,
      "Ġmu": 476,
      "ook": 477,
      "ss": 478,
      "arn": 479,
      "Ġsome": 480,
      "Ġran": 481,
      "ile": 482,
      "ie": 483,
      "Ġbl": 484,
      "Ġagain": 485,
      "cy": 486,
      "Ġlaug": 487,
      "dd": 488,
      "ach": 489,
      "ble": 490,
      "Ġhouse": 491,
      "Ġwill": 492,
      "Ġmy": 493,
      "Ġdown": 494,
      "king": 495,
      "Ġpr": 496,
      "Ġch": 497,
      "Ġtook": 498,
      "Ġscared": 499,
      "ny": 500,
      "Ġtoys": 501,
      "Ġlearn": 502,
      "Ġyour": 503,
      "Ġbu": 504,
      "Ġbox": 505,
      "ret": 506,
      "ick": 507,
      "ep": 508,
      "Ġaround": 509,
      "Ġthings": 510,
      "Ġsun": 511,
      "ave": 512,
      "oud": 513,
      "ish": 514,
      "Ġlived": 515,
      "ge": 516,
      "Ġsw": 517,
      ",\"": 518,
      "pped": 519,
      "tim": 520,
      "Ġmia": 521,
      "ank": 522,
      "yes": 523,
      "Ġget": 524,
      "Ġdad": 525,
      "to": 526,
      "ucy": 527,
      "ump": 528,
      "Ġlot": 529,
      "Ġthis": 530,
      "Ġmany": 531,
      "uck": 532,
      "oth": 533,
      "Ġlet": 534,
      "Ġtried": 535,
      "Ġwho": 536,
      "na": 537,
      "ure": 538,
      "Ġknow": 539,
      "Ġsays": 540,
      "ist": 541,
      "Ġab": 542,
      "Ġgot": 543,
      "ited": 544,
      "Ġkne": 545,
      "ust": 546,
      "nder": 547,
      "Ġabout": 548,
      "lily": 549,
      "ell": 550,
      "Ġred": 551,
      "Ġpret": 552,
      "Ġpo": 553,
      "are": 554,
      "Ġany": 555,
      "Ġdec": 556,
      "fe": 557,
      "ive": 558,
      "Ġpu": 559,
      "Ġknew": 560,
      "ace": 561,
      "Ġv": 562,
      "Ġmore": 563,
      "ous": 564,
      "ise": 565,
      "qu": 566,
      "Ġcare": 567,
      "au": 568,
      "Ġpic": 569,
      "Ġhug": 570,
      "Ġwater": 571,
      "Ġlucy": 572,
      "Ġlearned": 573,
      "fter": 574,
      "Ġlook": 575,
      "Ġbecame": 576,
      "Ġbest": 577,
      "Ġjo": 578,
      "Ġgre": 579,
      "Ġop": 580,
      "Ġinside": 581,
      "Ġpe": 582,
      "Ġho": 583,
      "Ġexc": 584,
      "ause": 585,
      "ways": 586,
      "Ġun": 587,
      "âĢ": 588,
      "Ġoutside": 589,
      "Ġlaughed": 590,
      "Ġalways": 591,
      "Ġshow": 592,
      "ma": 593,
      "Ġdecid": 594,
      "Ġbecause": 595,
      "Ġbob": 596,
      "Ġroom": 597,
      "Ġdecided": 598,
      "Ġeat": 599,
      "Ġinto": 600,
      "ite": 601,
      "ant": 602,
      "Ġboth": 603,
      "Ġjump": 604,
      "ers": 605,
      "Ġke": 606,
      "Ġmo": 607,
      "tom": 608,
      "they": 609,
      "Ġgra": 610,
      "pr": 611,
      "Ġsur": 612,
      "ap": 613,
      "Ġexcited": 614,
      "Ġnice": 615,
      "Ġfast": 616,
      "Ġfeel": 617,
      "Ġrun": 618,
      "Ġlong": 619,
      "our": 620,
      "Ġsk": 621,
      "Ġtold": 622,
      "Ġtr": 623,
      "Ġhow": 624,
      "Ġsurpr": 625,
      "lly": 626,
      "Ġpretty": 627,
      "ink": 628,
      "iny": 629,
      "Ġsor": 630,
      "wh": 631,
      "Ġtake": 632,
      "bb": 633,
      "ged": 634,
      "Ġsl": 635,
      "Ġeach": 636,
      "Ġrock": 637,
      "Ġnow": 638,
      "once": 639,
      "Ġgave": 640,
      "Ġmuch": 641,
      "lew": 642,
      "Ġstr": 643,
      "Ġor": 644,
      "imal": 645,
      "Ġanimal": 646,
      "Ġneed": 647,
      "but": 648,
      "Ġunder": 649,
      "Ġthan": 650,
      "ven": 651,
      "Ġtow": 652,
      "ro": 653,
      "ched": 654,
      "Ġbear": 655,
      "Ġjust": 656,
      "sed": 657,
      "ack": 658,
      "Ġsorry": 659,
      "Ġold": 660,
      "ised": 661,
      "ff": 662,
      "Ġafter": 663,
      "here": 664,
      "Ġfish": 665,
      "urt": 666,
      "Ġcle": 667,
      "Ġwalked": 668,
      "Ġbet": 669,
      "Ġclo": 670,
      "ess": 671,
      "Ġhand": 672,
      "urn": 673,
      "Ġkind": 674,
      "Ġtw": 675,
      "Ġfi": 676,
      "Ġif": 677,
      "Ġlist": 678,
      "Ġhappened": 679,
      "Ġflow": 680,
      "Ġte": 681,
      "Ġfood": 682,
      "Ġsky": 683,
      "Ġwat": 684,
      "so": 685,
      "Ġdidn": 686,
      "Ġanimals": 687,
      "Ġhig": 688,
      "Ġnear": 689,
      "Ġtry": 690,
      "Ġide": 691,
      "pl": 692,
      "Ġra": 693,
      "ine": 694,
      "ving": 695,
      "ate": 696,
      "Ġbug": 697,
      "Ġits": 698,
      "by": 699,
      "Ġidea": 700,
      "Ġbetter": 701,
      "Ġamy": 702,
      "let": 703,
      "Ġfo": 704,
      "Ġdon": 705,
      "Ġheard": 706,
      "gry": 707,
      "thank": 708,
      "Ġam": 709,
      "pec": 710,
      "ase": 711,
      "Ġen": 712,
      "Ġdan": 713,
      "Ġshare": 714,
      "Ġcareful": 715,
      "Ġeveryone": 716,
      "Ġfly": 717,
      "mom": 718,
      "Ġstor": 719,
      "ial": 720,
      "Ġflew": 721,
      "Ġeven": 722,
      "Ġcome": 723,
      "more": 724,
      "Ġblue": 725,
      "Ġanymore": 726,
      "Ġby": 727,
      "ally": 728,
      "og": 729,
      "Ġfin": 730,
      "Ġspec": 731,
      "Ġspecial": 732,
      "Ġcu": 733,
      "Ġcom": 734,
      "Ġlots": 735,
      "Ġnever": 736,
      "ion": 737,
      "lf": 738,
      "ream": 739,
      "Ġend": 740,
      "Ġgr": 741,
      "Ġwind": 742,
      "Ġlove": 743,
      "Ġtal": 744,
      "Ġclean": 745,
      "ĠĊ": 746,
      "Ġmag": 747,
      "ort": 748,
      "rm": 749,
      "Ġsafe": 750,
      "ople": 751,
      "be": 752,
      "sh": 753,
      "Ġpeople": 754,
      "Ġhard": 755,
      "Ġshiny": 756,
      "Ġover": 757,
      "Ġfore": 758,
      "dden": 759,
      "Ġcake": 760,
      "Ġbook": 761,
      "Ġcol": 762,
      "ber": 763,
      "Ġturn": 764,
      "Ġbad": 765,
      "Ġfam": 766,
      "Ġgive": 767,
      "Ġanna": 768,
      "ady": 769,
      "ddenly": 770,
      "Ġproud": 771,
      "Ġsurprised": 772,
      "if": 773,
      "pected": 774,
      "Ġhigh": 775,
      "Ġhurt": 776,
      "Ġche": 777,
      "imb": 778,
      "Ġgard": 779,
      "Ġdoor": 780,
      "Ġgarden": 781,
      "you": 782,
      "Ġbea": 783,
      "Ġground": 784,
      "Ġopened": 785,
      "Ġpicked": 786,
      "Ġclimb": 787,
      "Ġloud": 788,
      "Ġgl": 789,
      "ok": 790,
      "expected": 791,
      "Ġunexpected": 792,
      "ild": 793,
      "Ġway": 794,
      "Ġfar": 795,
      "'m": 796,
      "Ġstill": 797,
      "Ġthanked": 798,
      "Ġcolor": 799,
      "Ġever": 800,
      "Ġhugged": 801,
      "Ġcall": 802,
      "ct": 803,
      "ip": 804,
      "mp": 805,
      "Ġsara": 806,
      "Ġoff": 807,
      "Ġmagic": 808,
      "ough": 809,
      "ummy": 810,
      "Ġsoon": 811,
      "Ġjumped": 812,
      "no": 813,
      "Ġshould": 814,
      "Ġkid": 815,
      "Ġpar": 816,
      "Ġfamily": 817,
      "ool": 818,
      "Ġkitt": 819,
      "Ġsmile": 820,
      "jo": 821,
      "Ġqu": 822,
      "hes": 823,
      "Ġmommy": 824,
      "Ġplace": 825,
      "iz": 826,
      "Ġfrog": 827,
      "Ġwalk": 828,
      "Ġgreat": 829,
      "Ġstay": 830,
      "Ġwhile": 831,
      "Ġtra": 832,
      "Ġunt": 833,
      "Ġstrong": 834,
      "Ġnext": 835,
      "Ġsto": 836,
      "Ġbra": 837,
      "Ġforest": 838,
      "em": 839,
      "ane": 840,
      "ger": 841,
      "Ġsqu": 842,
      "Ġpa": 843,
      "Ġuntil": 844,
      "bo": 845,
      "dy": 846,
      "Ġbeaut": 847,
      "Ġstick": 848,
      "uff": 849,
      "Ġboat": 850,
      "lease": 851,
      "ning": 852,
      "Ġlisten": 853,
      "Ġkids": 854,
      "ture": 855,
      "Ġhappily": 856,
      "can": 857,
      "ies": 858,
      "iful": 859,
      "Ġapp": 860,
      "Ġbeautiful": 861,
      "pt": 862,
      "Ġhelped": 863,
      "Ġdra": 864,
      "Ġshowed": 865,
      "Ġstory": 866,
      "Ġrain": 867,
      "ak": 868,
      "rel": 869,
      "Ġtown": 870,
      "Ġz": 871,
      "Ġbeing": 872,
      "Ġrem": 873,
      "ress": 874,
      "Ġpicture": 875,
      "Ġwo": 876,
      "Ġmor": 877,
      "ary": 878,
      "Ġhat": 879,
      "Ġad": 880,
      "Ġcalled": 881,
      "ree": 882,
      "age": 883,
      "Ġmet": 884,
      "Ġbun": 885,
      "Ġstopped": 886,
      "Ġde": 887,
      "Ġgame": 888,
      "Ġkeep": 889,
      "Ġsoft": 890,
      "Ġangry": 891,
      "Ġimp": 892,
      "Ġtruck": 893,
      "Ġopen": 894,
      "uffy": 895,
      "Ġkitty": 896,
      "when": 897,
      "Ġyummy": 898,
      "Ġcry": 899,
      "and": 900,
      "Ġbunny": 901,
      "Ġlost": 902,
      "Ġbed": 903,
      "Ġmouse": 904,
      "Ġsally": 905,
      "Ġwarm": 906,
      "Ġwatch": 907,
      "vent": 908,
      "Ġbrave": 909,
      "Ġwhere": 910,
      "we": 911,
      "Ġsn": 912,
      "Ġleave": 913,
      "Ġate": 914,
      "ished": 915,
      "Ġhole": 916,
      "fore": 917,
      "Ġdoll": 918,
      "Ġgreen": 919,
      "cks": 920,
      "owl": 921,
      "Ġcouldn": 922,
      "Ġtwo": 923,
      "Ġalso": 924,
      "dded": 925,
      "Ġfell": 926,
      "llo": 927,
      "Ġface": 928,
      "bbit": 929,
      "what": 930,
      "gan": 931,
      "Ġflowers": 932,
      "Ġfluffy": 933,
      "Ġnoise": 934,
      "irst": 935,
      "Ġbefore": 936,
      "Ġrabbit": 937,
      "self": 938,
      "Ġslide": 939,
      "Ġsquir": 940,
      "look": 941,
      "Ġsat": 942,
      "Ġok": 943,
      "Ġsquirrel": 944,
      "hi": 945,
      "ired": 946,
      "Ġduck": 947,
      "Ġhear": 948,
      "Ġuse": 949,
      "âĢĿ": 950,
      "that": 951,
      "Ġkept": 952,
      "âĢľ": 953,
      "les": 954,
      "then": 955,
      "Ġnodded": 956,
      "Ġcook": 957,
      "Ġtou": 958,
      "Ġbirds": 959,
      "Ġexpl": 960,
      "Ġstore": 961,
      "Ġhands": 962,
      "Ġpain": 963,
      "Ġsunny": 964,
      "day": 965,
      "Ġgoing": 966,
      "Ġfunny": 967,
      "Ġhaving": 968,
      "Ġcra": 969,
      "Ġsing": 970,
      "illy": 971,
      "oon": 972,
      "aybe": 973,
      "Ġcatch": 974,
      "Ġjack": 975,
      "ught": 976,
      "Ġyell": 977,
      "Ġthink": 978,
      "able": 979,
      "leep": 980,
      "Ġfix": 981,
      "ben": 982,
      "Ġbre": 983,
      "Ġus": 984,
      "ull": 985,
      "lled": 986,
      "Ġblo": 987,
      "Ġour": 988,
      "Ġtired": 989,
      "Ġlooking": 990,
      "Ġused": 991,
      "ange": 992,
      "Ġdr": 993,
      "Ġwork": 994,
      "Ġwr": 995,
      "Ġkit": 996,
      "ting": 997,
      "Ġwait": 998,
      "Ġsuddenly": 999,
      "Ġthr": 1000,
      "Ġbeh": 1001,
      "air": 1002,
      "thing": 1003,
      "Ġplease": 1004,
      "Ġru": 1005,
      "Ġsound": 1006,
      "Ġmean": 1007,
      "Ġhas": 1008,
      "Ġremem": 1009,
      "Ġpond": 1010,
      "Ġflo": 1011,
      "Ġfirst": 1012,
      "Ġask": 1013,
      "led": 1014,
      "Ġothers": 1015,
      "Ġsna": 1016,
      "hello": 1017,
      "ser": 1018,
      "Ġtalk": 1019,
      "chen": 1020,
      "Ġkitchen": 1021,
      "Ġsand": 1022,
      "ng": 1023,
      "Ġtri": 1024,
      "Ġremember": 1025,
      "rew": 1026,
      "Ġpie": 1027,
      "Ġhead": 1028,
      "Ġreal": 1029,
      "Ġeyes": 1030,
      "Ġimport": 1031,
      "Ġhere": 1032,
      "Ġfav": 1033,
      "joy": 1034,
      "Ġhop": 1035,
      "Ġright": 1036,
      "Ġcon": 1037,
      "Ġflower": 1038,
      "Ġparty": 1039,
      "Ġswe": 1040,
      "Ġvo": 1041,
      "Ġcold": 1042,
      "Ġmess": 1043,
      "ft": 1044,
      "ious": 1045,
      "ath": 1046,
      "ĠâĢľ": 1047,
      "Ġrace": 1048,
      "Ġcuri": 1049,
      "Ġthank": 1050,
      "orn": 1051,
      "Ġimportant": 1052,
      "Ġenjoy": 1053,
      "Ġmoral": 1054,
      "Ġri": 1055,
      "Ġshared": 1056,
      "Ġokay": 1057,
      "Ġice": 1058,
      "zy": 1059,
      "ount": 1060,
      "llow": 1061,
      "Ġadvent": 1062,
      "Ġworked": 1063,
      "Ġcurious": 1064,
      "Ġbright": 1065,
      "Ġmaking": 1066,
      "Ġdress": 1067,
      "su": 1068,
      "Ġown": 1069,
      "ster": 1070,
      "Ġmon": 1071,
      "Ġtall": 1072,
      "Ġsleep": 1073,
      "Ġdir": 1074,
      "reed": 1075,
      "Ġhid": 1076,
      "hn": 1077,
      "Ġfavor": 1078,
      "uit": 1079,
      "Ġfollow": 1080,
      "Ġdis": 1081,
      "wow": 1082,
      "Ġfavorite": 1083,
      "ear": 1084,
      "Ġthing": 1085,
      "Ġbegan": 1086,
      "Ġbag": 1087,
      "don": 1088,
      "co": 1089,
      "Ġpap": 1090,
      "Ġhill": 1091,
      "Ġdraw": 1092,
      "Ġrest": 1093,
      "Ġtell": 1094,
      "where": 1095,
      "Ġyard": 1096,
      "que": 1097,
      "Ġsho": 1098,
      "Ġstop": 1099,
      "Ġgrand": 1100,
      "Ġbel": 1101,
      "Ġmove": 1102,
      "Ġwatched": 1103,
      "Ġcut": 1104,
      "Ġbehind": 1105,
      "ect": 1106,
      "Ġnight": 1107,
      "sp": 1108,
      "Ġpick": 1109,
      "Ġagreed": 1110,
      "Ġhun": 1111,
      "ced": 1112,
      "ara": 1113,
      "cked": 1114,
      "Ġsurprise": 1115,
      "Ġlion": 1116,
      "ied": 1117,
      "Ġhot": 1118,
      "after": 1119,
      "Ġworry": 1120,
      "Ġtable": 1121,
      "Ġfarm": 1122,
      "Ġgrass": 1123,
      "Ġtrees": 1124,
      "Ġdark": 1125,
      "Ġvoice": 1126,
      "Ġwalking": 1127,
      "Ġtop": 1128,
      "fere": 1129,
      "Ġfloor": 1130,
      "iffere": 1131,
      "Ġdiffere": 1132,
      "Ġbutter": 1133,
      "Ġsweet": 1134,
      "Ġsong": 1135,
      "Ġtail": 1136,
      "bye": 1137,
      "Ġread": 1138,
      "max": 1139,
      "Ġlady": 1140,
      "Ġshout": 1141,
      "Ġcolors": 1142,
      "Ġmis": 1143,
      "Ġforg": 1144,
      "isy": 1145,
      "Ġleaves": 1146,
      "Ġcloser": 1147,
      "Ġwhy": 1148,
      "fu": 1149,
      "Ġcars": 1150,
      "shed": 1151,
      "imes": 1152,
      "why": 1153,
      "Ġturned": 1154,
      "Ġneeded": 1155,
      "Ġwood": 1156,
      "Ġtast": 1157,
      "aring": 1158,
      "Ġcried": 1159,
      "Ġdifferent": 1160,
      "Ġprin": 1161,
      "Ġfire": 1162,
      "Ġdel": 1163,
      "Ġda": 1164,
      "Ġlaugh": 1165,
      "Ġpiece": 1166,
      "Ġtiny": 1167,
      "Ġcr": 1168,
      "âĢĻ": 1169,
      "Ġdoes": 1170,
      "Ġhair": 1171,
      "oke": 1172,
      "Ġmr": 1173,
      "Ġadventure": 1174,
      "ered": 1175,
      "anna": 1176,
      "she": 1177,
      "Ġhungry": 1178,
      "sue": 1179,
      "Ġyellow": 1180,
      "Ġfeeling": 1181,
      "Ġpaper": 1182,
      "Ġtouch": 1183,
      "Ġfull": 1184,
      "ake": 1185,
      "sam": 1186,
      "Ġwet": 1187,
      "Ġper": 1188,
      "Ġfriendly": 1189,
      "Ġsometimes": 1190,
      "ike": 1191,
      "Ġswing": 1192,
      "ached": 1193,
      "Ġfruit": 1194,
      "oken": 1195,
      "Ġready": 1196,
      "pe": 1197,
      "ient": 1198,
      "Ġbroken": 1199,
      "Ġanother": 1200,
      "la": 1201,
      "Ġlight": 1202,
      "Ġprom": 1203,
      "Ġpretend": 1204,
      "Ġdance": 1205,
      "Ġsnow": 1206,
      "Ġonly": 1207,
      "Ġclimbed": 1208,
      "Ġlistened": 1209,
      "Ġbobo": 1210,
      "Ġcla": 1211,
      "Ġrunning": 1212,
      "Ġplan": 1213,
      "Ġswim": 1214,
      "Ġgone": 1215,
      "bbed": 1216,
      "Ġslow": 1217,
      "Ġtrain": 1218,
      "suddenly": 1219,
      "ppy": 1220,
      "ater": 1221,
      "Ġclose": 1222,
      "sara": 1223,
      "Ġjane": 1224,
      "Ġhold": 1225,
      "Ġsmell": 1226,
      "Ġama": 1227,
      "Ġmar": 1228,
      "Ġwonder": 1229,
      "Ġbus": 1230,
      "Ġamaz": 1231,
      "Ġblocks": 1232,
      "Ġtimmy": 1233,
      "Ġrepl": 1234,
      "Ġant": 1235,
      "Ġbutterf": 1236,
      "Ġsees": 1237,
      "Ġreached": 1238,
      "Ġwall": 1239,
      "Ġhelping": 1240,
      "Ġgoodbye": 1241,
      "Ġdri": 1242,
      "oney": 1243,
      "Ġcream": 1244,
      "Ġbaby": 1245,
      "Ġfight": 1246,
      "cket": 1247,
      "come": 1248,
      "Ġste": 1249,
      "av": 1250,
      "Ġcool": 1251,
      "Ġglad": 1252,
      "Ġac": 1253,
      "Ġless": 1254,
      "Ġbeen": 1255,
      "Ġfair": 1256,
      "Ġem": 1257,
      "af": 1258,
      "ather": 1259,
      "mia": 1260,
      "Ġpushed": 1261,
      "iced": 1262,
      "Ġdin": 1263,
      "Ġmust": 1264,
      "Ġhide": 1265,
      "Ġar": 1266,
      "Ġmoment": 1267,
      "Ġwindow": 1268,
      "Ġsit": 1269,
      "Ġballoon": 1270,
      "Ġchild": 1271,
      "Ġquick": 1272,
      "Ġexplore": 1273,
      "Ġmaybe": 1274,
      "Ġwished": 1275,
      "Ġgrandma": 1276,
      "Ġwag": 1277,
      "Ġdone": 1278,
      "Ġperf": 1279,
      "Ġbuy": 1280,
      "Ġstuck": 1281,
      "Ġmight": 1282,
      "Ġsig": 1283,
      "Ġbar": 1284,
      "Ġname": 1285,
      "ass": 1286,
      "Ġtrying": 1287,
      "ized": 1288,
      "Ġbit": 1289,
      "Ġapple": 1290,
      "Ġcoming": 1291,
      "Ġfall": 1292,
      "Ġowl": 1293,
      "Ġpink": 1294,
      "Ġwin": 1295,
      "Ġscary": 1296,
      "Ġdoing": 1297,
      "Ġlooks": 1298,
      "Ġbuild": 1299,
      "Ġdream": 1300,
      "Ġunderst": 1301,
      "Ġdirty": 1302,
      "Ġspl": 1303,
      "Ġheld": 1304,
      "oom": 1305,
      "Ġmat": 1306,
      "ddy": 1307,
      "ames": 1308,
      "ash": 1309,
      "Ġwise": 1310,
      "Ġbutterfly": 1311,
      "Ġcount": 1312,
      "Ġleft": 1313,
      "Ġsure": 1314,
      "Ġshouted": 1315,
      "Ġreplied": 1316,
      "Ġthrough": 1317,
      "Ġreach": 1318,
      "avy": 1319,
      "Ġland": 1320,
      "Ġair": 1321,
      "Ġdro": 1322,
      "Ġbran": 1323,
      "Ġeverywhere": 1324,
      "Ġthree": 1325,
      "Ġpat": 1326,
      "Ġfinally": 1327,
      "Ġgrow": 1328,
      "Ġtreat": 1329,
      "Ġlun": 1330,
      "Ġbrother": 1331,
      "Ġpulled": 1332,
      "key": 1333,
      "Ġwoods": 1334,
      "Ġchair": 1335,
      "'re": 1336,
      "sk": 1337,
      "Ġbell": 1338,
      "Ġplant": 1339,
      "Ġcloud": 1340,
      "Ġseen": 1341,
      "Ġclapped": 1342,
      "Ġcup": 1343,
      "ix": 1344,
      "oh": 1345,
      "ield": 1346,
      "ins": 1347,
      "Ġfill": 1348,
      "Ġswam": 1349,
      "ag": 1350,
      "Ġjob": 1351,
      "fr": 1352,
      "Ġcolorful": 1353,
      "outh": 1354,
      "Ġremembered": 1355,
      "Ġmouth": 1356,
      "Ġbigger": 1357,
      "Ġnest": 1358,
      "Ġpen": 1359,
      "okay": 1360,
      "Ġpet": 1361,
      "Ġjoin": 1362,
      "Ġlesson": 1363,
      "Ġcre": 1364,
      "zz": 1365,
      "oup": 1366,
      "room": 1367,
      "Ġwaved": 1368,
      "this": 1369,
      "Ġgrabbed": 1370,
      "Ġstayed": 1371,
      "Ġpaint": 1372,
      "Ġcont": 1373,
      "Ġclot": 1374,
      "cle": 1375,
      "Ġclothes": 1376,
      "Ġquickly": 1377,
      "ower": 1378,
      "art": 1379,
      "Ġword": 1380,
      "Ġwaited": 1381,
      "Ġcand": 1382,
      "Ġtea": 1383,
      "Ġbroke": 1384,
      "Ġgames": 1385,
      "Ġcast": 1386,
      "Ġblew": 1387,
      "Ġgent": 1388,
      "Ġpur": 1389,
      "Ġset": 1390,
      "Ġenjoyed": 1391,
      "Ġnoticed": 1392,
      "ries": 1393,
      "ation": 1394,
      "Ġdaisy": 1395,
      "Ġmum": 1396,
      "Ġbooks": 1397,
      "Ġlikes": 1398,
      "Ġmus": 1399,
      "Ġpictures": 1400,
      "Ġsea": 1401,
      "Ġmix": 1402,
      "Ġheavy": 1403,
      "Ġanything": 1404,
      "Ġalone": 1405,
      "Ġgif": 1406,
      "asure": 1407,
      "Ġworld": 1408,
      "Ġhopped": 1409,
      "Ġmark": 1410,
      "Ġturns": 1411,
      "Ġyear": 1412,
      "Ġbee": 1413,
      "Ġpot": 1414,
      "do": 1415,
      "Ġtoday": 1416,
      "der": 1417,
      "orm": 1418,
      "Ġbot": 1419,
      "ze": 1420,
      "Ġje": 1421,
      "Ġju": 1422,
      "us": 1423,
      "Ġarm": 1424,
      "Ġbike": 1425,
      "Ġtight": 1426,
      "set": 1427,
      "Ġforgot": 1428,
      "Ġbrown": 1429,
      "Ġwon": 1430,
      "lucy": 1431,
      "Ġtower": 1432,
      "Ġbuddy": 1433,
      "ons": 1434,
      "man": 1435,
      "Ġthrew": 1436,
      "Ġhimself": 1437,
      "Ġfollowed": 1438,
      "Ġride": 1439,
      "amp": 1440,
      "Ġfox": 1441,
      "Ġcomp": 1442,
      "less": 1443,
      "Ġwhite": 1444,
      "Ġve": 1445,
      "Ġkey": 1446,
      "ctor": 1447,
      "\".": 1448,
      "ph": 1449,
      "row": 1450,
      "Ġwrong": 1451,
      "Ġmakes": 1452,
      "Ġblack": 1453,
      "ner": 1454,
      "Ġbreak": 1455,
      "Ġprince": 1456,
      "arent": 1457,
      "Ġmusic": 1458,
      "spot": 1459,
      "Ġdeep": 1460,
      "thy": 1461,
      "Ġpol": 1462,
      "Ġna": 1463,
      "Ġdelic": 1464,
      "ued": 1465,
      "ves": 1466,
      "eddy": 1467,
      "Ġcastle": 1468,
      "Ġparent": 1469,
      "Ġsharing": 1470,
      "Ġwear": 1471,
      "iet": 1472,
      "Ġhit": 1473,
      "Ġwhis": 1474,
      "Ġquiet": 1475,
      "Ġround": 1476,
      "oun": 1477,
      "Ġstu": 1478,
      "bble": 1479,
      "Ġsomeone": 1480,
      "Ġmonster": 1481,
      "ance": 1482,
      "Ġleaf": 1483,
      "Ġdanced": 1484,
      "Ġvis": 1485,
      "Ġnap": 1486,
      "Ġwants": 1487,
      "Ġjohn": 1488,
      "ang": 1489,
      "Ġunderstand": 1490,
      "Ġbowl": 1491,
      "Ġbor": 1492,
      "rot": 1493,
      "Ġking": 1494,
      "Ġeverything": 1495,
      "Ġcookies": 1496,
      "Ġtalked": 1497,
      "Ġdry": 1498,
      "Ġdaddy": 1499,
      "Ġfaster": 1500,
      "icy": 1501,
      "ren": 1502,
      "Ġdi": 1503,
      "ches": 1504,
      "Ġbrought": 1505,
      "Ġleg": 1506,
      "fully": 1507,
      "Ġboun": 1508,
      "Ġel": 1509,
      "ross": 1510,
      "Ġwell": 1511,
      "Ġsign": 1512,
      "tle": 1513,
      "Ġside": 1514,
      "from": 1515,
      "Ġsmart": 1516,
      "Ġrocks": 1517,
      "ister": 1518,
      "gg": 1519,
      "Ġele": 1520,
      "Ġpoin": 1521,
      "his": 1522,
      "Ġbutt": 1523,
      "Ġsec": 1524,
      "Ġshap": 1525,
      "Ġque": 1526,
      "Ġhappen": 1527,
      "Ġbranch": 1528,
      "Ġlila": 1529,
      "Ġreally": 1530,
      "Ġfinished": 1531,
      "Ġdinner": 1532,
      "ence": 1533,
      "Ġsister": 1534,
      "ards": 1535,
      "ts": 1536,
      "Ġinst": 1537,
      "Ġflying": 1538,
      "Ġint": 1539,
      "Ġworried": 1540,
      "Ġspr": 1541,
      "Ġcontin": 1542,
      "Ġwel": 1543,
      "sc": 1544,
      "Ġvisit": 1545,
      "Ġgu": 1546,
      "Ġbeach": 1547,
      "Ġsecret": 1548,
      "Ġpro": 1549,
      "ple": 1550,
      "Ġsarah": 1551,
      "john": 1552,
      "while": 1553,
      "Ġear": 1554,
      "Ġperfect": 1555,
      "Ġsilly": 1556,
      "Ġdanger": 1557,
      "Ġriver": 1558,
      "Ġjoe": 1559,
      "Ġshin": 1560,
      "Ġfur": 1561,
      "Ġpig": 1562,
      "Ġchildren": 1563,
      "ipp": 1564,
      "Ġfield": 1565,
      "Ġfilled": 1566,
      "Ġelse": 1567,
      "Ġsmiles": 1568,
      "Ġgi": 1569,
      "Ġteddy": 1570,
      "Ġeating": 1571,
      "Ġwish": 1572,
      "Ġpudd": 1573,
      "Ġsang": 1574,
      "Ġpull": 1575,
      "Ġfree": 1576,
      "Ġpieces": 1577,
      "Ġrealized": 1578,
      "Ġpromised": 1579,
      "Ġcow": 1580,
      "Ġcontinued": 1581,
      "ord": 1582,
      "Ġyes": 1583,
      "Ġbite": 1584,
      "iss": 1585,
      "gy": 1586,
      "Ġcarefully": 1587,
      "just": 1588,
      "Ġparents": 1589,
      "ated": 1590,
      "itting": 1591,
      "Ġzoom": 1592,
      "maybe": 1593,
      "Ġjar": 1594,
      "Ġdrag": 1595,
      "Ġorange": 1596,
      "ast": 1597,
      "amy": 1598,
      "Ġblank": 1599,
      "ead": 1600,
      "Ġmud": 1601,
      "Ġcrab": 1602,
      "Ġcrying": 1603,
      "Ġblanket": 1604,
      "Ġfairy": 1605,
      "Ġenough": 1606,
      "Ġsoup": 1607,
      "Ġrolled": 1608,
      "Ġsail": 1609,
      "Ġwithout": 1610,
      "Ġsnake": 1611,
      "Ġinstead": 1612,
      "Ġdrink": 1613,
      "ses": 1614,
      "imi": 1615,
      "Ġthrow": 1616,
      "Ġwelcome": 1617,
      "fin": 1618,
      "Ġlaughing": 1619,
      "Ġpurple": 1620,
      "Ġroll": 1621,
      "Ġwords": 1622,
      "Ġamazing": 1623,
      "Ġdoctor": 1624,
      "Ġbath": 1625,
      "Ġpast": 1626,
      "Ġmiss": 1627,
      "Ġbottle": 1628,
      "Ġbilly": 1629,
      "Ġmonkey": 1630,
      "Ġgift": 1631,
      "Ġmoney": 1632,
      "fort": 1633,
      "Ġmail": 1634,
      "ucky": 1635,
      "Ġwhe": 1636,
      "Ġbarked": 1637,
      "Ġatt": 1638,
      "Ġwagged": 1639,
      "chool": 1640,
      "Ġbow": 1641,
      "Ġpaw": 1642,
      "Ġmoved": 1643,
      "iver": 1644,
      "ises": 1645,
      "Ġasks": 1646,
      "Ġmother": 1647,
      "Ġcandy": 1648,
      "Ġgetting": 1649,
      "Ġclosed": 1650,
      "Ġschool": 1651,
      "ich": 1652,
      "Ġsitting": 1653,
      "Ġmorning": 1654,
      "Ġowner": 1655,
      "Ġlone": 1656,
      "Ġhigher": 1657,
      ".âĢĿ": 1658,
      "Ġtreasure": 1659,
      "!âĢĿ": 1660,
      "Ġdangerous": 1661,
      "os": 1662,
      "Ġlonely": 1663,
      "Ġapples": 1664,
      "Ġliving": 1665,
      "vel": 1666,
      "Ġshop": 1667,
      "Ġstrange": 1668,
      "ased": 1669,
      "Ġshining": 1670,
      "Ġroad": 1671,
      "Ġcreat": 1672,
      "Ġtommy": 1673,
      "Ġpre": 1674,
      "Ġshoes": 1675,
      "Ġstre": 1676,
      "ible": 1677,
      "Ġ-": 1678,
      "Ġtalking": 1679,
      "althy": 1680,
      "bob": 1681,
      "Ġcaught": 1682,
      "Ġegg": 1683,
      "ere": 1684,
      "please": 1685,
      "fish": 1686,
      "Ġchee": 1687,
      "Ġfan": 1688,
      "Ġlake": 1689,
      "Ġruns": 1690,
      "Ġletter": 1691,
      "Ġwings": 1692,
      "Ġmad": 1693,
      "Ġfarmer": 1694,
      "Ġwhist": 1695,
      "Ġdragon": 1696,
      "ey": 1697,
      "Ġbask": 1698,
      "Ġbasket": 1699,
      "Ġstand": 1700,
      "Ġstone": 1701,
      "mommy": 1702,
      "Ġbelie": 1703,
      "Ġthinks": 1704,
      "Ġdelicious": 1705,
      "Ġhar": 1706,
      "Ġnose": 1707,
      "Ġpuddle": 1708,
      "Ġmine": 1709,
      "Ġmimi": 1710,
      "Ġbat": 1711,
      "Ġyears": 1712,
      "Ġsame": 1713,
      "board": 1714,
      "ens": 1715,
      "ire": 1716,
      "Ġstart": 1717,
      "Ġbutton": 1718,
      "Ġsear": 1719,
      "Ġcoat": 1720,
      "Ġdays": 1721,
      "Ġfit": 1722,
      "Ġbring": 1723,
      "Ġph": 1724,
      "Ġgentle": 1725,
      "Ġhor": 1726,
      "Ġcray": 1727,
      "ade": 1728,
      "Ġpill": 1729,
      "Ġkite": 1730,
      "Ġscream": 1731,
      "Ġsinging": 1732,
      "sy": 1733,
      "sw": 1734,
      "phant": 1735,
      "Ġshell": 1736,
      "Ġvill": 1737,
      "Ġcho": 1738,
      "gly": 1739,
      "Ġmin": 1740,
      "Ġtasty": 1741,
      "Ġtrou": 1742,
      "Ġelephant": 1743,
      "ined": 1744,
      "Ġherself": 1745,
      "Ġansw": 1746,
      "Ġhoped": 1747,
      "Ġwore": 1748,
      "Ġswings": 1749,
      "bow": 1750,
      "Ġpush": 1751,
      "Ġbelong": 1752,
      "Ġrob": 1753,
      "ove": 1754,
      "kers": 1755,
      "Ġcarrot": 1756,
      "Ġbush": 1757,
      "Ġteach": 1758,
      "ball": 1759,
      "Ġarri": 1760,
      "Ġjoy": 1761,
      "ughty": 1762,
      "Ġpuppy": 1763,
      "Ġnaughty": 1764,
      "ract": 1765,
      "Ġdropped": 1766,
      "Ġcoll": 1767,
      "ama": 1768,
      "red": 1769,
      "Ġwoke": 1770,
      "ier": 1771,
      "isa": 1772,
      "Ġpile": 1773,
      "Ġhiding": 1774,
      "Ġcour": 1775,
      "pping": 1776,
      "ale": 1777,
      "cher": 1778,
      "ming": 1779,
      "'ll": 1780,
      "Ġlunch": 1781,
      "Ġspin": 1782,
      "Ġsack": 1783,
      "Ġkno": 1784,
      "Ġseem": 1785,
      "Ġtwins": 1786,
      "Ġrainbow": 1787,
      "cing": 1788,
      "Ġpers": 1789,
      "erry": 1790,
      "Ġcourse": 1791,
      "Ġjuice": 1792,
      "Ġshapes": 1793,
      "Ġcheered": 1794,
      "Ġjen": 1795,
      "Ġgrew": 1796,
      "Ġnut": 1797,
      "Ġspark": 1798,
      "Ġrope": 1799,
      "br": 1800,
      "fused": 1801,
      "Ġslowly": 1802,
      "Ġvillage": 1803,
      "Ġbirth": 1804,
      "Ġbirthday": 1805,
      "Ġspoon": 1806,
      "Ġbubble": 1807,
      "Ġrel": 1808,
      "jack": 1809,
      "Ġmil": 1810,
      "Ġres": 1811,
      "Ġshook": 1812,
      "oc": 1813,
      "Ġstreet": 1814,
      "Ġbench": 1815,
      "Ġcheese": 1816,
      "Ġfence": 1817,
      "Ġcute": 1818,
      "good": 1819,
      "Ġdes": 1820,
      "Ġwhiskers": 1821,
      "col": 1822,
      "Ġtouched": 1823,
      "Ġwar": 1824,
      "idge": 1825,
      "Ġig": 1826,
      "Ġteacher": 1827,
      "Ġseed": 1828,
      "Ġcorn": 1829,
      "Ġlucky": 1830,
      "Ġarrived": 1831,
      "Ġmost": 1832,
      "Ġcarry": 1833,
      "Ġforever": 1834,
      "Ġtrue": 1835,
      "Ġable": 1836,
      "Ġplane": 1837,
      "Ġfew": 1838,
      "mm": 1839,
      "Ġeas": 1840,
      "Ġnum": 1841,
      "Ġsounds": 1842,
      "Ġpower": 1843,
      "Ġbugs": 1844,
      "Ġinc": 1845,
      "blem": 1846,
      "Ġproblem": 1847,
      "llie": 1848,
      "Ġdolls": 1849,
      "Ġwonderful": 1850,
      "Ġpromise": 1851,
      "Ġbusy": 1852,
      "Ġwra": 1853,
      "not": 1854,
      "ato": 1855,
      "irp": 1856,
      "Ġrobot": 1857,
      "Ġfeels": 1858,
      "Ġemma": 1859,
      "Ġmilk": 1860,
      "app": 1861,
      "Ġbread": 1862,
      "Ġneck": 1863,
      "Ġpop": 1864,
      "ian": 1865,
      "Ġrec": 1866,
      "Ġspe": 1867,
      "finally": 1868,
      "Ġshy": 1869,
      "Ġturt": 1870,
      "ountain": 1871,
      "Ġheart": 1872,
      "Ġband": 1873,
      "Ġshake": 1874,
      "ipped": 1875,
      "Ġbelieve": 1876,
      "Ġpocket": 1877,
      "ost": 1878,
      "Ġpatient": 1879,
      "igh": 1880,
      "Ġhelpful": 1881,
      "irt": 1882,
      "Ġcave": 1883,
      "ouch": 1884,
      "eared": 1885,
      "Ġugly": 1886,
      "Ġob": 1887,
      "Ġstorm": 1888,
      "Ġlive": 1889,
      "Ġhoney": 1890,
      "Ġholding": 1891,
      "Ġshar": 1892,
      "Ġshr": 1893,
      "Ġtowards": 1894,
      "Ġupset": 1895,
      "Ġsharp": 1896,
      "umpy": 1897,
      "Ġgray": 1898,
      "adow": 1899,
      "Ġcir": 1900,
      "Ġcover": 1901,
      "Ġprincess": 1902,
      "Ġturtle": 1903,
      "Ġdisapp": 1904,
      "Ġstories": 1905,
      "Ġremy": 1906,
      "cce": 1907,
      "igg": 1908,
      "read": 1909,
      "Ġbella": 1910,
      "Ġlate": 1911,
      "Ġsucce": 1912,
      "Ġnoises": 1913,
      "fl": 1914,
      "Ġballs": 1915,
      "ub": 1916,
      "Ġseat": 1917,
      "Ġdriver": 1918,
      "Ġdist": 1919,
      "Ġdirt": 1920,
      "Ġchirp": 1921,
      "Ġspid": 1922,
      "now": 1923,
      "Ġsnack": 1924,
      "Ġglow": 1925,
      "Ġmeet": 1926,
      "Ġbucket": 1927,
      "sure": 1928,
      "Ġnote": 1929,
      "lla": 1930,
      "Ġyoung": 1931,
      "Ġamazed": 1932,
      "Ġlem": 1933,
      "Ġtreats": 1934,
      "Ġmagical": 1935,
      "Ġseek": 1936,
      "ator": 1937,
      "alm": 1938,
      "Ġsandw": 1939,
      "Ġmist": 1940,
      "Ġkitten": 1941,
      "fortable": 1942,
      "Ġtrip": 1943,
      "Ġtaking": 1944,
      "ourn": 1945,
      "Ġsplas": 1946,
      "Ġfold": 1947,
      "Ġjourn": 1948,
      "Ġwhistle": 1949,
      "Ġima": 1950,
      "Ġpuzz": 1951,
      "Ġmach": 1952,
      "Ġfighting": 1953,
      "Ġhorse": 1954,
      "Ġpart": 1955,
      "Ġwild": 1956,
      "unt": 1957,
      "Ġorgan": 1958,
      "ling": 1959,
      "Ġcookie": 1960,
      "Ġhugs": 1961,
      "Ġsug": 1962,
      "wel": 1963,
      "oose": 1964,
      "Ġwheel": 1965,
      "Ġcloth": 1966,
      "Ġspicy": 1967,
      "epend": 1968,
      "Ġlisa": 1969,
      "Ġrude": 1970,
      "Ġnet": 1971,
      "iling": 1972,
      "Ġstring": 1973,
      "Ġsnowman": 1974,
      "Ġdrove": 1975,
      "Ġstars": 1976,
      "Ġlater": 1977,
      "Ġhuge": 1978,
      "Ġsal": 1979,
      "Ġjim": 1980,
      "Ġcoin": 1981,
      "Ġcraw": 1982,
      "Ġsne": 1983,
      "hey": 1984,
      "Ġbone": 1985,
      "ila": 1986,
      "Ġgrumpy": 1987,
      "Ġash": 1988,
      "Ġchick": 1989,
      "Ġinv": 1990,
      "pper": 1991,
      "Ġhel": 1992,
      "Ġforget": 1993,
      "Ġmoon": 1994,
      "Ġlife": 1995,
      "Ġwide": 1996,
      "aur": 1997,
      "Ġspider": 1998,
      "Ġcard": 1999,
      "Ġcannot": 2000,
      "Ġsick": 2001,
      "Ġpath": 2002,
      "Ġann": 2003,
      "Ġfoot": 2004,
      "ors": 2005,
      "Ġhope": 2006,
      "Ġpillow": 2007,
      "lila": 2008,
      "Ġgiant": 2009,
      "Ġsongs": 2010,
      "ize": 2011,
      "Ġjoke": 2012,
      "ular": 2013,
      "Ġbark": 2014,
      "Ġfred": 2015,
      "later": 2016,
      "Ġtun": 2017,
      "oop": 2018,
      "Ġbri": 2019,
      "Ġfixed": 2020,
      "Ġlast": 2021,
      "Ġboss": 2022,
      "Ġnod": 2023,
      "Ġcomes": 2024,
      "Ġsmo": 2025,
      "Ġpeace": 2026,
      "den": 2027,
      "Ġtaste": 2028,
      "Ġring": 2029,
      "Ġmachine": 2030,
      "Ġthin": 2031,
      "Ġwave": 2032,
      "Ġser": 2033,
      "Ġdrive": 2034,
      "Ġgrab": 2035,
      "Ġfle": 2036,
      "Ġsplash": 2037,
      "Ġsel": 2038,
      "Ġworm": 2039,
      "Ġleo": 2040,
      "Ġhidden": 2041,
      "Ġwrite": 2042,
      "Ġshelf": 2043,
      "erest": 2044,
      "Ġwasn": 2045,
      "Ġconfused": 2046,
      "Ġrad": 2047,
      "Ġlanded": 2048,
      "Ġchange": 2049,
      "Ġsour": 2050,
      "Ġval": 2051,
      "Ġbeak": 2052,
      "Ġfruits": 2053,
      "Ġmyster": 2054,
      "Ġinterest": 2055,
      "Ġchased": 2056,
      "Ġsmooth": 2057,
      "ity": 2058,
      "est": 2059,
      "Ġadventures": 2060,
      "Ġoven": 2061,
      "Ġstepped": 2062,
      "up": 2063,
      "Ġtakes": 2064,
      "Ġmissed": 2065,
      "Ġsheep": 2066,
      "Ġstep": 2067,
      "Ġselfish": 2068,
      "Ġce": 2069,
      "Ġbounce": 2070,
      "kin": 2071,
      "Ġmessy": 2072,
      "Ġacross": 2073,
      "ert": 2074,
      "Ġent": 2075,
      "Ġdoggy": 2076,
      "Ġexp": 2077,
      "Ġtie": 2078,
      "Ġban": 2079,
      "io": 2080,
      "Ġsticks": 2081,
      "Ġlay": 2082,
      "Ġdrew": 2083,
      "Ġluna": 2084,
      "Ġbought": 2085,
      "pect": 2086,
      "box": 2087,
      "?âĢĿ": 2088,
      "Ġwash": 2089,
      "bled": 2090,
      "Ġrose": 2091,
      "Ġsleepy": 2092,
      "Ġpour": 2093,
      "Ġducks": 2094,
      "Ġgrate": 2095,
      "Ġfeather": 2096,
      "Ġemp": 2097,
      "Ġlegs": 2098,
      "Ġfil": 2099,
      "ery": 2100,
      "Ġav": 2101,
      "ife": 2102,
      "ugg": 2103,
      "Ġslid": 2104,
      "elly": 2105,
      "Ġempty": 2106,
      "Ġpan": 2107,
      "Ġzoo": 2108,
      "Ġdrum": 2109,
      "ird": 2110,
      "Ġphone": 2111,
      "Ġlemon": 2112,
      "amed": 2113,
      "Ġgrateful": 2114,
      "Ġfing": 2115,
      "ever": 2116,
      "Ġwolf": 2117,
      "Ġimag": 2118,
      "Ġnothing": 2119,
      "Ġsmelly": 2120,
      "Ġclever": 2121,
      "Ġsave": 2122,
      "Ġalong": 2123,
      "Ġmolly": 2124,
      "ions": 2125,
      "Ġspo": 2126,
      "Ġinteresting": 2127,
      "Ġwatching": 2128,
      "Ġjill": 2129,
      "Ġmed": 2130,
      "Ġign": 2131,
      "Ġbanan": 2132,
      "soon": 2133,
      "Ġdogs": 2134,
      "ung": 2135,
      "Ġclouds": 2136,
      "ars": 2137,
      "Ġplate": 2138,
      "Ġthough": 2139,
      "yard": 2140,
      "Ġline": 2141,
      "Ġcalm": 2142,
      "Ġfaces": 2143,
      "Ġact": 2144,
      "Ġspray": 2145,
      "Ġsque": 2146,
      "Ġbackyard": 2147,
      "Ġseemed": 2148,
      "Ġmot": 2149,
      "Ġprot": 2150,
      "Ġfancy": 2151,
      "Ġjelly": 2152,
      "Ġwhole": 2153,
      "Ġzip": 2154,
      "Ġtid": 2155,
      "Ġsupp": 2156,
      "Ġquest": 2157,
      "Ġchew": 2158,
      "pa": 2159,
      "Ġpuzzle": 2160,
      "Ġarms": 2161,
      "Ġhealthy": 2162,
      "Ġrocket": 2163,
      "ward": 2164,
      "Ġfinish": 2165,
      "Ġtrouble": 2166,
      "dge": 2167,
      "Ġexplain": 2168,
      "Ġeasy": 2169,
      "Ġjewel": 2170,
      "Ġpract": 2171,
      "Ġworking": 2172,
      "Ġpin": 2173,
      "Ġmind": 2174,
      "Ġfake": 2175,
      "Ġlar": 2176,
      "Ġchirpy": 2177,
      "Ġscar": 2178,
      "Ġcrayons": 2179,
      "Ġship": 2180,
      "bar": 2181,
      "Ġwondered": 2182,
      "ont": 2183,
      "Ġqueen": 2184,
      "onest": 2185,
      "iger": 2186,
      "Ġanyone": 2187,
      "Ġpool": 2188,
      "Ġlonger": 2189,
      "Ġyog": 2190,
      "ope": 2191,
      "Ġjerry": 2192,
      "izz": 2193,
      "Ġfront": 2194,
      "Ġbossy": 2195,
      "Ġgives": 2196,
      "Ġpack": 2197,
      "ually": 2198,
      "Ġsuch": 2199,
      "irr": 2200,
      "ment": 2201,
      "Ġhonest": 2202,
      "Ġtidy": 2203,
      "eth": 2204,
      "Ġneigh": 2205,
      "Ġsmelled": 2206,
      "Ġsaved": 2207,
      "Ġstret": 2208,
      "ned": 2209,
      "Ġvan": 2210,
      "rass": 2211,
      "barrass": 2212,
      "Ġembarrass": 2213,
      "Ġlift": 2214,
      "Ġforgive": 2215,
      "iting": 2216,
      "Ġkick": 2217,
      "Ġcozy": 2218,
      "Ġweak": 2219,
      "Ġputs": 2220,
      "unk": 2221,
      "Ġshirt": 2222,
      "Ġbubbles": 2223,
      "Ġbru": 2224,
      "Ġplants": 2225,
      "Ġneighb": 2226,
      "Ġollie": 2227,
      "Ġsol": 2228,
      "Ġgently": 2229,
      "Ġmomo": 2230,
      "Ġthese": 2231,
      "Ġrich": 2232,
      "Ġpas": 2233,
      "Ġexplor": 2234,
      "orrow": 2235,
      "Ġaf": 2236,
      "Ġmistake": 2237,
      "Ġjumping": 2238,
      "Ġcross": 2239,
      "Ġlad": 2240,
      "Ġpointed": 2241,
      "Ġlock": 2242,
      "Ġstood": 2243,
      "Ġwaiting": 2244,
      "Ġonto": 2245,
      "scap": 2246,
      "Ġcheer": 2247,
      "Ġtomorrow": 2248,
      "Ġmary": 2249,
      "Ġwing": 2250,
      "turn": 2251,
      "ones": 2252,
      "Ġmama": 2253,
      "Ġdeer": 2254,
      "Ġbal": 2255,
      "Ġlovely": 2256,
      "Ġlarge": 2257,
      "ult": 2258,
      "Ġevent": 2259,
      "itch": 2260,
      "Ġcouch": 2261,
      "ughter": 2262,
      "ek": 2263,
      "Ġdish": 2264,
      "Ġmatch": 2265,
      "eter": 2266,
      "ork": 2267,
      "Ġplaces": 2268,
      "Ġants": 2269,
      "Ġladder": 2270,
      "oph": 2271,
      "Ġreturn": 2272,
      "era": 2273,
      "raid": 2274,
      "Ġtrust": 2275,
      "Ġafraid": 2276,
      "Ġcleaned": 2277,
      "Ġbuilding": 2278,
      "izzy": 2279,
      "Ġsandwich": 2280,
      "Ġperson": 2281,
      "Ġwip": 2282,
      "Ġpizz": 2283,
      "sally": 2284,
      "Ġlaw": 2285,
      "Ġhum": 2286,
      "Ġpretended": 2287,
      "bby": 2288,
      "lo": 2289,
      "itty": 2290,
      "gest": 2291,
      "Ġboring": 2292,
      "Ġgather": 2293,
      "Ġsearch": 2294,
      "mmer": 2295,
      "Ġwom": 2296,
      "Ġfurry": 2297,
      "Ġdaughter": 2298,
      "Ġwoman": 2299,
      "Ġteeth": 2300,
      "kitty": 2301,
      "Ġjog": 2302,
      "Ġscarf": 2303,
      "Ġgen": 2304,
      "Ġpri": 2305,
      "Ġnumber": 2306,
      "Ġswimming": 2307,
      "Ġstra": 2308,
      "Ġgoes": 2309,
      "uce": 2310,
      "Ġsplashed": 2311,
      "Ġlazy": 2312,
      "Ġpizza": 2313,
      "Ġloves": 2314,
      "Ġscreamed": 2315,
      "ffic": 2316,
      "Ġanswer": 2317,
      "Ġashamed": 2318,
      "hin": 2319,
      "Ġclown": 2320,
      "Ġfear": 2321,
      "Ġnearby": 2322,
      "Ġhello": 2323,
      "Ġappeared": 2324,
      "Ġpowerful": 2325,
      "Ġhang": 2326,
      "Ġflag": 2327,
      "Ġja": 2328,
      "vous": 2329,
      "Ġwand": 2330,
      "Ġchase": 2331,
      "Ġdizzy": 2332,
      "Ġchocol": 2333,
      "Ġmotor": 2334,
      "Ġsuccess": 2335,
      "Ġtv": 2336,
      "Ġpolite": 2337,
      "Ġwearing": 2338,
      "Ġcreative": 2339,
      "Ġnoisy": 2340,
      "com": 2341,
      "Ġdig": 2342,
      "Ġmatter": 2343,
      "Ġcircle": 2344,
      "Ġner": 2345,
      "Ġtool": 2346,
      "Ġshadow": 2347,
      "Ġnervous": 2348,
      "ado": 2349,
      "Ġsmiling": 2350,
      "Ġtest": 2351,
      "Ġsold": 2352,
      "Ġmic": 2353,
      "Ġgold": 2354,
      "Ġtu": 2355,
      "icked": 2356,
      "Ġchocolate": 2357,
      "stop": 2358,
      "Ġclass": 2359,
      "osaur": 2360,
      "Ġpoor": 2361,
      "Ġdrank": 2362,
      "Ġmel": 2363,
      "Ġtries": 2364,
      "Ġmap": 2365,
      "Ġdinosaur": 2366,
      "Ġgener": 2367,
      "Ġimpress": 2368,
      "Ġmarch": 2369,
      "Ġknee": 2370,
      "Ġmirr": 2371,
      "Ġballoons": 2372,
      "Ġicy": 2373,
      "Ġliz": 2374,
      "Ġprotect": 2375,
      "Ġrare": 2376,
      "Ġbobby": 2377,
      "Ġbald": 2378,
      "Ġrespect": 2379,
      "Ġhero": 2380,
      "Ġgun": 2381,
      "Ġmirror": 2382,
      "Ġreg": 2383,
      "Ġcarried": 2384,
      "ensive": 2385,
      "Ġpump": 2386,
      "Ġsoap": 2387,
      "ute": 2388,
      "Ġwhale": 2389,
      "Ġexpensive": 2390,
      "ager": 2391,
      "Ġmysterious": 2392,
      "Ġhur": 2393,
      "Ġwis": 2394,
      "Ġsnee": 2395,
      "Ġjam": 2396,
      "iff": 2397,
      "Ġcri": 2398,
      "erly": 2399,
      "Ġgate": 2400,
      "Ġweird": 2401,
      "Ġspeed": 2402,
      "Ġkiss": 2403,
      "Ġtowel": 2404,
      "issors": 2405,
      "Ġsugar": 2406,
      "Ġtape": 2407,
      "help": 2408,
      "Ġscissors": 2409,
      "Ġfeet": 2410,
      "Ġgenerous": 2411,
      "itter": 2412,
      "Ġchar": 2413,
      "nic": 2414,
      "Ġdisco": 2415,
      "Ġbenny": 2416,
      "Ġpres": 2417,
      "Ġtick": 2418,
      "Ġbrush": 2419,
      "Ġlead": 2420,
      "Ġdancing": 2421,
      "Ġboot": 2422,
      "Ġpicnic": 2423,
      "Ġembarrassed": 2424,
      "Ġjourney": 2425,
      "rag": 2426,
      "Ġfat": 2427,
      "ness": 2428,
      "Ġpeaceful": 2429,
      "Ġtent": 2430,
      "Ġclap": 2431,
      "scape": 2432,
      "Ġglue": 2433,
      "Ġeager": 2434,
      "Ġtasted": 2435,
      "Ġyelled": 2436,
      "mb": 2437,
      "tommy": 2438,
      "Ġbridge": 2439,
      "Ġrough": 2440,
      "Ġprint": 2441,
      "Ġstir": 2442,
      "Ġdecor": 2443,
      "ote": 2444,
      "owed": 2445,
      "Ġcrown": 2446,
      "Ġcloset": 2447,
      "Ġshark": 2448,
      "Ġlamp": 2449,
      "ume": 2450,
      "airs": 2451,
      "Ġber": 2452,
      "Ġscare": 2453,
      "Ġgigg": 2454,
      "Ġvase": 2455,
      "lves": 2456,
      "Ġcele": 2457,
      "Ġpepper": 2458,
      "Ġrelie": 2459,
      "Ġeld": 2460,
      "Ġtele": 2461,
      "Ġwhisp": 2462,
      "Ġcelebr": 2463,
      "Ġblow": 2464,
      "Ġlog": 2465,
      "Ġbean": 2466,
      "Ġpay": 2467,
      "Ġsco": 2468,
      "Ġducky": 2469,
      "Ġpainted": 2470,
      "Ġwouldn": 2471,
      "ina": 2472,
      "Ġberries": 2473,
      "Ġspread": 2474,
      "Ġmixed": 2475,
      "Ġcage": 2476,
      "Ġbake": 2477,
      "Ġdrawing": 2478,
      "Ġmountain": 2479,
      "getable": 2480,
      "Ġnorm": 2481,
      "Ġadm": 2482,
      "Ġfamous": 2483,
      "Ġvegetable": 2484,
      "Ġbecome": 2485,
      "Ġsock": 2486,
      "Ġknocked": 2487,
      "Ġkicked": 2488,
      "Ġglass": 2489,
      "ustr": 2490,
      "asp": 2491,
      "Ġincred": 2492,
      "Ġwrap": 2493,
      "Ġnormal": 2494,
      "Ġfine": 2495,
      "Ġlose": 2496,
      "Ġignor": 2497,
      "Ġmighty": 2498,
      "Ġpaws": 2499,
      "Ġclock": 2500,
      "Ġthick": 2501,
      "Ġteam": 2502,
      "Ġpass": 2503,
      "Ġgroup": 2504,
      "Ġelderly": 2505,
      "Ġfrustr": 2506,
      "Ġroar": 2507,
      "Ġclear": 2508,
      "Ġgrace": 2509,
      "aw": 2510,
      "Ġcorner": 2511,
      "Ġwhich": 2512,
      "dad": 2513,
      "Ġcone": 2514,
      "Ġincredible": 2515,
      "Ġkis": 2516,
      "Ġblock": 2517,
      "robe": 2518,
      "Ġmoms": 2519,
      "Ġspace": 2520,
      "Ġtwist": 2521,
      "Ġbalance": 2522,
      "Ġfright": 2523,
      "Ġfrag": 2524,
      "Ġpip": 2525,
      "Ġorganized": 2526,
      "Ġbranches": 2527,
      "Ġfool": 2528,
      "Ġfeed": 2529,
      "Ġhorn": 2530,
      "Ġsword": 2531,
      "alous": 2532,
      "Ġsell": 2533,
      "me": 2534,
      "Ġjealous": 2535,
      "Ġyarn": 2536,
      "Ġbloom": 2537,
      "Ġcart": 2538,
      "Ġter": 2539,
      "Ġfragile": 2540,
      "Ġpresent": 2541,
      "Ġfrustrated": 2542,
      "Ġburn": 2543,
      "Ġunderstood": 2544,
      "Ġuni": 2545,
      "Ġstubb": 2546,
      "Ġstubborn": 2547,
      "Ġwake": 2548,
      "Ġmitt": 2549,
      "Ġhose": 2550,
      "Ġshoe": 2551,
      "Ġfier": 2552,
      "cient": 2553,
      "Ġspent": 2554,
      "Ġtaught": 2555,
      "Ġfierce": 2556,
      "Ġclay": 2557,
      "Ġpray": 2558,
      "Ġancient": 2559,
      "Ġcoco": 2560,
      "Ġcreature": 2561,
      "zed": 2562,
      "Ġchest": 2563,
      "Ġspoiled": 2564,
      "Ġrelieved": 2565,
      "ndy": 2566,
      "Ġgrandpa": 2567,
      "Ġmeasure": 2568,
      "Ġbarn": 2569,
      "Ġpumpkin": 2570,
      "Ġterri": 2571,
      "Ġgoat": 2572,
      "Ġsquare": 2573,
      "Ġtomato": 2574,
      "Ġfrightened": 2575,
      "oomy": 2576,
      "Ġeggs": 2577,
      "Ġtoug": 2578,
      "Ġunique": 2579,
      "Ġord": 2580,
      "Ġcomfortable": 2581,
      "dle": 2582,
      "Ġunu": 2583,
      "bin": 2584,
      "Ġwagon": 2585,
      "Ġstraw": 2586,
      "Ġdull": 2587,
      "Ġfoolish": 2588,
      "Ġunusu": 2589,
      "sie": 2590,
      "Ġpolice": 2591,
      "Ġbreath": 2592,
      "Ġuseful": 2593,
      "Ġexploring": 2594,
      "Ġdead": 2595,
      "Ġclum": 2596,
      "Ġunusual": 2597,
      "Ġdug": 2598,
      "Ġdiscover": 2599,
      "Ġfinding": 2600,
      "Ġexam": 2601,
      "Ġspring": 2602,
      "Ġwrote": 2603,
      "ym": 2604,
      "Ġwaves": 2605,
      "Ġnosy": 2606,
      "lace": 2607,
      "Ġclumsy": 2608,
      "Ġhears": 2609,
      "Ġcabin": 2610,
      "Ġnecklace": 2611,
      "Ġtells": 2612,
      "Ġtough": 2613,
      "together": 2614,
      "Ġjet": 2615,
      "Ġunk": 2616,
      "Ġsearched": 2617,
      "Ġbuzz": 2618,
      "Ġwashed": 2619,
      "ray": 2620,
      "Ġpir": 2621,
      "yal": 2622,
      "Ġbathroom": 2623,
      "Ġboard": 2624,
      "Ġcrazy": 2625,
      "Ġswan": 2626,
      "anged": 2627,
      "Ġdrop": 2628,
      "Ġsunfl": 2629,
      "Ġbitter": 2630,
      "nown": 2631,
      "Ġasking": 2632,
      "Ġind": 2633,
      "Ġthankful": 2634,
      "berry": 2635,
      "cil": 2636,
      "Ġdiffic": 2637,
      "Ġunknown": 2638,
      "Ġrat": 2639,
      "Ġadd": 2640,
      "Ġcats": 2641,
      "Ġol": 2642,
      "Ġpencil": 2643,
      "Ġeventually": 2644,
      "Ġhoop": 2645,
      "Ġcheap": 2646,
      "Ġfinger": 2647,
      "Ġloyal": 2648,
      "Ġella": 2649,
      "Ġaunt": 2650,
      "Ġcovered": 2651,
      "Ġcher": 2652,
      "Ġwitch": 2653,
      "alk": 2654,
      "Ġdifficult": 2655,
      "Ġpoppy": 2656,
      "Ġtiger": 2657,
      "Ġchicken": 2658,
      "go": 2659,
      "Ġ'": 2660,
      "Ġgloomy": 2661,
      "light": 2662,
      "Ġwealthy": 2663,
      "als": 2664,
      "ac": 2665,
      "Ġdove": 2666,
      "Ġpotato": 2667,
      "shine": 2668,
      "Ġending": 2669,
      "Ġguit": 2670,
      "Ġflex": 2671,
      "Ġsalad": 2672,
      "Ġmill": 2673,
      "Ġyours": 2674,
      "Ġterrible": 2675,
      "Ġjoined": 2676,
      "Ġmov": 2677,
      "anut": 2678,
      "aking": 2679,
      "shion": 2680,
      "gu": 2681,
      "Ġvalue": 2682,
      "Ġrex": 2683,
      "Ġnuts": 2684,
      "Ġsunshine": 2685,
      "Ġandy": 2686,
      "Ġhairy": 2687,
      "Ġlif": 2688,
      "ground": 2689,
      "who": 2690,
      "Ġmask": 2691,
      "Ġpeanut": 2692,
      "Ġmoving": 2693,
      "selves": 2694,
      "olly": 2695,
      "Ġknowing": 2696,
      "ond": 2697,
      "Ġbody": 2698,
      "Ġchanged": 2699,
      "lli": 2700,
      "Ġrecord": 2701,
      "Ġexciting": 2702,
      "ormous": 2703,
      "Ġflexible": 2704,
      "Ġmarble": 2705,
      "Ġenormous": 2706,
      "Ġjolly": 2707,
      "Ġunlo": 2708,
      "Ġguitar": 2709,
      "land": 2710,
      "Ġshoot": 2711,
      "Ġacorn": 2712,
      "Ġstri": 2713,
      "irsty": 2714,
      "every": 2715,
      "Ġadventur": 2716,
      "Ġyourself": 2717,
      "Ġcro": 2718,
      "Ġremind": 2719,
      "Ġbored": 2720,
      "Ġstuff": 2721,
      "Ġknife": 2722,
      "Ġadventurous": 2723,
      "Ġsmaller": 2724,
      "Ġbill": 2725,
      "Ġhats": 2726,
      "Ġsquee": 2727,
      "Ġdelicate": 2728,
      "Ġsolve": 2729,
      "Ġdough": 2730,
      "ying": 2731,
      "Ġjimmy": 2732,
      "Ġbrilli": 2733,
      "Ġcost": 2734,
      "Ġsnacks": 2735,
      "Ġperform": 2736,
      "Ġbrilliant": 2737,
      "gust": 2738,
      "Ġang": 2739,
      "Ġshore": 2740,
      "Ġnods": 2741,
      "Ġfrown": 2742,
      "Ġbanana": 2743,
      "Ġthirsty": 2744,
      "bers": 2745,
      "Ġcube": 2746,
      "Ġdisgust": 2747,
      "Ġmailbox": 2748,
      "oura": 2749,
      "ory": 2750,
      "Ġcollect": 2751,
      "Ġseeds": 2752,
      "Ġwhenever": 2753,
      "Ġstat": 2754,
      "Ġcounted": 2755,
      "Ġasleep": 2756,
      "pes": 2757,
      "Ġcrane": 2758,
      "Ġheal": 2759,
      "ha": 2760,
      "Ġtrick": 2761,
      "iness": 2762,
      "Ġflash": 2763,
      "Ġneighbor": 2764,
      "Ġjung": 2765,
      "Ġjungle": 2766,
      "erp": 2767,
      "ready": 2768,
      "ken": 2769,
      "Ġmarket": 2770,
      "Ġstage": 2771,
      "Ġuncle": 2772,
      "how": 2773,
      "Ġshiver": 2774,
      "Ġfridge": 2775,
      "Ġexplained": 2776,
      "Ġumb": 2777,
      "Ġumbre": 2778,
      "Ġdisgusting": 2779,
      "Ġlab": 2780,
      "ates": 2781,
      "Ġer": 2782,
      "jim": 2783,
      "Ġgem": 2784,
      "ident": 2785,
      "Ġcaterp": 2786,
      "Ġcaterpill": 2787,
      "Ġgoose": 2788,
      "Ġrela": 2789,
      "Ġrelax": 2790,
      "Ġfour": 2791,
      "Ġdesig": 2792,
      "Ġsuit": 2793,
      "Ġsunflower": 2794,
      "ilt": 2795,
      "inal": 2796,
      "sor": 2797,
      "iddle": 2798,
      "Ġstup": 2799,
      "Ġisland": 2800,
      "Ġorig": 2801,
      "Ġstupid": 2802,
      "Ġgar": 2803,
      "Ġtimes": 2804,
      "Ġshine": 2805,
      "Ġharm": 2806,
      "sorry": 2807,
      "Ġmagn": 2808,
      "corn": 2809,
      "Ġmedic": 2810,
      "imp": 2811,
      "Ġcam": 2812,
      "ict": 2813,
      "Ġstove": 2814,
      "edient": 2815,
      "Ġoriginal": 2816,
      "Ġindepend": 2817,
      "Ġdepend": 2818,
      "Ġscr": 2819,
      "Ġbatter": 2820,
      "Ġpopcorn": 2821,
      "mum": 2822,
      "Ġraven": 2823,
      "Ġstamp": 2824,
      "Ġvegetables": 2825,
      "Ġcomb": 2826,
      "Ġrug": 2827,
      "Ġsighed": 2828,
      "Ġmedicine": 2829,
      "Ġstones": 2830,
      "Ġsauce": 2831,
      "Ġcarrots": 2832,
      "Ġcareless": 2833,
      "most": 2834,
      "Ġstudy": 2835,
      "Ġjeep": 2836,
      "inside": 2837,
      "Ġcries": 2838,
      "Ġsuccessful": 2839,
      "Ġalmost": 2840,
      "Ġobedient": 2841,
      "Ġpenny": 2842,
      "Ġmeal": 2843,
      "Ġtriang": 2844,
      "Ġcaterpillar": 2845,
      "Ġindependent": 2846,
      "Ġstatue": 2847,
      "Ġmiddle": 2848,
      "Ġfearful": 2849,
      "Ġpebble": 2850,
      "Ġsmoke": 2851,
      "met": 2852,
      "Ġparrot": 2853,
      "Ġpasta": 2854,
      "Ġmummy": 2855,
      "Ġescape": 2856,
      "Ġsammy": 2857,
      "Ġserious": 2858,
      "Ġfork": 2859,
      "Ġbedroom": 2860,
      "Ġhelmet": 2861,
      "Ġgets": 2862,
      "Ġfountain": 2863,
      "Ġolive": 2864,
      "Ġcompet": 2865,
      "Ġumbrella": 2866,
      "Ġdest": 2867,
      "Ġfilthy": 2868,
      "cer": 2869,
      "Ġjacket": 2870,
      "Ġhay": 2871,
      "Ġmole": 2872,
      "Ġstanding": 2873,
      "Ġbelonged": 2874,
      "Ġsil": 2875,
      "Ġborrow": 2876,
      "Ġprize": 2877,
      "pet": 2878,
      "Ġhouses": 2879,
      "erable": 2880,
      "Ġsteal": 2881,
      "Ġmiserable": 2882,
      "Ġpainting": 2883,
      "Ġchoose": 2884,
      "Ġbrace": 2885,
      "Ġwaff": 2886,
      "Ġbracelet": 2887,
      "Ġraced": 2888,
      "Ġtaken": 2889,
      "Ġcrayon": 2890,
      "Ġfig": 2891,
      "Ġtoast": 2892,
      "Ġimpressive": 2893,
      "nel": 2894,
      "Ġtank": 2895,
      "Ġdependable": 2896,
      "Ġmagnet": 2897,
      "Ġmush": 2898,
      "Ġtied": 2899,
      "iable": 2900,
      "Ġspotted": 2901,
      "ours": 2902,
      "Ġlifted": 2903,
      "Ġslipped": 2904,
      "Ġscale": 2905,
      "Ġangel": 2906,
      "Ġthoughtful": 2907,
      "Ġmuff": 2908,
      "Ġreliable": 2909,
      "Ġstretch": 2910,
      "Ġtor": 2911,
      "Ġgarage": 2912,
      "Ġusing": 2913,
      "Ġbuilt": 2914,
      "Ġboats": 2915,
      "Ġcroco": 2916,
      "Ġhammer": 2917,
      "Ġeng": 2918,
      "Ġpant": 2919,
      "Ġpian": 2920,
      "Ġcrawled": 2921,
      "Ġcheerful": 2922,
      "Ġbottom": 2923,
      "Ġcrack": 2924,
      "Ġmoder": 2925,
      "Ġguess": 2926,
      "Ġpicks": 2927,
      "Ġpiano": 2928,
      "berries": 2929,
      "Ġshows": 2930,
      "Ġdolp": 2931,
      "dile": 2932,
      "Ġhurts": 2933,
      "inary": 2934,
      "Ġpear": 2935,
      "Ġmelon": 2936,
      "Ġmushroom": 2937,
      "Ġcrocodile": 2938,
      "Ġmodern": 2939,
      "pack": 2940,
      "Ġsquash": 2941,
      "Ġarrow": 2942,
      "Ġcryst": 2943,
      "Ġtunnel": 2944,
      "cream": 2945,
      "Ġjug": 2946,
      "Ġgum": 2947,
      "Ġbeet": 2948,
      "Ġhopping": 2949,
      "Ġtax": 2950,
      "Ġcap": 2951,
      "Ġlean": 2952,
      "ail": 2953,
      "ose": 2954,
      "Ġflute": 2955,
      "Ġsink": 2956,
      "Ġspike": 2957,
      "timmy": 2958,
      "Ġmovie": 2959,
      "ony": 2960,
      "their": 2961,
      "ges": 2962,
      "Ġpopular": 2963,
      "oin": 2964,
      "icop": 2965,
      "icopter": 2966,
      "Ġtears": 2967,
      "iv": 2968,
      "Ġpige": 2969,
      "Ġhelicopter": 2970,
      "Ġcompetit": 2971,
      "Ġones": 2972,
      "Ġpress": 2973,
      "Ġtorn": 2974,
      "Ġhumble": 2975,
      "Ġloll": 2976,
      "Ġneeds": 2977,
      "Ġrid": 2978,
      "ipop": 2979,
      "Ġtaxi": 2980,
      "molly": 2981,
      "Ġlollipop": 2982,
      "Ġtroubled": 2983,
      "Ġtricks": 2984,
      "Ġplayful": 2985,
      "Ġlocked": 2986,
      "Ġlow": 2987,
      "Ġacc": 2988,
      "Ġuncom": 2989,
      "Ġkissed": 2990,
      "Ġpus": 2991,
      "Ġuncomfortable": 2992,
      "amond": 2993,
      "Ġtwig": 2994,
      "Ġwander": 2995,
      "Ġdisappoin": 2996,
      "host": 2997,
      "Ġdiamond": 2998,
      "Ġghost": 2999,
      "cles": 3000,
      "Ġtooth": 3001,
      "Ġanx": 3002,
      "Ġpants": 3003,
      "Ġbull": 3004,
      "Ġwrapped": 3005,
      "Ġfis": 3006,
      "Ġhelps": 3007,
      "Ġmop": 3008,
      "Ġrub": 3009,
      "Ġcamera": 3010,
      "Ġanxious": 3011,
      "Ġdeaf": 3012,
      "Ġcact": 3013,
      "Ġruined": 3014,
      "Ġlizard": 3015,
      "atter": 3016,
      "Ġenv": 3017,
      "Ġquar": 3018,
      "Ġhappiness": 3019,
      "Ġbees": 3020,
      "Ġjenny": 3021,
      "ilty": 3022,
      "Ġbelt": 3023,
      "Ġaer": 3024,
      "Ġcere": 3025,
      "Ġtriangle": 3026,
      "Ġguilty": 3027,
      "opl": 3028,
      "Ġaccident": 3029,
      "Ġaeropl": 3030,
      "cut": 3031,
      "Ġboys": 3032,
      "Ġearth": 3033,
      "Ġhelpless": 3034,
      "Ġcomet": 3035,
      "Ġcop": 3036,
      "Ġcrystal": 3037,
      "Ġwire": 3038,
      "Ġwalks": 3039,
      "there": 3040,
      "Ġnail": 3041,
      "Ġbeetle": 3042,
      "Ġpassed": 3043,
      "cean": 3044,
      "Ġradio": 3045,
      "Ġocean": 3046,
      "bra": 3047,
      "Ġuniver": 3048,
      "Ġmelt": 3049,
      "ti": 3050,
      "Ġcandle": 3051,
      "Ġhunt": 3052,
      "Ġmeant": 3053,
      "Ġshape": 3054,
      "Ġtire": 3055,
      "Ġharmless": 3056,
      "Ġrep": 3057,
      "Ġquarrel": 3058,
      "Ġordinary": 3059,
      "umpet": 3060,
      "Ġanswered": 3061,
      "Ġcollar": 3062,
      "Ġloop": 3063,
      "Ġtrumpet": 3064,
      "Ġtag": 3065,
      "Ġflashlight": 3066,
      "Ġcereal": 3067,
      "Ġengine": 3068,
      "Ġharder": 3069,
      "Ġpoured": 3070,
      "Ġcomput": 3071,
      "Ġpersist": 3072,
      "mama": 3073,
      "Ġdust": 3074,
      "Ġmay": 3075,
      "Ġscoot": 3076,
      "reen": 3077,
      "Ġcactus": 3078,
      "Ġmug": 3079,
      "Ġoffice": 3080,
      "Ġyogurt": 3081,
      "Ġinvited": 3082,
      "het": 3083,
      "Ġcompass": 3084,
      "Ġdesign": 3085,
      "Ġspill": 3086,
      "Ġavoc": 3087,
      "Ġlit": 3088,
      "Ġshade": 3089,
      "Ġspend": 3090,
      "Ġdisappointed": 3091,
      "ief": 3092,
      "Ġcocoa": 3093,
      "Ġbarber": 3094,
      "Ġfigure": 3095,
      "aghet": 3096,
      "Ġgiving": 3097,
      "aghetti": 3098,
      "Ġpale": 3099,
      "Ġeras": 3100,
      "Ġregular": 3101,
      "Ġlicked": 3102,
      "Ġsheet": 3103,
      "Ġyaw": 3104,
      "Ġpipe": 3105,
      "Ġskip": 3106,
      "Ġtur": 3107,
      "Ġspaghetti": 3108,
      "Ġwhispered": 3109,
      "Ġthread": 3110,
      "ellig": 3111,
      "uth": 3112,
      "Ġcreate": 3113,
      "Ġpow": 3114,
      "Ġintellig": 3115,
      "Ġharsh": 3116,
      "Ġroof": 3117,
      "Ġvol": 3118,
      "hip": 3119,
      "Ġload": 3120,
      "Ġcompassion": 3121,
      "Ġrode": 3122,
      "Ġdelight": 3123,
      "jane": 3124,
      "Ġlibr": 3125,
      "Ġfeathers": 3126,
      "Ġgifted": 3127,
      "Ġvio": 3128,
      "Ġpracticed": 3129,
      "Ġbicy": 3130,
      "Ġfriendship": 3131,
      "coli": 3132,
      "Ġshrimp": 3133,
      "ither": 3134,
      "Ġcomputer": 3135,
      "Ġnur": 3136,
      "Ġbroc": 3137,
      "Ġsailed": 3138,
      "Ġfu": 3139,
      "Ġpersistent": 3140,
      "Ġforward": 3141,
      "Ġrice": 3142,
      "aff": 3143,
      "Ġtube": 3144,
      "Ġturkey": 3145,
      "Ġcoo": 3146,
      "Ġglove": 3147,
      "Ġenvel": 3148,
      "Ġze": 3149,
      "Ġbroccoli": 3150,
      "Ġpigeon": 3151,
      "Ġquestions": 3152,
      "Ġknot": 3153,
      "Ġacce": 3154,
      "Ġinse": 3155,
      "Ġdesk": 3156,
      "Ġed": 3157,
      "Ġjudge": 3158,
      "Ġhalf": 3159,
      "Ġcharming": 3160,
      "bobo": 3161,
      "Ġstream": 3162,
      "ubby": 3163,
      "Ġonion": 3164,
      "Ġears": 3165,
      "Ġtrunk": 3166,
      "Ġenvious": 3167,
      "Ġdreams": 3168,
      "Ġstronger": 3169,
      "Ġwheat": 3170,
      "Ġcoins": 3171,
      "Ġvolcan": 3172,
      "Ġkay": 3173,
      "Ġraft": 3174,
      "Ġtrap": 3175,
      "omes": 3176,
      "Ġtap": 3177,
      "Ġchubby": 3178,
      "Ġap": 3179,
      "Ġthu": 3180,
      "Ġske": 3181,
      "Ġaeroplane": 3182,
      "ime": 3183,
      "Ġcarpet": 3184,
      "Ġvolcano": 3185,
      "ye": 3186,
      "Ġcrawl": 3187,
      "Ġrestless": 3188,
      "Ġboxes": 3189,
      "Ġintelligent": 3190,
      "Ġgraceful": 3191,
      "Ġspun": 3192,
      "ifl": 3193,
      "ulifl": 3194,
      "Ġweek": 3195,
      "Ġtuna": 3196,
      "Ġcaulifl": 3197,
      "Ġdeliver": 3198,
      "Ġvide": 3199,
      "lin": 3200,
      "Ġvine": 3201,
      "Ġjake": 3202,
      "Ġthief": 3203,
      "Ġtrack": 3204,
      "Ġsle": 3205,
      "Ġlearning": 3206,
      "Ġleop": 3207,
      "Ġticket": 3208,
      "Ġinsect": 3209,
      "Ġsleeping": 3210,
      "Ġnumbers": 3211,
      "Ġeraser": 3212,
      "cycle": 3213,
      "Ġplanet": 3214,
      "Ġhaircut": 3215,
      "Ġlouder": 3216,
      "Ġalert": 3217,
      "ital": 3218,
      "Ġexcite": 3219,
      "Ġfirew": 3220,
      "Ġscreen": 3221,
      "asses": 3222,
      "Ġhosp": 3223,
      "Ġattract": 3224,
      "Ġdestro": 3225,
      "Ġpeach": 3226,
      "Ġoat": 3227,
      "Ġcauliflower": 3228,
      "ulu": 3229,
      "Ġhospital": 3230,
      "time": 3231,
      "isted": 3232,
      "Ġreturned": 3233,
      "asing": 3234,
      "Ġhappening": 3235,
      "Ġpoem": 3236,
      "zzy": 3237,
      "uct": 3238,
      "Ġsaus": 3239,
      "Ġdecide": 3240,
      "Ġemily": 3241,
      "Ġrod": 3242,
      "Ġnicely": 3243,
      "Ġsoldier": 3244,
      "Ġcompetitive": 3245,
      "Ġhook": 3246,
      "Ġcelebrate": 3247,
      "Ġdolphin": 3248,
      "Ġlying": 3249,
      "Ġcurt": 3250,
      "Ġyach": 3251,
      "Ġparade": 3252,
      "Ġprun": 3253,
      "Ġattractive": 3254,
      "Ġfirework": 3255,
      "Ġcompassionate": 3256,
      "Ġcurtain": 3257,
      "Ġviolin": 3258,
      "Ġwheels": 3259,
      "Ġignorant": 3260,
      "Ġleopard": 3261,
      "Ġtravel": 3262,
      "Ġways": 3263,
      "Ġbul": 3264,
      "dest": 3265,
      "Ġbase": 3266,
      "Ġbarrel": 3267,
      "Ġscatter": 3268,
      "Ġdeter": 3269,
      "Ġrag": 3270,
      "Ġcel": 3271,
      "Ġsoar": 3272,
      "Ġneedle": 3273,
      "anger": 3274,
      "Ġenvelope": 3275,
      "Ġyacht": 3276,
      "Ġsort": 3277,
      "Ġquestion": 3278,
      "Ġcricket": 3279,
      "Ġscooter": 3280,
      "Ġdeterm": 3281,
      "Ġbulb": 3282,
      "Ġpipp": 3283,
      "Ġphot": 3284,
      "Ġbicycle": 3285,
      "Ġorder": 3286,
      "Ġpony": 3287,
      "Ġtemp": 3288,
      "Ġherb": 3289,
      "Ġtruth": 3290,
      "book": 3291,
      "Ġnurse": 3292,
      "Ġhomes": 3293,
      "Ġador": 3294,
      "tern": 3295,
      "Ġcelery": 3296,
      "Ġchalk": 3297,
      "dom": 3298,
      "Ġspell": 3299,
      "Ġrubbed": 3300,
      "igator": 3301,
      "Ġfloat": 3302,
      "Ġbushes": 3303,
      "Ġimpat": 3304,
      "sarah": 3305,
      "Ġyet": 3306,
      "Ġpengu": 3307,
      "Ġalligator": 3308,
      "Ġcleaning": 3309,
      "Ġcushion": 3310,
      "Ġgrown": 3311,
      "Ġseal": 3312,
      "Ġadorable": 3313,
      "Ġimpatient": 3314,
      "Ġcooked": 3315,
      "Ġmatt": 3316,
      "Ġtray": 3317,
      "Ġshells": 3318,
      "Ġskin": 3319,
      "Ġpurse": 3320,
      "Ġsniff": 3321,
      "Ġthemselves": 3322,
      "Ġink": 3323,
      "Ġjazz": 3324,
      "Ġradish": 3325,
      "Ġwalls": 3326,
      "Ġcounting": 3327,
      "Ġmeat": 3328,
      "Ġlively": 3329,
      "Ġsaying": 3330,
      "Ġspinning": 3331,
      "Ġspeak": 3332,
      "Ġdistant": 3333,
      "Ġim": 3334,
      "Ġmotorcycle": 3335,
      "Ġsend": 3336,
      "Ġclub": 3337,
      "Ġavocado": 3338,
      "Ġbin": 3339,
      "Ġchain": 3340,
      "Ġmarry": 3341,
      "Ġsurf": 3342,
      "squ": 3343,
      "Ġfilm": 3344,
      "Ġforth": 3345,
      "Ġenth": 3346,
      "Ġcase": 3347,
      "Ġbounced": 3348,
      "ron": 3349,
      "Ġpit": 3350,
      "Ġstum": 3351,
      "Ġrubb": 3352,
      "Ġslept": 3353,
      "illa": 3354,
      "Ġmetal": 3355,
      "Ġwallet": 3356,
      "Ġsteak": 3357,
      "Ġrot": 3358,
      "Ġenthus": 3359,
      "Ġhan": 3360,
      "Ġoy": 3361,
      "chair": 3362,
      "gra": 3363,
      "Ġimpr": 3364,
      "Ġnotebook": 3365,
      "Ġdestroy": 3366,
      "Ġpost": 3367,
      "Ġbehave": 3368,
      "Ġwiped": 3369,
      "ision": 3370,
      "Ġbiggest": 3371,
      "Ġdive": 3372,
      "Ġjellyfish": 3373,
      "Ġzebra": 3374,
      "Ġpole": 3375,
      "urb": 3376,
      "vator": 3377,
      "Ġdiary": 3378,
      "Ġbandage": 3379,
      "Ġpattern": 3380,
      "Ġshut": 3381,
      "Ġow": 3382,
      "Ġlaughs": 3383,
      "Ġelevator": 3384,
      "bul": 3385,
      "Ġfather": 3386,
      "Ġsaf": 3387,
      "Ġskull": 3388,
      "Ġskipped": 3389,
      "Ġbeep": 3390,
      "Ġarmchair": 3391,
      "ject": 3392,
      "give": 3393,
      "Ġgri": 3394,
      "Ġmixer": 3395,
      "Ġbags": 3396,
      "Ġshowing": 3397,
      "Ġdisturb": 3398,
      "Ġthose": 3399,
      "ourage": 3400,
      "Ġlime": 3401,
      "Ġscrew": 3402,
      "Ġenc": 3403,
      "Ġgathered": 3404,
      "az": 3405,
      "Ġbuttons": 3406,
      "Ġyoga": 3407,
      "Ġbump": 3408,
      "Ġchess": 3409,
      "Ġstranger": 3410,
      "Ġguard": 3411,
      "Ġsweater": 3412,
      "bulance": 3413,
      "Ġcompl": 3414,
      "Ġjournal": 3415,
      "Ġambulance": 3416,
      "nam": 3417,
      "Ġtwe": 3418,
      "Ġtrucks": 3419,
      "Ġshield": 3420,
      "Ġunlock": 3421,
      "Ġfolder": 3422,
      "Ġloudly": 3423,
      "Ġlaser": 3424,
      "Ġspir": 3425,
      "Ġtummy": 3426,
      "Ġlulu": 3427,
      "ito": 3428,
      "Ġsalt": 3429,
      "Ġlibrary": 3430,
      "Ġthunder": 3431,
      "Ġpeter": 3432,
      "Ġlights": 3433,
      "Ġcity": 3434,
      "Ġplayground": 3435,
      "Ġtweet": 3436,
      "Ġpointing": 3437,
      "Ġstation": 3438,
      "Ġprep": 3439,
      "Ġcord": 3440,
      "Ġbirdy": 3441,
      "Ġdecorate": 3442,
      "Ġmosqu": 3443,
      "Ġfalls": 3444,
      "Ġmodest": 3445,
      "Ġpolly": 3446,
      "billy": 3447,
      "ention": 3448,
      "Ġmosquito": 3449,
      "Ġornam": 3450,
      "Ġornament": 3451,
      "Ġpirate": 3452,
      "Ġspirit": 3453,
      "Ġzipp": 3454,
      "Ġknows": 3455,
      "Ġhipp": 3456,
      "Ġpolish": 3457,
      "ol": 3458,
      "Ġcomplet": 3459,
      "Ġmuffin": 3460,
      "well": 3461,
      "Ġitch": 3462,
      "Ġcoal": 3463,
      "Ġmath": 3464,
      "Ġresc": 3465,
      "keep": 3466,
      "Ġvest": 3467,
      "Ġaut": 3468,
      "Ġattic": 3469,
      "Ġple": 3470,
      "Ġcable": 3471,
      "ctop": 3472,
      "ob": 3473,
      "Ġdisappeared": 3474,
      "Ġstrawberry": 3475,
      "Ġscrat": 3476,
      "Ġoctop": 3477,
      "Ġreading": 3478,
      "Ġfootball": 3479,
      "Ġmild": 3480,
      "Ġbrothers": 3481,
      "Ġsplit": 3482,
      "Ġpine": 3483,
      "Ġdriving": 3484,
      "Ġsupport": 3485,
      "gl": 3486,
      "Ġmissile": 3487,
      "Ġled": 3488,
      "uring": 3489,
      "Ġskelet": 3490,
      "Ġkindness": 3491,
      "Ġoctopus": 3492,
      "lies": 3493,
      "Ġcalling": 3494,
      "Ġcupboard": 3495,
      "per": 3496,
      "par": 3497,
      "Ġgor": 3498,
      "Ġroot": 3499,
      "Ġwaffle": 3500,
      "Ġflame": 3501,
      "Ġflea": 3502,
      "Ġwishes": 3503,
      "Ġmint": 3504,
      "Ġkayak": 3505,
      "Ġpatch": 3506,
      "Ġtripped": 3507,
      "Ġcomplete": 3508,
      "uc": 3509,
      "umb": 3510,
      "stic": 3511,
      "Ġpoke": 3512,
      "Ġgolf": 3513,
      "Ġadded": 3514,
      "Ġdetermined": 3515,
      "Ġsucceed": 3516,
      "Ġedge": 3517,
      "Ġsneeze": 3518,
      "?\".": 3519,
      "Ġautom": 3520,
      "Ġhunter": 3521,
      "obile": 3522,
      "Ġstack": 3523,
      "Ġautomobile": 3524,
      "scope": 3525,
      "Ġskeleton": 3526,
      "utes": 3527,
      "Ġsuggest": 3528,
      "Ġcomplain": 3529,
      "Ġswitch": 3530,
      "iastic": 3531,
      "Ġhippo": 3532,
      "Ġenthusiastic": 3533,
      "Ġcarto": 3534,
      "Ġgrowl": 3535,
      "inky": 3536,
      "Ġmeadow": 3537,
      "Ġbatht": 3538,
      "Ġhall": 3539,
      "Ġoyster": 3540,
      "Ġdrawer": 3541,
      "Ġbathtub": 3542,
      "Ġveil": 3543,
      "ophone": 3544,
      "Ġmeans": 3545,
      "work": 3546,
      "Ġrepe": 3547,
      "Ġpun": 3548,
      "aged": 3549,
      "Ġtroph": 3550,
      "Ġvideo": 3551,
      "Ġgear": 3552,
      "Ġglowing": 3553,
      "Ġspear": 3554,
      "Ġlau": 3555,
      "Ġcups": 3556,
      "body": 3557,
      "bu": 3558,
      "Ġrepair": 3559,
      "Ġot": 3560,
      "Ġitself": 3561,
      "Ġdrawings": 3562,
      "Ġteleph": 3563,
      "glasses": 3564,
      "Ġsunglasses": 3565,
      "nda": 3566,
      "Ġmakeup": 3567,
      "Ġdess": 3568,
      "Ġhandle": 3569,
      "Ġcostume": 3570,
      "Ġrolling": 3571,
      ",âĢĿ": 3572,
      "Ġpastry": 3573,
      "case": 3574,
      "Ġarg": 3575,
      "Ġminutes": 3576,
      "Ġmaze": 3577,
      "Ġpacked": 3578,
      "Ġtelephone": 3579,
      "Ġhedge": 3580,
      "Ġknight": 3581,
      "Ġmattress": 3582,
      "Ġpowder": 3583,
      "Ġpackage": 3584,
      "Ġshocked": 3585,
      "Ġmicr": 3586,
      "Ġtrophy": 3587,
      "Ġcamp": 3588,
      "Ġbess": 3589,
      "Ġcob": 3590,
      "Ġframe": 3591,
      "ith": 3592,
      "ines": 3593,
      "Ġsnap": 3594,
      "cu": 3595,
      "Ġmanaged": 3596,
      "Ġbasketball": 3597,
      "play": 3598,
      "Ġwife": 3599,
      "Ġsepar": 3600,
      "Ġstairs": 3601,
      "Ġgrapes": 3602,
      "web": 3603,
      "Ġfile": 3604,
      "see": 3605,
      "Ġeye": 3606,
      "Ġmagaz": 3607,
      "Ġstrugg": 3608,
      "Ġmicrophone": 3609,
      "Ġcobweb": 3610,
      "Ġcolour": 3611,
      "Ġwool": 3612,
      "head": 3613,
      "Ġtina": 3614,
      "Ġmicro": 3615,
      "Ġgorilla": 3616,
      "jimmy": 3617,
      "Ġiron": 3618,
      "Ġperm": 3619,
      "esday": 3620,
      "Ġgasp": 3621,
      "Ġleash": 3622,
      "Ġweep": 3623,
      "iew": 3624,
      "Ġribb": 3625,
      "aving": 3626,
      "Ġbananas": 3627,
      "was": 3628,
      "Ġbarking": 3629,
      "Ġsafely": 3630,
      "Ġstaff": 3631,
      "ature": 3632,
      "Ġtear": 3633,
      "Ġhoc": 3634,
      "Ġview": 3635,
      "Ġslides": 3636,
      "fee": 3637,
      "Ġhockey": 3638,
      "Ġvend": 3639,
      "Ġfive": 3640,
      "Ġsteps": 3641,
      "tol": 3642,
      "istol": 3643,
      "Ġzig": 3644,
      "Ġpistol": 3645,
      "Ġcooler": 3646,
      "Ġtask": 3647,
      "offee": 3648,
      "Ġgiggled": 3649,
      "Ġflour": 3650,
      "Ġcooking": 3651,
      "Ġten": 3652,
      "Ġfireman": 3653,
      "jill": 3654,
      "Ġotter": 3655,
      "Ġearly": 3656,
      "Ġsailor": 3657,
      "Ġanch": 3658,
      "Ġchur": 3659,
      "Ġsausage": 3660,
      "Ġmarched": 3661,
      "Ġpee": 3662,
      "Ġcell": 3663,
      "Ġrever": 3664,
      "Ġchurch": 3665,
      "Ġhotel": 3666,
      "Ġdessert": 3667,
      "washer": 3668,
      "often": 3669,
      "Ġoften": 3670,
      "Ġoil": 3671,
      "Ġthinking": 3672,
      "Ġremain": 3673,
      "hic": 3674,
      "Ġdishwasher": 3675,
      "Ġphoto": 3676,
      "Ġvehic": 3677,
      "ilot": 3678,
      "happy": 3679,
      "Ġmitten": 3680,
      "Ġpete": 3681,
      "Ġeither": 3682,
      "Ġpretending": 3683,
      "Ġmicroscope": 3684,
      "Ġmedal": 3685,
      "Ġwhip": 3686,
      "Ġbaseball": 3687,
      "Ġcoffee": 3688,
      "Ġtools": 3689,
      "Ġvendor": 3690,
      "sport": 3691,
      "Ġoak": 3692,
      "apped": 3693,
      "Ġrhin": 3694,
      "Ġorganize": 3695,
      "Ġtemple": 3696,
      "Ġanchor": 3697,
      "Ġbattery": 3698,
      "Ġbuck": 3699,
      "Ġsight": 3700,
      "Ġhours": 3701,
      "Ġcudd": 3702,
      "Ġopens": 3703,
      "Ġgrill": 3704,
      "Ġraz": 3705,
      "Ġrealised": 3706,
      "Ġsandbox": 3707,
      "Ġpassport": 3708,
      "Ġrise": 3709,
      "Ġhurry": 3710,
      "'d": 3711,
      "Ġfactor": 3712,
      "Ġlotion": 3713,
      "Ġshort": 3714,
      "ella": 3715,
      "Ġtrash": 3716,
      "te": 3717,
      "Ġpilot": 3718,
      "Ġfactory": 3719,
      "wa": 3720,
      "ense": 3721,
      "Ġur": 3722,
      "Ġbetty": 3723,
      "Ġkang": 3724,
      "ney": 3725,
      "Ġward": 3726,
      "Ġzipper": 3727,
      "seum": 3728,
      "Ġtornado": 3729,
      "Ġhanger": 3730,
      "Ġwardrobe": 3731,
      "Ġcardboard": 3732,
      "Ġmuseum": 3733,
      "Ġsilver": 3734,
      "Ġquit": 3735,
      "Ġhanging": 3736,
      "Ġpenguin": 3737,
      "Ġvalu": 3738,
      "ugged": 3739,
      "Ġmem": 3740,
      "Ġmessage": 3741,
      "Ġnapkin": 3742,
      "Ġcane": 3743,
      "Ġavail": 3744,
      "Ġallowed": 3745,
      "Ġhive": 3746,
      "Ġtowers": 3747,
      "Ġexcitement": 3748,
      "loo": 3749,
      "Ġblackboard": 3750,
      "Ġreward": 3751,
      "Ġpicking": 3752,
      "keeper": 3753,
      "Ġfauc": 3754,
      "Ġfaucet": 3755,
      "place": 3756,
      "Ġcheck": 3757,
      "fluffy": 3758,
      "Ġpippin": 3759,
      "Ġnovel": 3760,
      "Ġigloo": 3761,
      "Ġfreez": 3762,
      "Ġstumbled": 3763,
      "Ġdreamed": 3764,
      "Ġbessie": 3765,
      "Ġrazor": 3766,
      "aky": 3767,
      "Ġjuicy": 3768,
      "Ġavailable": 3769,
      "aroo": 3770,
      "ric": 3771,
      "ination": 3772,
      "Ġfisher": 3773,
      "Ġalready": 3774,
      "Ġholds": 3775,
      "Ġbathe": 3776,
      "Ġchim": 3777,
      "spap": 3778,
      "Ġfingers": 3779,
      "lu": 3780,
      "Ġnewspap": 3781,
      "inde": 3782,
      "Ġkangaroo": 3783,
      "Ġpal": 3784,
      "ndry": 3785,
      "Ġsize": 3786,
      "htray": 3787,
      "arm": 3788,
      "Ġchimney": 3789,
      "Ġlend": 3790,
      "Ġashtray": 3791,
      "Ġlaundry": 3792,
      "grand": 3793,
      "Ġimagine": 3794,
      "Ġmen": 3795,
      "Ġtelling": 3796,
      "Ġpractice": 3797,
      "ately": 3798,
      "Ġreinde": 3799,
      "Ġhen": 3800,
      "wait": 3801,
      "Ġmule": 3802,
      "Ġcherries": 3803,
      "Ġsub": 3804,
      "Ġnotice": 3805,
      "Ġenjoying": 3806,
      "Ġspilled": 3807,
      "gen": 3808,
      "Ġgain": 3809,
      "Ġshrink": 3810,
      "Ġdisplay": 3811,
      "Ġfireplace": 3812,
      "ampoo": 3813,
      "lend": 3814,
      "da": 3815,
      "Ġfastest": 3816,
      "Ġcows": 3817,
      "ocer": 3818,
      "Ġmagazine": 3819,
      "Ġsuper": 3820,
      "Ġcabinet": 3821,
      "Ġrhinocer": 3822,
      "Ġpinch": 3823,
      "Ġrake": 3824,
      "Ġshampoo": 3825,
      "Ġreindeer": 3826,
      "Ġpalace": 3827,
      "arian": 3828,
      "Ġclimbing": 3829,
      "joe": 3830,
      "Ġimprove": 3831,
      "Ġfalling": 3832,
      "Ġminer": 3833,
      "ache": 3834,
      "Ġrece": 3835,
      "Ġskirt": 3836,
      "ured": 3837,
      "Ġoats": 3838,
      "Ġdiscovered": 3839,
      "Ġroared": 3840,
      "Ġrhinoceros": 3841,
      "Ġstared": 3842,
      "Ġtrail": 3843,
      "Ġtub": 3844,
      "Ġfisherman": 3845,
      "Ġtoile": 3846,
      "Ġfog": 3847,
      "Ġsof": 3848,
      "Ġax": 3849,
      "aches": 3850,
      "iction": 3851,
      "Ġhut": 3852,
      "Ġboots": 3853,
      "Ġpor": 3854,
      "stairs": 3855,
      "Ġhappier": 3856,
      "Ġtaller": 3857,
      "Ġobject": 3858,
      "Ġlistening": 3859,
      "Ġfuel": 3860,
      "ictionary": 3861,
      "vision": 3862,
      "jen": 3863,
      "Ġvaluable": 3864,
      "Ġtoilet": 3865,
      "aid": 3866,
      "Ġholes": 3867,
      "Ġoffered": 3868,
      "umber": 3869,
      "Ġnames": 3870,
      "Ġopera": 3871,
      "Ġblin": 3872,
      "Ġjokes": 3873,
      "vice": 3874,
      "Ġstretched": 3875,
      "Ġbury": 3876,
      "Ġdictionary": 3877,
      "iest": 3878,
      "Ġjewelry": 3879,
      "Ġtelevision": 3880,
      "Ġperfume": 3881,
      "Ġbathrobe": 3882,
      "Ġsparkly": 3883,
      "Ġcalend": 3884,
      "Ġlightning": 3885,
      "Ġaxe": 3886,
      "Ġprov": 3887,
      "Ġstops": 3888,
      "Ġjumps": 3889,
      "Ġnature": 3890,
      "Ġsusie": 3891,
      "old": 3892,
      "Ġson": 3893,
      "Ġbeef": 3894,
      "bol": 3895,
      "mummy": 3896,
      "Ġx": 3897,
      "Ġpressed": 3898,
      "Ġalarm": 3899,
      "Ġsym": 3900,
      "Ġsymbol": 3901,
      "Ġkim": 3902,
      "Ġresist": 3903,
      "reek": 3904,
      "Ġcreek": 3905,
      "Ġattach": 3906,
      "Ġneat": 3907,
      "Ġcalendar": 3908,
      "Ġtoby": 3909,
      "Ġpopped": 3910,
      "Ġunpack": 3911,
      "Ġped": 3912,
      "Ġpapers": 3913,
      "Ġhelper": 3914,
      "Ġgasped": 3915,
      "Ġsubway": 3916,
      "del": 3917,
      "Ġfreezer": 3918,
      "mr": 3919,
      "Ġletters": 3920,
      "Ġchose": 3921,
      "Ġmustache": 3922,
      "Ġlie": 3923,
      "Ġcomfort": 3924,
      "Ġbikes": 3925,
      "zag": 3926,
      "Ġspoke": 3927,
      "Ġanyway": 3928,
      "Ġporch": 3929,
      "affe": 3930,
      "Ġshaking": 3931,
      "Ġbutterflies": 3932,
      "iches": 3933,
      "Ġtightly": 3934,
      "Ġsandwiches": 3935,
      "Ġbookcase": 3936,
      "Ġswinging": 3937,
      "Ġtut": 3938,
      "Ġweigh": 3939,
      "Ġdare": 3940,
      "Ġsquirrels": 3941,
      "aurant": 3942,
      "Ġext": 3943,
      "Ġstickers": 3944,
      "Ġrestaurant": 3945,
      "Ġagainst": 3946,
      "Ġnewspaper": 3947,
      "Ġbuckle": 3948,
      "Ġblouse": 3949,
      "Ġdisag": 3950,
      "Ġgiraffe": 3951,
      "Ġvehicle": 3952,
      "ki": 3953,
      "Ġswamp": 3954,
      "Ġbelongs": 3955,
      "ival": 3956,
      "Ġgrowing": 3957,
      "Ġinclu": 3958,
      "Ġgym": 3959,
      "Ġfest": 3960,
      "Ġbillboard": 3961,
      "Ġrubber": 3962,
      "Ġstirred": 3963,
      "Ġlip": 3964,
      "ging": 3965,
      "Ġgas": 3966,
      "ef": 3967,
      "Ġsweetie": 3968,
      "Ġcards": 3969,
      "Ġhung": 3970,
      "little": 3971,
      "Ġobser": 3972,
      "Ġdistance": 3973,
      "ogn": 3974,
      "fast": 3975,
      "Ġtease": 3976,
      "Ġagree": 3977,
      "Ġtutor": 3978,
      "Ġpup": 3979,
      "Ġrecogn": 3980,
      "Ġhate": 3981,
      "stri": 3982,
      "Ġdoesn": 3983,
      "Ġmusician": 3984,
      "Ġmodel": 3985,
      "Ġserve": 3986,
      "Ġadvice": 3987,
      "Ġblueberries": 3988,
      "Ġshel": 3989,
      "aspoon": 3990,
      "Ġfestival": 3991,
      "Ġwinter": 3992,
      "Ġcircles": 3993,
      "Ġteaspoon": 3994,
      "Ġsqueeze": 3995,
      "Ġcrib": 3996,
      "Ġapr": 3997,
      "Ġbreakfast": 3998,
      "port": 3999,
      "Ġsofa": 4000,
      "Ġreverse": 4001,
      "Ġfrogs": 4002,
      "Ġbookshe": 4003,
      "Ġsadly": 4004,
      "Ġriding": 4005,
      "Ġshelter": 4006,
      "Ġseparate": 4007,
      "asis": 4008,
      "Ġairport": 4009,
      "Ġjunk": 4010,
      "Ġlumber": 4011,
      "Ġoasis": 4012,
      "Ġwipe": 4013,
      "Ġbookshelf": 4014,
      "Ġahead": 4015,
      "Ġdrain": 4016,
      "Ġpleased": 4017,
      "Ġzigzag": 4018,
      "ten": 4019,
      "Ġrescue": 4020,
      "Ġmrs": 4021,
      "Ġdolly": 4022,
      "Ġostri": 4023,
      "Ġpainter": 4024,
      "Ġsoil": 4025,
      "Ġsummer": 4026,
      "Ġknob": 4027,
      "Ġleaving": 4028,
      "Ġpage": 4029,
      "Ġquiz": 4030,
      "Ġfort": 4031,
      "Ġpanda": 4032,
      "Ġpastel": 4033,
      "Ġchance": 4034,
      "Ġtherm": 4035,
      "Ġpoked": 4036,
      "Ġtrains": 4037,
      "Ġpeeked": 4038,
      "Ġdancer": 4039,
      "Ġknock": 4040,
      "Ġrail": 4041,
      "Ġslipp": 4042,
      "Ġpoint": 4043,
      "Ġextra": 4044,
      "Ġrefused": 4045,
      "Ġthermomet": 4046,
      "Ġrules": 4047,
      "Ġwaste": 4048,
      "Ġhappens": 4049,
      "Ġsounded": 4050,
      "Ġpeek": 4051,
      "Ġbirdc": 4052,
      "Ġins": 4053,
      "Ġdisappear": 4054,
      "Ġreef": 4055,
      "Ġlic": 4056,
      "Ġcliff": 4057,
      "Ġthermometer": 4058,
      "Ġweather": 4059,
      "Ġbirdcage": 4060,
      "Ġtheater": 4061,
      "Ġcopper": 4062,
      "Ġtrade": 4063,
      "Ġcarrying": 4064,
      "Ġinvite": 4065,
      "daisy": 4066,
      "Ġgoal": 4067,
      "Ġunif": 4068,
      "Ġuniform": 4069,
      "Ġswung": 4070,
      "Ġaccept": 4071,
      "ience": 4072,
      "Ġlawn": 4073,
      "Ġmittens": 4074,
      "Ġpandy": 4075,
      "Ġleaned": 4076,
      "angu": 4077,
      "Ġadmire": 4078,
      "Ġlangu": 4079,
      "Ġstom": 4080,
      "Ġaccidentally": 4081,
      "night": 4082,
      "Ġtwir": 4083,
      "Ġsuff": 4084,
      "friger": 4085,
      "frigerator": 4086,
      "Ġrefrigerator": 4087,
      "render": 4088,
      "Ġblinked": 4089,
      "Ġstarts": 4090,
      "Ġdreaming": 4091,
      "aced": 4092,
      "Ġanywhere": 4093,
      "!\".": 4094,
      "Ġremove": 4095,
      "Ġimagined": 4096,
      "Ġberry": 4097,
      "Ġshower": 4098,
      "Ġceiling": 4099,
      "Ġcaring": 4100,
      "Ġlee": 4101,
      "amber": 4102,
      "Ġclassroom": 4103,
      "ium": 4104,
      "Ġlawy": 4105,
      "Ġmonkeys": 4106,
      "Ġostrich": 4107,
      "Ġabove": 4108,
      "Ġlicense": 4109,
      "Ġrepeat": 4110,
      "Ġmissing": 4111,
      "Ġbrick": 4112,
      "Ġstable": 4113,
      "Ġwarned": 4114,
      "aked": 4115,
      "ected": 4116,
      "Ġwine": 4117,
      "astic": 4118,
      "Ġga": 4119,
      "Ġproblems": 4120,
      "Ġlabel": 4121,
      "Ġchasing": 4122,
      "Ġlid": 4123,
      "Ġapron": 4124,
      "Ġsent": 4125,
      "iture": 4126,
      "urniture": 4127,
      "Ġwed": 4128,
      "uggage": 4129,
      "Ġfurniture": 4130,
      "Ġrespectful": 4131,
      "Ġluggage": 4132,
      "Ġzoomed": 4133,
      "Ġfrowned": 4134,
      "Ġgrape": 4135,
      "Ġprevent": 4136,
      "Ġlions": 4137,
      "Ġpages": 4138,
      "Ġbent": 4139,
      "ations": 4140,
      "Ġmistakes": 4141,
      "Ġsunset": 4142,
      "Ġexcitedly": 4143,
      "Ġthanks": 4144,
      "Ġjail": 4145,
      "ison": 4146,
      "Ġsnugg": 4147,
      "Ġwindows": 4148,
      "Ġsuggested": 4149,
      "sses": 4150,
      "Ġlawyer": 4151,
      "Ġolder": 4152,
      "Ġribbon": 4153,
      "Ġshouts": 4154,
      "Ġbouncy": 4155,
      "Ġwisdom": 4156,
      "ded": 4157,
      "Ġspoil": 4158,
      "ucture": 4159,
      "Ġstructure": 4160,
      "Ġcur": 4161,
      "Ġfixing": 4162,
      "Ġchamber": 4163,
      "Ġdelay": 4164,
      "Ġunite": 4165,
      "did": 4166,
      "Ġfinds": 4167,
      "Ġsearching": 4168,
      "Ġhanded": 4169,
      "hy": 4170,
      "Ġfought": 4171,
      "Ġart": 4172,
      "Ġbrightly": 4173,
      "Ġmeeting": 4174,
      "Ġpair": 4175,
      "Ġchoice": 4176,
      "Ġsurprises": 4177,
      "Ġinf": 4178,
      "Ġslip": 4179,
      "Ġellie": 4180,
      "Ġfavour": 4181,
      "eterin": 4182,
      "adium": 4183,
      "eterinarian": 4184,
      "Ġstadium": 4185,
      "Ġpuddles": 4186,
      "Ġproudly": 4187,
      "Ġchairs": 4188,
      "Ġveterinarian": 4189,
      "vet": 4190,
      "rod": 4191,
      "Ġincre": 4192,
      "Ġranch": 4193,
      "your": 4194,
      "Ġintrod": 4195,
      "Ġfre": 4196,
      "Ġreve": 4197,
      "Ġargue": 4198,
      "Ġyield": 4199,
      "Ġadmired": 4200,
      "orge": 4201,
      "Ġfavourite": 4202,
      "Ġhuman": 4203,
      "Ġsteam": 4204,
      "Ġmatches": 4205,
      "Ġgrabs": 4206,
      "mend": 4207,
      "Ġmall": 4208,
      "Ġweap": 4209,
      "Ġpushing": 4210,
      "Ġsurrender": 4211,
      "bor": 4212,
      "Ġreveal": 4213,
      "Ġregret": 4214,
      "sity": 4215,
      "Ġsaving": 4216,
      "Ġnavy": 4217,
      "Ġappl": 4218,
      "Ġrecom": 4219,
      "Ġreminded": 4220,
      "Ġrecommend": 4221,
      "alley": 4222,
      "Ġleak": 4223,
      "Ġvalley": 4224,
      "Ġmineral": 4225,
      "olog": 4226,
      "cuss": 4227,
      "Ġputting": 4228,
      "Ġevening": 4229,
      "Ġclaw": 4230,
      "Ġvel": 4231,
      "Ġforgave": 4232,
      "Ġapolog": 4233,
      "Ġsocks": 4234,
      "Ġsneezed": 4235,
      "Ġignore": 4236,
      "Ġvelvet": 4237,
      "Ġspade": 4238,
      "Ġrushed": 4239,
      "Ġplates": 4240,
      "Ġdiscuss": 4241,
      "Ġharbor": 4242,
      "Ġlanguage": 4243,
      "edy": 4244,
      "Ġtip": 4245,
      "Ġprepare": 4246,
      "Ġsupply": 4247,
      "Ġbuzzy": 4248,
      "Ġplastic": 4249,
      "Ġcountry": 4250,
      "Ġmeas": 4251,
      "Ġpulls": 4252,
      "Ġstrip": 4253,
      "Ġmystery": 4254,
      "Ġsniffed": 4255,
      "Ġreplace": 4256,
      "Ġraise": 4257,
      "Ġshovel": 4258,
      "Ġcartoon": 4259,
      "Ġcared": 4260,
      "Ġrestore": 4261,
      "Ġdoors": 4262,
      "Ġlives": 4263,
      "Ġuniversity": 4264,
      "Ġsticker": 4265,
      "Ġplayer": 4266,
      "Ġsudden": 4267,
      "Ġpanic": 4268,
      "Ġslippery": 4269,
      "hero": 4270,
      "Ġkinds": 4271,
      "Ġcarl": 4272,
      "Ġhoping": 4273,
      "ricane": 4274,
      "iday": 4275,
      "Ġshone": 4276,
      "ero": 4277,
      "Ġgro": 4278,
      "Ġinfant": 4279,
      "Ġdelighted": 4280,
      "Ġbeg": 4281,
      "Ġsuperhero": 4282,
      "Ġbend": 4283,
      "Ġbinky": 4284,
      "Ġmike": 4285,
      "grandma": 4286,
      "Ġhurricane": 4287,
      "..": 4288,
      "Ġchickens": 4289,
      "boo": 4290,
      "Ġport": 4291,
      "Ġcherry": 4292,
      "Ġshoulder": 4293,
      "ah": 4294,
      "chan": 4295,
      "Ġbreat": 4296,
      "Ġcolourful": 4297,
      "mary": 4298,
      "Ġrained": 4299,
      "rise": 4300,
      "yay": 4301,
      "Ġwigg": 4302,
      "Ġalice": 4303,
      "Ġsoftly": 4304,
      "Ġspeedy": 4305,
      "Ġstitch": 4306,
      "Ġhol": 4307,
      "Ġfreeze": 4308,
      "Ġplanes": 4309,
      "Ġholiday": 4310,
      "yuck": 4311,
      "Ġthrowing": 4312,
      "Ġbarks": 4313,
      "Ġge": 4314,
      "icer": 4315,
      "ĠâĢ": 4316,
      "Ġkneel": 4317,
      "Ġfresh": 4318,
      "Ġfreddy": 4319,
      "Ġshakes": 4320,
      "Ġsunrise": 4321,
      "Ġkeeping": 4322,
      "Ġended": 4323,
      "Ġshivering": 4324,
      "xy": 4325,
      "Ġpushes": 4326,
      "Ġtrem": 4327,
      "Ġthumb": 4328,
      "Ġsuffer": 4329,
      "Ġlu": 4330,
      "Ġgiggle": 4331,
      "wards": 4332,
      "Ġpoints": 4333,
      "wo": 4334,
      "Ġenter": 4335,
      "cond": 4336,
      "imed": 4337,
      "Ġblink": 4338,
      "Ġdear": 4339,
      "Ġsecond": 4340,
      "ages": 4341,
      "Ġmass": 4342,
      "Ġsmells": 4343,
      "Ġapplau": 4344,
      "Ġweapon": 4345,
      "Ġprovide": 4346,
      "cast": 4347,
      "next": 4348,
      "Ġdishes": 4349,
      "chanic": 4350,
      "Ġmechanic": 4351,
      "Ġwre": 4352,
      "will": 4353,
      "Ġheads": 4354,
      "Ġuniverse": 4355,
      "ason": 4356,
      "Ġmenu": 4357,
      "mand": 4358,
      "Ġmeowed": 4359,
      "Ġbrighter": 4360,
      "Ġclapping": 4361,
      "Ġsandcast": 4362,
      "Ġletting": 4363,
      "Ġlaught": 4364,
      "Ġsprayed": 4365,
      "Ġlaughter": 4366,
      "Ġki": 4367,
      "Ġbree": 4368,
      "Ġscore": 4369,
      "Ġfeelings": 4370,
      "Ġsplashing": 4371,
      "Ġyawn": 4372,
      "Ġprune": 4373,
      "ement": 4374,
      "Ġrow": 4375,
      "Ġsticky": 4376,
      "Ġcastles": 4377,
      "Ġflies": 4378,
      "year": 4379,
      "Ġnobody": 4380,
      "lie": 4381,
      "ann": 4382,
      "Ġrooms": 4383,
      "Ġvroom": 4384,
      "Ġaw": 4385,
      "igi": 4386,
      "Ġdave": 4387,
      "Ġunhappy": 4388,
      "Ġzero": 4389,
      "Ġgreedy": 4390,
      "emma": 4391,
      "Ġsomewhere": 4392,
      "Ġalive": 4393,
      "Ġcourage": 4394,
      "Ġbreaks": 4395,
      "Ġener": 4396,
      "Ġrush": 4397,
      "mark": 4398,
      "Ġinvit": 4399,
      "Ġdemand": 4400,
      "Ġboo": 4401,
      "Ġpoison": 4402,
      "Ġwreck": 4403,
      "Ġtrusted": 4404,
      "lisa": 4405,
      "Ġsettle": 4406,
      "Ġexamine": 4407,
      "Ġparts": 4408,
      "Ġskill": 4409,
      "Ġmention": 4410,
      "Ġpirates": 4411,
      "Ġeaten": 4412,
      "Ġsteel": 4413,
      "Ġraining": 4414,
      "erc": 4415,
      "Ġluck": 4416,
      "ari": 4417,
      "buddy": 4418,
      "quest": 4419,
      "Ġthrows": 4420,
      "Ġjogged": 4421,
      "Ġstarting": 4422,
      "Ġsnowy": 4423,
      "Ġvac": 4424,
      "heart": 4425,
      "Ġcontent": 4426,
      "ating": 4427,
      "Ġsport": 4428,
      "Ġbye": 4429,
      "Ġsigh": 4430,
      "Ġdrops": 4431,
      "Ġkiki": 4432,
      "Ġflapped": 4433,
      "Ġexerc": 4434,
      "Ġtoe": 4435,
      "Ġzoomy": 4436,
      "Ġted": 4437,
      "Ġsparkled": 4438,
      "Ġstreng": 4439,
      "Ġgiven": 4440,
      "Ġrequest": 4441,
      "Ġstud": 4442,
      "Ġbumped": 4443,
      "Ġyawned": 4444,
      "bl": 4445,
      "Ġbouncing": 4446,
      "Ġscold": 4447,
      "ince": 4448,
      "Ġstrength": 4449,
      "Ġmyself": 4450,
      "Ġscratch": 4451,
      "Ġpunish": 4452,
      "Ġshrugged": 4453,
      "Ġpigs": 4454,
      "Ġcoats": 4455,
      "Ġequ": 4456,
      "Ġhist": 4457,
      "Ġclaws": 4458,
      "Ġupstairs": 4459,
      "Ġpaid": 4460,
      "Ġjohnny": 4461,
      "Ġbears": 4462,
      "Ġhistory": 4463,
      "Ġrhy": 4464,
      "Ġsir": 4465,
      "Ġtracks": 4466,
      "Ġnation": 4467,
      "Ġsoph": 4468,
      "Ġtide": 4469,
      "Ġprayed": 4470,
      "Ġflood": 4471,
      "Ġcrossed": 4472,
      "Ġimpressed": 4473,
      "Ġrabbits": 4474,
      "Ġsqueezed": 4475,
      "Ġleather": 4476,
      "Ġwarn": 4477,
      "Ġnews": 4478,
      "Ġbrain": 4479,
      "Ġsweetheart": 4480,
      "alice": 4481,
      "Ġbadly": 4482,
      "Ġexpect": 4483,
      "Ġminute": 4484,
      "Ġnetwork": 4485,
      "Ġsnowball": 4486,
      "Ġheat": 4487,
      "andy": 4488,
      "Ġvacation": 4489,
      "Ġstrawberries": 4490,
      "Ġobserve": 4491,
      "thm": 4492,
      "Ġexplored": 4493,
      "Ġhoppy": 4494,
      "welcome": 4495,
      "Ġlilly": 4496,
      "Ġrhythm": 4497,
      "Ġhorses": 4498,
      "Ġsandcastle": 4499,
      "mare": 4500,
      "Ġlola": 4501,
      "Ġtour": 4502,
      "Ġhi": 4503,
      "ially": 4504,
      "daddy": 4505,
      "Ġbelieved": 4506,
      "Ġblueberry": 4507,
      "Ġwriting": 4508,
      "Ġchecked": 4509,
      "Ġmandy": 4510,
      "Ġoffer": 4511,
      "Ġcheek": 4512,
      "spec": 4513,
      "Ġspots": 4514,
      "Ġeasily": 4515,
      "Ġplaced": 4516,
      "Ġbaking": 4517,
      "Ġprunes": 4518,
      "bec": 4519,
      "Ġimagination": 4520,
      "ween": 4521,
      "Ġnightmare": 4522,
      "Ġenergy": 4523,
      "Ġbetween": 4524,
      "Ġsafari": 4525,
      "Ġmassage": 4526,
      "Ġpalm": 4527,
      "Ġwaving": 4528,
      "Ġgigi": 4529,
      "izes": 4530,
      "Ġespec": 4531,
      "Ġespecially": 4532,
      "inking": 4533,
      "Ġsoak": 4534,
      "Ġstomach": 4535,
      "ding": 4536,
      "Ġstair": 4537,
      "Ġscoop": 4538,
      "quake": 4539,
      "Ġbeauty": 4540,
      "Ġinsisted": 4541,
      "Ġblowing": 4542,
      "Ġoxy": 4543,
      "before": 4544,
      "Ġentered": 4545,
      "Ġpad": 4546,
      "Ġsty": 4547,
      "oved": 4548,
      "Ġtwisted": 4549,
      "Ġbones": 4550,
      "Ġbother": 4551,
      "iggly": 4552,
      "Ġearthquake": 4553,
      "Ġtug": 4554,
      "ipment": 4555,
      "Ġhills": 4556,
      "Ġafterno": 4557,
      "Ġequipment": 4558,
      "Ġing": 4559,
      "Ġmailman": 4560,
      "Ġingred": 4561,
      "Ġcalls": 4562,
      "Ġingredient": 4563,
      "reat": 4564,
      "Ġignored": 4565,
      "Ġsew": 4566,
      "Ġburned": 4567,
      "Ġhearts": 4568,
      "Ġcapt": 4569,
      "Ġafternoon": 4570,
      "Ġlemonade": 4571,
      "Ġsqueaky": 4572,
      "Ġcrash": 4573,
      "Ġlear": 4574,
      "Ġlearnt": 4575,
      "Ġincrease": 4576,
      "Ġlemons": 4577,
      "Ġtremble": 4578,
      "Ġpedal": 4579,
      "men": 4580,
      "jenny": 4581,
      "Ġbackpack": 4582,
      "Ġwhistled": 4583,
      "Ġshopkeeper": 4584,
      "Ġpermit": 4585,
      "Ġbeans": 4586,
      "Ġyucky": 4587,
      "anges": 4588,
      "Ġmoves": 4589,
      "Ġintroduce": 4590,
      "Ġheel": 4591,
      "Ġye": 4592,
      "isty": 4593,
      "Ġfloated": 4594,
      "Ġoh": 4595,
      "nesday": 4596,
      "Ġracing": 4597,
      "nday": 4598,
      "Ġstrike": 4599,
      "Ġtraffic": 4600,
      "Ġpitch": 4601,
      "Ġsim": 4602,
      "Ġprice": 4603,
      "lex": 4604,
      "Ġplanned": 4605,
      "Ġslap": 4606,
      "Ġinclude": 4607,
      "Ġwags": 4608,
      "Ġtwisty": 4609,
      "resses": 4610,
      "Ġfollowing": 4611,
      "Ġfinny": 4612,
      "Ġexcla": 4613,
      "Ġbelow": 4614,
      "Ġgeorge": 4615,
      "eration": 4616,
      "ecting": 4617,
      "woof": 4618,
      "sur": 4619,
      "Ġweight": 4620,
      "Ġtwink": 4621,
      "house": 4622,
      "Ġelly": 4623,
      "Ġcandles": 4624,
      "Ġcomf": 4625,
      "Ġexclaimed": 4626,
      "Ġburied": 4627,
      "Ġfollows": 4628,
      "Ġrecognize": 4629,
      "Ġingredients": 4630,
      "Ġmarbles": 4631,
      "mimi": 4632,
      "riage": 4633,
      "Ġoxygen": 4634,
      "Ġalex": 4635,
      "Ġapart": 4636,
      "Ġgrowled": 4637,
      "Ġwednesday": 4638,
      "Ġteaching": 4639,
      "ores": 4640,
      "Ġfolded": 4641,
      "Ġencourage": 4642,
      "Ġhopes": 4643,
      "Ġclosely": 4644,
      "Ġfinn": 4645,
      "urther": 4646,
      "Ġwinning": 4647,
      "Ġsunday": 4648,
      "Ġdigg": 4649,
      "Ġpulling": 4650,
      "Ġpaul": 4651,
      "Ġfurther": 4652,
      "rec": 4653,
      "Ġdigging": 4654,
      "Ġchewed": 4655,
      "Ġseeing": 4656,
      "Ġsnail": 4657,
      "with": 4658,
      "Ġfroggy": 4659,
      "Ġpeanuts": 4660,
      "Ġworms": 4661,
      "Ġcaptain": 4662,
      "Ġisn": 4663,
      "Ġpuzzles": 4664,
      "Ġdresses": 4665,
      "Ġglo": 4666,
      "Ġimage": 4667,
      "Ġshouting": 4668,
      "Ġwhisper": 4669,
      "cery": 4670,
      "Ġflap": 4671,
      "Ġgrocery": 4672,
      "Ġhon": 4673,
      "Ġexercise": 4674,
      "Ġacorns": 4675,
      "Ġurge": 4676,
      "Ġblood": 4677,
      "Ġdot": 4678,
      "fi": 4679,
      "Ġchores": 4680,
      "Ġcape": 4681,
      "Ġwiggly": 4682,
      "Ġcub": 4683,
      "hood": 4684,
      "Ġdeeper": 4685,
      "unch": 4686,
      "Ġwashing": 4687,
      "Ġexper": 4688,
      "Ġtilly": 4689,
      "Ġoperation": 4690,
      "Ġpapa": 4691,
      "Ġattention": 4692,
      "Ġplanted": 4693,
      "ecture": 4694,
      "Ġunderground": 4695,
      "Ġlecture": 4696,
      "Ġdanny": 4697,
      "bella": 4698,
      "Ġquite": 4699,
      "Ġagre": 4700,
      "Ġmarriage": 4701,
      "everyone": 4702,
      "Ġcreatures": 4703,
      "Ġsprink": 4704,
      "Ġstruggle": 4705,
      "Ġwelcom": 4706,
      "Ġgifts": 4707,
      "Ġhurting": 4708,
      "Ġelephants": 4709,
      "Ġdressed": 4710,
      "Ġvanished": 4711,
      "Ġpau": 4712,
      "right": 4713,
      "Ġinvitation": 4714,
      "Ġsolved": 4715,
      "Ġsnuggled": 4716,
      "Ġlicks": 4717,
      "Ġwarning": 4718,
      "Ġquietly": 4719,
      "Ġsandy": 4720,
      "because": 4721,
      "Ġbreathe": 4722,
      "Ġduring": 4723,
      "remy": 4724,
      "Ġmice": 4725,
      "reci": 4726,
      "Ġappreci": 4727,
      "Ġjoey": 4728,
      "Ġlandscape": 4729,
      "Ġsizes": 4730,
      "looking": 4731,
      "Ġdried": 4732,
      "Ġfallen": 4733,
      "Ġstyle": 4734,
      "oral": 4735,
      "Ġeagerly": 4736,
      "Ġquack": 4737,
      "Ġneighbour": 4738,
      "essed": 4739,
      "gging": 4740,
      "Ġsophie": 4741,
      "Ġlung": 4742,
      "Ġfireworks": 4743,
      "Ġsailing": 4744,
      "ĠâĢĵ": 4745,
      "Ġpaused": 4746,
      "Ġcounter": 4747,
      "Ġrelease": 4748,
      "Ġbalan": 4749,
      "Ġworth": 4750,
      "Ġwink": 4751,
      "ips": 4752,
      "ories": 4753,
      "Ġgod": 4754,
      "Ġshined": 4755,
      "Ġreaches": 4756,
      "Ġbang": 4757,
      "Ġzara": 4758,
      "Ġbricks": 4759,
      "Ġkisses": 4760,
      "Ġplays": 4761,
      "Ġideas": 4762,
      "Ġtuesday": 4763,
      "these": 4764,
      "Ġmuddy": 4765,
      "today": 4766,
      "Ġsince": 4767,
      "Ġmemory": 4768,
      "che": 4769,
      "pted": 4770,
      "Ġbur": 4771,
      "fred": 4772,
      "Ġaccepted": 4773,
      "Ġpinky": 4774,
      "Ġtomatoes": 4775,
      "Ġfashion": 4776,
      "Ġble": 4777,
      "Ġexit": 4778,
      "Ġmarried": 4779,
      "Ġannie": 4780,
      "Ġwagging": 4781,
      "Ġcharlie": 4782,
      "Ġwandered": 4783,
      "unately": 4784,
      "Ġgloves": 4785,
      "Ġpillows": 4786,
      "Ġreceive": 4787,
      "Ġresp": 4788,
      "Ġweb": 4789,
      "etch": 4790,
      "Ġpetals": 4791,
      "surpr": 4792,
      "Ġwatered": 4793,
      "sing": 4794,
      "Ġprinter": 4795,
      "Ġmanage": 4796,
      "Ġvanish": 4797,
      "ouraged": 4798,
      "Ġbrings": 4799,
      "Ġpinched": 4800,
      "Ġcakes": 4801,
      "Ġbluey": 4802,
      "Ġallow": 4803,
      "meow": 4804,
      "Ġfifi": 4805,
      "Ġtreasures": 4806,
      "Ġdestroyed": 4807,
      "Ġworse": 4808,
      "nce": 4809,
      "Ġhadn": 4810,
      "ups": 4811,
      "ipping": 4812,
      "Ġdisagree": 4813,
      "Ġcatching": 4814,
      "Ġappear": 4815,
      "Ġhits": 4816,
      "xu": 4817,
      "Ġmemories": 4818,
      "gie": 4819,
      "Ġoranges": 4820,
      "Ġscattered": 4821,
      "yum": 4822,
      "Ġpears": 4823,
      "Ġsi": 4824,
      "Ġsorts": 4825,
      "Ġsigns": 4826,
      "Ġhers": 4827,
      "Ġscolded": 4828,
      "Ġsliding": 4829,
      "Ġrang": 4830,
      "Ġseats": 4831,
      "Ġsnapped": 4832,
      "Ġsits": 4833,
      "Ġraised": 4834,
      "Ġgazed": 4835,
      "Ġfro": 4836,
      "Ġluxu": 4837,
      "Ġprints": 4838,
      "Ġmaria": 4839,
      "Ġpies": 4840,
      "Ġzipped": 4841,
      "Ġshot": 4842,
      "Ġcrow": 4843,
      "Ġeasier": 4844,
      "ssible": 4845,
      "omed": 4846,
      "Ġskills": 4847,
      "Ġclimbs": 4848,
      "Ġsoc": 4849,
      "Ġcutting": 4850,
      "Ġtwirled": 4851,
      "Ġgolden": 4852,
      "Ġblankets": 4853,
      "Ġforgotten": 4854,
      "Ġbaked": 4855,
      "sterday": 4856,
      "Ġdifference": 4857,
      "sit": 4858,
      "Ġseason": 4859,
      "orted": 4860,
      "Ġsoccer": 4861,
      "ising": 4862,
      "Ġsorting": 4863,
      "goodbye": 4864,
      "Ġnowhere": 4865,
      "fortunately": 4866,
      "Ġjogging": 4867,
      "Ġdared": 4868,
      "Ġbites": 4869,
      "Ġharry": 4870,
      "Ġhenry": 4871,
      "Ġcelebrated": 4872,
      "Ġstraight": 4873,
      "sters": 4874,
      "surprise": 4875,
      "Ġimm": 4876,
      "Ġunlocked": 4877,
      "Ġbleed": 4878,
      "Ġcollected": 4879,
      "cat": 4880,
      "dog": 4881,
      "Ġwelcomed": 4882,
      "Ġspoons": 4883,
      "Ġours": 4884,
      "Ġemer": 4885,
      "Ġvisited": 4886,
      "Ġvict": 4887,
      "nies": 4888,
      "ys": 4889,
      "Ġluxury": 4890,
      "edi": 4891,
      "chie": 4892,
      "Ġsparkle": 4893,
      "Ġmeow": 4894,
      "ediately": 4895,
      "Ġwinner": 4896,
      "Ġtong": 4897,
      "Ġtrave": 4898,
      "Ġruin": 4899,
      "Ġeveryday": 4900,
      "Ġmarching": 4901,
      "Ġprett": 4902,
      "moral": 4903,
      "Ġattached": 4904,
      "Ġwest": 4905,
      "ived": 4906,
      "Ġtony": 4907,
      "Ġweeping": 4908,
      "Ġfrost": 4909,
      "Ġsimple": 4910,
      "Ġkingdom": 4911,
      "Ġshouldn": 4912,
      "Ġpets": 4913,
      "Ġimmediately": 4914,
      "Ġguessed": 4915,
      "Ġolives": 4916,
      "Ġwaist": 4917,
      "Ġstuffed": 4918,
      "Ġcreated": 4919,
      "ction": 4920,
      "Ġselling": 4921,
      "Ġfamil": 4922,
      "Ġfloating": 4923,
      "Ġsmith": 4924,
      "Ġurged": 4925,
      "Ġwoof": 4926,
      "Ġbowed": 4927,
      "Ġkicking": 4928,
      "Ġref": 4929,
      "Ġgrant": 4930,
      "Ġpunished": 4931,
      "Ġtoes": 4932,
      "Ġjewels": 4933,
      "Ġmuscles": 4934,
      "Ġrosie": 4935,
      "Ġgrin": 4936,
      "Ġmelted": 4937,
      "bug": 4938,
      "Ġwaffles": 4939,
      "Ġnone": 4940,
      "Ġunderstanding": 4941,
      "Ġslice": 4942,
      "Ġtore": 4943,
      "Ġcollection": 4944,
      "Ġmeasured": 4945,
      "Ġbeds": 4946,
      "Ġtrapped": 4947,
      "omeday": 4948,
      "Ġlined": 4949,
      "Ġpearl": 4950,
      "'ve": 4951,
      "Ġencouraged": 4952,
      "iers": 4953,
      "Ġacted": 4954,
      "Ġpeaches": 4955,
      "Ġruby": 4956,
      "Ġreceived": 4957,
      "hest": 4958,
      "Ġwally": 4959,
      "Ġpupil": 4960,
      "Ġbrus": 4961,
      "Ġpatterns": 4962,
      "kins": 4963,
      "Ġsomeday": 4964,
      "Ġmouths": 4965,
      "eath": 4966,
      "Ġbreeze": 4967,
      "Ġkate": 4968,
      "mer": 4969,
      "Ġsoldiers": 4970,
      "Ġvictory": 4971,
      "Ġpotatoes": 4972,
      "Ġprinted": 4973,
      "Ġyesterday": 4974,
      "ents": 4975,
      "bird": 4976,
      "umes": 4977,
      "Ġmillie": 4978,
      "Ġdrinks": 4979,
      "Ġwhistling": 4980,
      "Ġexperience": 4981,
      "Ġshed": 4982,
      "Ġdrinking": 4983,
      "Ġpresents": 4984,
      "ker": 4985,
      "Ġsurround": 4986,
      "Ġjess": 4987,
      "Ġskipping": 4988,
      "Ġsix": 4989,
      "Ġcau": 4990,
      "Ġteasing": 4991,
      "Ġbreaking": 4992,
      "Ġvoices": 4993,
      "Ġrocky": 4994,
      "cus": 4995,
      "Ġrelaxed": 4996,
      "Ġpaints": 4997,
      "Ġfetch": 4998,
      "Ġtonight": 4999,
      "Ġhurried": 5000,
      "ission": 5001,
      "Ġtongue": 5002,
      "Ġflat": 5003,
      "Ġcostumes": 5004,
      "ishing": 5005,
      "Ġmentioned": 5006,
      "Ġbegged": 5007,
      "Ġpermission": 5008,
      "Ġsip": 5009,
      "Ġdisagreed": 5010,
      "Ġgran": 5011,
      "Ġfishing": 5012,
      "Ġapplaud": 5013,
      "vest": 5014,
      "Ġcontest": 5015,
      "Ġopin": 5016,
      "Ġappro": 5017,
      "Ġlets": 5018,
      "Ġhighest": 5019,
      "leo": 5020,
      "Ġeast": 5021,
      "Ġstealing": 5022,
      "blue": 5023,
      "Ġpra": 5024,
      "Ġspit": 5025,
      "Ġshadows": 5026,
      "Ġwatches": 5027,
      "Ġringing": 5028,
      "Ġsorted": 5029,
      "Ġherbs": 5030,
      "Ġescap": 5031,
      "osed": 5032,
      "Ġperfectly": 5033,
      "walk": 5034,
      "Ġwarmth": 5035,
      "Ġsett": 5036,
      "Ġremained": 5037,
      "Ġofficer": 5038,
      "Ġray": 5039,
      "bbled": 5040,
      "ĊĠ": 5041,
      "Ġsneak": 5042,
      "bobby": 5043,
      "irring": 5044,
      "Ġlips": 5045,
      "Ġkneeled": 5046,
      "Ġcartoons": 5047,
      "Ġstamps": 5048,
      "Ġzo": 5049,
      "Ġmister": 5050,
      "Ġcrunch": 5051,
      "Ġcolours": 5052,
      "Ġsidewalk": 5053,
      "Ġmixing": 5054,
      "Ġago": 5055,
      "Ġtoto": 5056,
      "Ġheaded": 5057,
      "Ġroots": 5058,
      "Ġfed": 5059,
      "\",": 5060,
      "ety": 5061,
      "Ġsupposed": 5062,
      "bey": 5063,
      "Ġemergen": 5064,
      "Ġlick": 5065,
      "utter": 5066,
      "Ġshock": 5067,
      "Ġdecorations": 5068,
      "Ġmelting": 5069,
      "Ġknown": 5070,
      "med": 5071,
      "Ġwiggle": 5072,
      "mandy": 5073,
      "Ġbrid": 5074,
      "Ġlines": 5075,
      "Ġweig": 5076,
      "Ġali": 5077,
      "Ġworks": 5078,
      "Ġrested": 5079,
      "Ġinch": 5080,
      "Ġsuzy": 5081,
      "Ġjul": 5082,
      "Ġinstr": 5083,
      "Ġlaid": 5084,
      "Ġsucceeded": 5085,
      "Ġcones": 5086,
      "atch": 5087,
      "Ġgirls": 5088,
      "Ġhowever": 5089,
      "Ġsetting": 5090,
      "angers": 5091,
      "Ġmoments": 5092,
      "Ġtwigs": 5093,
      "really": 5094,
      "Ġstrangers": 5095,
      "Ġstudied": 5096,
      "Ġstirring": 5097,
      "Ġalright": 5098,
      "Ġtheirs": 5099,
      "unny": 5100,
      "!\",": 5101,
      "Ġscreams": 5102,
      "Ġlands": 5103,
      "Ġordered": 5104,
      "Ġbravely": 5105,
      "Ġfiref": 5106,
      "Ġfields": 5107,
      "Ġrul": 5108,
      "Ġresting": 5109,
      "Ġthreat": 5110,
      "!'": 5111,
      "Ġinvest": 5112,
      "Ġclara": 5113,
      "Ġplaytime": 5114,
      "Ġscratched": 5115,
      "Ġburning": 5116,
      "Ġripped": 5117,
      "Ġtucked": 5118,
      "Ġinvestig": 5119,
      "Ġtext": 5120,
      "Ġladybug": 5121,
      "Ġbridges": 5122,
      "Ġchicky": 5123,
      "sammy": 5124,
      "bies": 5125,
      "ishes": 5126,
      "Ġturning": 5127,
      "Ġsettled": 5128,
      "Ġachie": 5129,
      "Ġmatched": 5130,
      "Ġnails": 5131,
      "Ġtexture": 5132,
      "ship": 5133,
      "acked": 5134,
      "Ġwaits": 5135,
      "mbling": 5136,
      "Ġsilence": 5137,
      "peter": 5138,
      "Ġtrembling": 5139,
      "Ġmuffins": 5140,
      "Ġappreciate": 5141,
      "would": 5142,
      "Ġbroom": 5143,
      "ored": 5144,
      "Ġwiz": 5145,
      "Ġemergency": 5146,
      "Ġsafety": 5147,
      "Ġpiles": 5148,
      "Ġjames": 5149,
      "Ġescaped": 5150,
      "po": 5151,
      "Ġbabies": 5152,
      "Ġchewing": 5153,
      "Ġinvestigate": 5154,
      "Ġpupp": 5155,
      "osity": 5156,
      "Ġadmir": 5157,
      "Ġsore": 5158,
      "Ġarea": 5159,
      "Ġsisters": 5160,
      "Ġdads": 5161,
      "Ġanswers": 5162,
      "Ġkeys": 5163,
      "atie": 5164,
      "Ġboom": 5165,
      "Ġslapped": 5166,
      "cl": 5167,
      "zing": 5168,
      "Ġimportance": 5169,
      "Ġserved": 5170,
      "izing": 5171,
      "mother": 5172,
      "ides": 5173,
      "Ġtouching": 5174,
      "allen": 5175,
      "Ġsoared": 5176,
      "Ġdino": 5177,
      "igail": 5178,
      "Ġsings": 5179,
      "antly": 5180,
      "Ġbeat": 5181,
      "chel": 5182,
      "Ġdinosaurs": 5183,
      "Ġtwin": 5184,
      "momo": 5185,
      "Ġchallen": 5186,
      "Ġhesit": 5187,
      "any": 5188,
      "Ġkeeps": 5189,
      "Ġamazement": 5190,
      "Ġrevealed": 5191,
      "Ġwizard": 5192,
      "Ġitem": 5193,
      "Ġmoo": 5194,
      "Ġsoaked": 5195,
      "Ġwrit": 5196,
      "Ġrides": 5197,
      "Ġfoods": 5198,
      "Ġvet": 5199,
      "Ġdire": 5200,
      "Ġtickle": 5201,
      "akes": 5202,
      "Ġnapping": 5203,
      "jam": 5204,
      "Ġrecorded": 5205,
      "Ġstudying": 5206,
      "Ġsprinkles": 5207,
      "Ġtrips": 5208,
      "Ġglowed": 5209,
      "Ġbeamed": 5210,
      "Ġcurled": 5211,
      "Ġhated": 5212,
      "Ġshopping": 5213,
      "event": 5214,
      "Ġeats": 5215,
      "Ġflutter": 5216,
      "Ġthri": 5217,
      "Ġcrawling": 5218,
      "eventually": 5219,
      "Ġpraised": 5220,
      "Ġbringing": 5221,
      "Ġwooden": 5222,
      "Ġshooting": 5223,
      "Ġbrushes": 5224,
      "Ġruler": 5225,
      "Ġgust": 5226,
      "Ġspaceship": 5227,
      "Ġmonsters": 5228,
      "Ġflav": 5229,
      "Ġdownstairs": 5230,
      "Ġmeasuring": 5231,
      "Ġtastes": 5232,
      "Ġyouth": 5233,
      "Ġcuddled": 5234,
      "Ġmarks": 5235,
      "mmm": 5236,
      "Ġcollecting": 5237,
      "Ġfut": 5238,
      "Ġfuture": 5239,
      "Ġgrey": 5240,
      "somet": 5241,
      "Ġfamilies": 5242,
      "'.": 5243,
      "ab": 5244,
      "dan": 5245,
      "Ġresult": 5246,
      "jake": 5247,
      "Ġapproached": 5248,
      "Ġleader": 5249,
      "Ġcrunchy": 5250,
      "Ġsneaky": 5251,
      "Ġbleeding": 5252,
      "irts": 5253,
      "Ġnoon": 5254,
      "Ġremembers": 5255,
      "Ġnaps": 5256,
      "Ġnicer": 5257,
      "Ġmotion": 5258,
      "Ġdisturbed": 5259,
      "Ġfiremen": 5260,
      "Ġscaring": 5261,
      "mar": 5262,
      "Ġpeel": 5263,
      "have": 5264,
      "Ġneighborhood": 5265,
      "rem": 5266,
      "Ġrust": 5267,
      "Ġpossible": 5268,
      "emily": 5269,
      "Ġapologized": 5270,
      "Ġtickets": 5271,
      "Ġweighed": 5272,
      "Ġanytime": 5273,
      "Ġpride": 5274,
      "Ġprop": 5275,
      "Ġloose": 5276,
      "aved": 5277,
      "Ġpoking": 5278,
      "Ġpoems": 5279,
      "Ġwonders": 5280,
      "cious": 5281,
      "Ġstrings": 5282,
      "Ġrecognized": 5283,
      "Ġsiren": 5284,
      "Ġopinion": 5285,
      "fied": 5286,
      "Ġwanting": 5287,
      "Ġawe": 5288,
      "Ġtricked": 5289,
      "Ġdar": 5290,
      "Ġgained": 5291,
      "Ġcrashed": 5292,
      "Ġworker": 5293,
      "Ġseesaw": 5294,
      "Ġyelling": 5295,
      "Ġacting": 5296,
      "Ġchef": 5297,
      "Ġzooming": 5298,
      "Ġdraws": 5299,
      "Ġscooped": 5300,
      ".'": 5301,
      "ollie": 5302,
      "Ġprepared": 5303,
      "Ġbunnies": 5304,
      "Ġgrinned": 5305,
      "tr": 5306,
      "ira": 5307,
      "Ġhappiest": 5308,
      "ues": 5309,
      "Ġlou": 5310,
      "Ġsneaked": 5311,
      "Ġgoodnight": 5312,
      "Ġrespons": 5313,
      "Ġeff": 5314,
      "Ġslim": 5315,
      "Ġpause": 5316,
      "Ġlizzy": 5317,
      "Ġowned": 5318,
      "ales": 5319,
      "ember": 5320,
      "Ġsecrets": 5321,
      "Ġstruck": 5322,
      "Ġpedals": 5323,
      "Ġknelt": 5324,
      "remember": 5325,
      "Ġkeeper": 5326,
      "Ġdecorated": 5327,
      "Ġhorns": 5328,
      "Ġagreement": 5329,
      "ped": 5330,
      "Ġobey": 5331,
      "ided": 5332,
      "Ġbirdie": 5333,
      "Ġtallest": 5334,
      "Ġrobb": 5335,
      "act": 5336,
      "zoom": 5337,
      "nie": 5338,
      "ena": 5339,
      "Ġdecides": 5340,
      "ley": 5341,
      "cky": 5342,
      "Ġbehaved": 5343,
      "lier": 5344,
      "Ġtugged": 5345,
      "Ġsides": 5346,
      "Ġprecious": 5347,
      "zen": 5348,
      "Ġsparkling": 5349,
      "Ġchirped": 5350,
      "una": 5351,
      "Ġpurr": 5352,
      "Ġbalancing": 5353,
      "Ġstro": 5354,
      "Ġcuriosity": 5355,
      "Ġrepeated": 5356,
      "Ġtwinkle": 5357,
      "ana": 5358,
      "Ġcontain": 5359,
      "Ġclaps": 5360,
      "Ġgiraff": 5361,
      "Ġsnowballs": 5362,
      "Ġgiraffes": 5363,
      "Ġspending": 5364,
      "Ġourselves": 5365,
      "Ġkindly": 5366,
      "first": 5367,
      "ho": 5368,
      "omas": 5369,
      "Ġwrites": 5370,
      "ppers": 5371,
      "Ġfrozen": 5372,
      "Ġslimy": 5373,
      "Ġfrosting": 5374,
      "shing": 5375,
      "Ġhissed": 5376,
      "Ġhonk": 5377,
      "Ġeffort": 5378,
      "Ġbuzzing": 5379,
      "Ġadmiring": 5380,
      "Ġstruggled": 5381,
      "Ġsteve": 5382,
      "Ġrele": 5383,
      "Ġsweeties": 5384,
      "Ġstaying": 5385,
      "Ġbrushed": 5386,
      "Ġbloomed": 5387,
      "Ġcomfy": 5388,
      "susie": 5389,
      "Ġrubbing": 5390,
      "Ġrocking": 5391,
      "Ġpolished": 5392,
      "sometimes": 5393,
      "Ġbeside": 5394,
      "Ġsmiley": 5395,
      "Ġzoe": 5396,
      "Ġwhatever": 5397,
      "Ġradishes": 5398,
      "Ġfolding": 5399,
      "rex": 5400,
      "Ġthrilled": 5401,
      "Ġstripes": 5402,
      "vroom": 5403,
      "Ġeight": 5404,
      "Ġdav": 5405,
      "Ġpockets": 5406,
      "ducky": 5407,
      "Ġpebbles": 5408,
      "icing": 5409,
      "Ġmaggie": 5410,
      "Ġmachines": 5411,
      "choo": 5412,
      "Ġearlier": 5413,
      "Ġhugging": 5414,
      "ush": 5415,
      "Ġseems": 5416,
      "Ġcircus": 5417,
      "Ġcuddles": 5418,
      "yummy": 5419,
      "Ġtraveled": 5420,
      "Ġeag": 5421,
      "Ġopening": 5422,
      "Ġloving": 5423,
      "Ġcracked": 5424,
      "ities": 5425,
      "Ġfuzzy": 5426,
      "Ġzookeeper": 5427,
      "Ġmatching": 5428,
      "Ġsting": 5429,
      "Ġspraying": 5430,
      "Ġdusty": 5431,
      "Ġsurrounded": 5432,
      "Ġrachel": 5433,
      "Ġgaze": 5434,
      "Ġdemanded": 5435,
      "Ġpaintings": 5436,
      "Ġremoved": 5437,
      "Ġtoss": 5438,
      "Ġhardly": 5439,
      "Ġcatches": 5440,
      "Ġbelly": 5441,
      "tles": 5442,
      "Ġpowers": 5443,
      "Ġloaded": 5444,
      "Ġpippa": 5445,
      "Ġpots": 5446,
      "Ġsplashes": 5447,
      "Ġapologize": 5448,
      "thanks": 5449,
      "Ġpetted": 5450,
      "Ġdavid": 5451,
      "Ġstare": 5452,
      "Ġorganizing": 5453,
      "Ġdiving": 5454,
      "Ġeagle": 5455,
      "Ġrocked": 5456,
      "Ġcomforted": 5457,
      "Ġstruggling": 5458,
      "Ġdecision": 5459,
      "Ġribbons": 5460,
      "Ġpastels": 5461,
      "itten": 5462,
      "Ġsled": 5463,
      "Ġsadness": 5464,
      "whis": 5465,
      "Ġexpected": 5466,
      "Ġdeser": 5467,
      "Ġsteep": 5468,
      "Ġneighbors": 5469,
      "Ġprotected": 5470,
      "Ġchases": 5471,
      "during": 5472,
      "Ġgranted": 5473,
      "Ġcrumb": 5474,
      "Ġpurred": 5475,
      "Ġconf": 5476,
      "Ġheroes": 5477,
      "Ġsunlight": 5478,
      "rr": 5479,
      "whiskers": 5480,
      "Ġdragons": 5481,
      "Ġsparkles": 5482,
      "Ġdipped": 5483,
      "Ġlied": 5484,
      "Ġfrank": 5485,
      "Ġroads": 5486,
      "Ġsafer": 5487,
      "Ġmilly": 5488,
      "Ġscru": 5489,
      "Ġargued": 5490,
      "ippy": 5491,
      "Ġgoals": 5492,
      "Ġcrabs": 5493,
      "Ġabigail": 5494,
      "Ġdiscovery": 5495,
      "loe": 5496,
      "Ġpeered": 5497,
      "Ġgrandmother": 5498,
      "Ġspiders": 5499,
      "Ġfasc": 5500,
      "Ġpolishing": 5501,
      "Ġparties": 5502,
      "aster": 5503,
      "Ġbuildings": 5504,
      "Ġwherever": 5505,
      "beep": 5506,
      "Ġbuckets": 5507,
      "Ġbeard": 5508,
      "Ġwedding": 5509,
      "Ġrefu": 5510,
      "Ġplanets": 5511,
      "Ġrobby": 5512,
      "Ġtails": 5513,
      "Ġchr": 5514,
      "Ġsausages": 5515,
      "Ġreleased": 5516,
      "Ġgogo": 5517,
      "Ġpatience": 5518,
      "Ġcontro": 5519,
      "Ġbottles": 5520,
      "Ġargu": 5521,
      "Ġroaring": 5522,
      "Ġlimes": 5523,
      "Ġwiggled": 5524,
      "uh": 5525,
      "car": 5526,
      "Ġteased": 5527,
      "Ġarguing": 5528,
      "Ġdragged": 5529,
      "Ġmovies": 5530,
      "Ġshirts": 5531,
      "Ġhoot": 5532,
      "Ġclearing": 5533,
      "Ġbumpy": 5534,
      "die": 5535,
      "Ġgathering": 5536,
      "Ġairpl": 5537,
      "Ġcuddle": 5538,
      "ud": 5539,
      "Ġstretching": 5540,
      "owers": 5541,
      "joyed": 5542,
      "Ġteaches": 5543,
      "Ġrefre": 5544,
      "Ġexplorer": 5545,
      "Ġpadd": 5546,
      "Ġoverjoyed": 5547,
      "Ġsoaring": 5548,
      "Ġactually": 5549,
      "Ġpeppers": 5550,
      "Ġsighs": 5551,
      "Ġcontinue": 5552,
      "Ġquarreling": 5553,
      "Ġrip": 5554,
      "Ġsmallest": 5555,
      "Ġfascin": 5556,
      "Ġchallenge": 5557,
      "...": 5558,
      "Ġdrives": 5559,
      "Ġcubes": 5560,
      "Ġtalent": 5561,
      "Ġsitu": 5562,
      "Ġpouring": 5563,
      "Ġolly": 5564,
      "Ġbank": 5565,
      "agers": 5566,
      "Ġwondering": 5567,
      "Ġcuts": 5568,
      "Ġpretends": 5569,
      "Ġweeks": 5570,
      "Ġcaut": 5571,
      "Ġmane": 5572,
      "achoo": 5573,
      "Ġshivered": 5574,
      "Ġpenguins": 5575,
      "tiny": 5576,
      "Ġrings": 5577,
      "Ġvillagers": 5578,
      "Ġunited": 5579,
      "free": 5580,
      "Ġdarker": 5581,
      "Ġonwards": 5582,
      "Ġyoun": 5583,
      "Ġbead": 5584,
      "Ġkatie": 5585,
      "tha": 5586,
      "Ġunfortunately": 5587,
      "Ġpiggy": 5588,
      "Ġprettiest": 5589,
      "johnny": 5590,
      "leted": 5591,
      "Ġrealize": 5592,
      "Ġcompany": 5593,
      "Ġbaker": 5594,
      "ib": 5595,
      "luna": 5596,
      "Ġbedtime": 5597,
      "whe": 5598,
      "Ġknights": 5599,
      "Ġcontrol": 5600,
      "Ġcompleted": 5601,
      "enny": 5602,
      "Ġflags": 5603,
      "ther": 5604,
      "âĢĿ.": 5605,
      "Ġshrug": 5606,
      "Ġyum": 5607,
      "Ġactions": 5608,
      "grandpa": 5609,
      "Ġplayroom": 5610,
      "Ġkites": 5611,
      "umble": 5612,
      "Ġlearns": 5613,
      "Ġgotten": 5614,
      "Ġwires": 5615,
      "Ġreply": 5616,
      "Ġpacking": 5617,
      "Ġresponsible": 5618,
      "Ġfears": 5619,
      "Ġdestination": 5620,
      "Ġmountains": 5621,
      "chirp": 5622,
      "Ġsatis": 5623,
      "Ġwrist": 5624,
      "Ġthird": 5625,
      "bbing": 5626,
      "Ġfault": 5627,
      "Ġapplauded": 5628,
      "Ġscrubbed": 5629,
      "Ġava": 5630,
      "Ġcrept": 5631,
      "Ġguns": 5632,
      "Ġpencils": 5633,
      "Ġwins": 5634,
      "Ġvisiting": 5635,
      "Ġjoking": 5636,
      "Ġsticking": 5637,
      "icorn": 5638,
      "Ġpeas": 5639,
      "Ġstaring": 5640,
      "Ġwound": 5641,
      "Ġuses": 5642,
      "Ġreminder": 5643,
      "Ġneither": 5644,
      "fo": 5645,
      "Ġunicorn": 5646,
      "Ġhitting": 5647,
      "Ġawake": 5648,
      "ĠĠ": 5649,
      "Ġscreaming": 5650,
      "Ġhealed": 5651,
      "Ġhelmets": 5652,
      "Ġscur": 5653,
      "Ġsnakes": 5654,
      "watch": 5655,
      "Ġforgi": 5656,
      "Ġbegin": 5657,
      "silly": 5658,
      "Ġglitter": 5659,
      "Ġwhose": 5660,
      "Ġfirefight": 5661,
      "stay": 5662,
      "ica": 5663,
      "Ġchips": 5664,
      "Ġtowels": 5665,
      "seek": 5666,
      "Ġlollipops": 5667,
      "enty": 5668,
      "Ġmasks": 5669,
      "Ġcreation": 5670,
      "Ġwasted": 5671,
      "run": 5672,
      "ler": 5673,
      "Ġitems": 5674,
      "Ġseas": 5675,
      "Ġscales": 5676,
      "Ġinstruct": 5677,
      "Ġoutdo": 5678,
      "Ġheav": 5679,
      "Ġdeal": 5680,
      "zes": 5681,
      "Ġdied": 5682,
      "Ġhippy": 5683,
      "Ġbatteries": 5684,
      "Ġpumpkins": 5685,
      "Ġlogs": 5686,
      "Ġarrive": 5687,
      "Ġweren": 5688,
      "Ġperched": 5689,
      "Ġstartled": 5690,
      "Ġstole": 5691,
      "Ġaccom": 5692,
      "Ġpracticing": 5693,
      "Ġroses": 5694,
      "Ġachieve": 5695,
      "Ġcandies": 5696,
      "Ġswoop": 5697,
      "Ġinstructions": 5698,
      "Ġagrees": 5699,
      "Ġproject": 5700,
      "Ġwid": 5701,
      "Ġchirping": 5702,
      "hins": 5703,
      "Ġprotecting": 5704,
      "Ġshelves": 5705,
      "benny": 5706,
      "son": 5707,
      "Ġpatiently": 5708,
      "Ġvideos": 5709,
      "ern": 5710,
      "Ġpuff": 5711,
      "Ġexact": 5712,
      "Ġparked": 5713,
      "ew": 5714,
      "Ġactiv": 5715,
      "Ġpromises": 5716,
      "sa": 5717,
      "Ġshoulders": 5718,
      "Ġdolphins": 5719,
      "Ġbop": 5720,
      "Ġdent": 5721,
      "Ġblows": 5722,
      "san": 5723,
      "ining": 5724,
      "Ġairplane": 5725,
      "Ġexamined": 5726,
      "doggy": 5727,
      "jamas": 5728,
      "ners": 5729,
      "Ġjan": 5730,
      "Ġtasks": 5731,
      "Ġaccompl": 5732,
      "Ġbrownie": 5733,
      "ba": 5734,
      "bunny": 5735,
      "dave": 5736,
      "poppy": 5737,
      "away": 5738,
      "Ġbeads": 5739,
      "Ġbowls": 5740,
      "Ġeverybody": 5741,
      "Ġcrumbs": 5742,
      "bad": 5743,
      "bel": 5744,
      "aded": 5745,
      "Ġreaching": 5746,
      "Ġlistens": 5747,
      "Ġcatty": 5748,
      "allow": 5749,
      "pete": 5750,
      "ggie": 5751,
      "uest": 5752,
      "Ġcough": 5753,
      "Ġbunch": 5754,
      "Ġguest": 5755,
      "Ġbrand": 5756,
      "cakes": 5757,
      "Ġrainbows": 5758,
      "cc": 5759,
      "Ġimproved": 5760,
      "Ġrequested": 5761,
      "Ġremote": 5762,
      "Ġtru": 5763,
      "oops": 5764,
      "Ġalien": 5765,
      "apping": 5766,
      "Ġcopy": 5767,
      "Ġphotos": 5768,
      "Ġstumble": 5769,
      "Ġchoo": 5770,
      "Ġcheering": 5771,
      "Ġjulie": 5772,
      "oming": 5773,
      "Ġcans": 5774,
      "Ġworkers": 5775,
      "Ġtimer": 5776,
      "Ġreplaced": 5777,
      "soph": 5778,
      "Ġstern": 5779,
      "weet": 5780,
      "Ġtwirl": 5781,
      "bert": 5782,
      "Ġcomplaining": 5783,
      "mike": 5784,
      "Ġpuppet": 5785,
      "Ġreluct": 5786,
      "Ġpassing": 5787,
      "ops": 5788,
      "Ġcurtains": 5789,
      "Ġconfl": 5790,
      "Ġmisses": 5791,
      "Ġcurly": 5792,
      "chirpy": 5793,
      "Ġrubs": 5794,
      "george": 5795,
      "Ġrolls": 5796,
      "Ġbeneath": 5797,
      "Ġpatted": 5798,
      "Ġseven": 5799,
      "Ġpajamas": 5800,
      "miss": 5801,
      "Ġoutdoors": 5802,
      "Ġdrums": 5803,
      "Ġsweat": 5804,
      "lola": 5805,
      "dies": 5806,
      "ashed": 5807,
      "Ġcloses": 5808,
      "Ġcautious": 5809,
      "Ġlap": 5810,
      "Ġfilling": 5811,
      "Ġtune": 5812,
      "Ġbeth": 5813,
      "Ġrefuse": 5814,
      "esome": 5815,
      "angled": 5816,
      "Ġmission": 5817,
      "Ġfaced": 5818,
      "char": 5819,
      "Ġbalanced": 5820,
      "Ġty": 5821,
      "Ġrule": 5822,
      "ual": 5823,
      "Ġrescued": 5824,
      "neath": 5825,
      "Ġabby": 5826,
      "Ġquacked": 5827,
      "Ġfairies": 5828,
      "Ġdoctors": 5829,
      "Ġpoliceman": 5830,
      "Ġpastries": 5831,
      "paul": 5832,
      "Ġrockets": 5833,
      "Ġawesome": 5834,
      "Ġintrodu": 5835,
      "Ġconflict": 5836,
      "Ġguys": 5837,
      "Ġvent": 5838,
      "Ġobserved": 5839,
      "great": 5840,
      "Ġthomas": 5841,
      "isten": 5842,
      "Ġunderneath": 5843,
      "Ġbecoming": 5844,
      "Ġmes": 5845,
      "Ġexactly": 5846,
      "roar": 5847,
      "fine": 5848,
      "Ġteamwork": 5849,
      "Ġtractor": 5850,
      "some": 5851,
      "Ġblooming": 5852,
      "Ġremembering": 5853,
      "Ġpout": 5854,
      "mies": 5855,
      "Ġfir": 5856,
      "Ġinsist": 5857,
      "Ġreluctantly": 5858,
      "Ġfascinated": 5859,
      "Ġstarfish": 5860,
      "Ġfarther": 5861,
      "Ġris": 5862,
      "Ġpointy": 5863,
      "Ġwindy": 5864,
      "Ġincluded": 5865,
      "cob": 5866,
      "zie": 5867,
      "Ġcause": 5868,
      "Ġtruly": 5869,
      "Ġhelpers": 5870,
      "Ġslam": 5871,
      "Ġwobbled": 5872,
      "Ġpaddle": 5873,
      "ggy": 5874,
      "Ġprayer": 5875,
      "Ġrecording": 5876,
      "Ġspong": 5877,
      "Ġsights": 5878,
      "Ġfirm": 5879,
      "Ġjilly": 5880,
      "henry": 5881,
      "Ġcaused": 5882,
      "Ġthro": 5883,
      "Ġham": 5884,
      "Ġast": 5885,
      "Ġsupplies": 5886,
      "Ġminerals": 5887,
      "Ġinviting": 5888,
      "Ġtraded": 5889,
      "Ġornaments": 5890,
      "Ġadding": 5891,
      "Ġthroat": 5892,
      "ru": 5893,
      "Ġthorn": 5894,
      "Ġsituation": 5895,
      "Ġally": 5896,
      "Ġneighbourhood": 5897,
      "Ġsnowmen": 5898,
      "Ġitchy": 5899,
      "Ġvalued": 5900,
      "bbly": 5901,
      "arry": 5902,
      "hold": 5903,
      "Ġdots": 5904,
      "Ġbare": 5905,
      "Ġstays": 5906,
      "Ġtables": 5907,
      "Ġdesert": 5908,
      "Ġprettier": 5909,
      "Ġev": 5910,
      "Ġsteady": 5911,
      "Ġusually": 5912,
      "Ġfaraway": 5913,
      "Ġforks": 5914,
      "ja": 5915,
      "Ġni": 5916,
      "Ġsnuggles": 5917,
      "Ġfoxy": 5918,
      "Ġglasses": 5919,
      "indy": 5920,
      "Ġchuck": 5921,
      "though": 5922,
      "Ġinsects": 5923,
      "Ġswooped": 5924,
      "gers": 5925,
      "Ġsmar": 5926,
      "Ġusual": 5927,
      "polly": 5928,
      "Ġsponge": 5929,
      "Ġtodd": 5930,
      "Ġsneezing": 5931,
      "Ġjamie": 5932,
      "Ġhomework": 5933,
      "Ġwinked": 5934,
      "Ġloading": 5935,
      "Ġsolut": 5936,
      "mine": 5937,
      "annie": 5938,
      "tina": 5939,
      "Ġsant": 5940,
      "Ġpans": 5941,
      "Ġsanta": 5942,
      "Ġsobbed": 5943,
      "Ġgrowling": 5944,
      "james": 5945,
      "days": 5946,
      "Ġnoses": 5947,
      "Ġchloe": 5948,
      "Ġjosh": 5949,
      "Ġgems": 5950,
      "Ġsuperheroes": 5951,
      "ott": 5952,
      "Ġscarves": 5953,
      "Ġconfident": 5954,
      "Ġmira": 5955,
      "Ġyourselves": 5956,
      "agull": 5957,
      "Ġwow": 5958,
      "ults": 5959,
      "joey": 5960,
      "Ġseagull": 5961,
      "Ġlibrarian": 5962,
      "Ġtum": 5963,
      "Ġonions": 5964,
      "Ġbiting": 5965,
      "...\"": 5966,
      "Ġsmarter": 5967,
      "Ġknowled": 5968,
      "Ġknowledge": 5969,
      "Ġjackets": 5970,
      "ido": 5971,
      "Ġkicks": 5972,
      "Ġprincesses": 5973,
      "those": 5974,
      "Ġgiggling": 5975,
      "Ġskelly": 5976,
      "Ġsurface": 5977,
      "Ġclowns": 5978,
      "Ġuntie": 5979,
      "Ġsquares": 5980,
      "vin": 5981,
      "ora": 5982,
      "yeah": 5983,
      "Ġmuscle": 5984,
      "Ġwarnings": 5985,
      "Ġhenny": 5986,
      "Ġreads": 5987,
      "iar": 5988,
      "Ġyounger": 5989,
      "Ġropes": 5990,
      "toby": 5991,
      "shh": 5992,
      "Ġhops": 5993,
      "Ġcrowd": 5994,
      "len": 5995,
      "pite": 5996,
      "danny": 5997,
      "true": 5998,
      "Ġpraying": 5999,
      "Ġpaddled": 6000,
      "Ġwears": 6001,
      "Ġdelivered": 6002,
      "Ġbuzzed": 6003,
      "Ġcomplained": 6004,
      "Ġstem": 6005,
      "Ġleap": 6006,
      "mrs": 6007,
      "Ġanne": 6008,
      "Ġleaning": 6009,
      "Ġdirection": 6010,
      "for": 6011,
      "Ġdived": 6012,
      "Ġnapkins": 6013,
      "grace": 6014,
      "Ġtangled": 6015,
      "Ġjones": 6016,
      "Ġbadge": 6017,
      "cers": 6018,
      "buzz": 6019,
      "Ġsatisfied": 6020,
      "its": 6021,
      "Ġvowed": 6022,
      "Ġtickled": 6023,
      "Ġrisk": 6024,
      "Ġpec": 6025,
      "Ġcovers": 6026,
      "une": 6027,
      "Ġlett": 6028,
      "Ġsalty": 6029,
      "Ġyells": 6030,
      "Ġarrows": 6031,
      "Ġswims": 6032,
      "Ġrefreshed": 6033,
      "Ġcous": 6034,
      "Ġspeaking": 6035,
      "Ġknocks": 6036,
      "zip": 6037,
      "Ġlettuce": 6038,
      "maggie": 6039,
      "Ġchat": 6040,
      "Ġsigned": 6041,
      "Ġwipes": 6042,
      "Ġguessing": 6043,
      "Ġdodo": 6044,
      "Ġripe": 6045,
      "unfortunately": 6046,
      "Ġcreating": 6047,
      "Ġsusan": 6048,
      "Ġrover": 6049,
      "Ġchoices": 6050,
      "Ġhides": 6051,
      "Ġcent": 6052,
      "Ġslower": 6053,
      "Ġsinger": 6054,
      "Ġseeker": 6055,
      "Ġmagnets": 6056,
      "Ġintroduced": 6057,
      "Ġden": 6058,
      "Ġrainy": 6059,
      "excu": 6060,
      "Ġfroze": 6061,
      "excuse": 6062,
      "Ġmushrooms": 6063,
      "Ġsqueal": 6064,
      "Ġjoked": 6065,
      "Ġexplorers": 6066,
      "Ġtoaster": 6067,
      "boys": 6068,
      "Ġavo": 6069,
      "Ġpaying": 6070,
      "Ġwritten": 6071,
      "Ġdiscovering": 6072,
      "sophie": 6073,
      "Ġrefle": 6074,
      "Ġdara": 6075,
      "Ġranger": 6076,
      "Ġprovided": 6077,
      "Ġwandering": 6078,
      "brush": 6079,
      "like": 6080,
      "Ġjeff": 6081,
      "Ġknees": 6082,
      "big": 6083,
      "Ġhider": 6084,
      "ences": 6085,
      "Ġimages": 6086,
      "icky": 6087,
      "Ġbehaving": 6088,
      "Ġbarely": 6089,
      "Ġcobwebs": 6090,
      "charlie": 6091,
      "Ġstung": 6092,
      "Ġnine": 6093,
      "Ġtipto": 6094,
      "?\",": 6095,
      "Ġmarked": 6096,
      "Ġleading": 6097,
      "bie": 6098,
      "Ġdee": 6099,
      "Ġrestored": 6100,
      "whee": 6101,
      "anging": 6102,
      "Ġsqueak": 6103,
      "bell": 6104,
      "Ġgears": 6105,
      "Ġcompetition": 6106,
      "Ġgreet": 6107,
      "Ġmaster": 6108,
      "teddy": 6109,
      "Ġbravery": 6110,
      "ados": 6111,
      "Ġoutf": 6112,
      "Ġneedles": 6113,
      "Ġpens": 6114,
      "Ġbuggy": 6115,
      "tweet": 6116,
      "Ġwishing": 6117,
      "oline": 6118,
      "Ġproperly": 6119,
      "Ġventured": 6120,
      "Ġdances": 6121,
      "Ġbetsy": 6122,
      "Ġziggy": 6123,
      "Ġrusty": 6124,
      "Ġclick": 6125,
      "Ġdarkness": 6126,
      "Ġdeserve": 6127,
      "Ġfab": 6128,
      "amb": 6129,
      "ids": 6130,
      "sequ": 6131,
      "Ġmatters": 6132,
      "Ġsunflowers": 6133,
      "step": 6134,
      "Ġconsequ": 6135,
      "Ġswans": 6136,
      "Ġmints": 6137,
      "Ġburst": 6138,
      "Ġruining": 6139,
      "Ġchefs": 6140,
      "Ġblocking": 6141,
      "freeze": 6142,
      "listen": 6143,
      "Ġvines": 6144,
      "may": 6145,
      "Ġhanna": 6146,
      "coat": 6147,
      "follow": 6148,
      "Ġfabric": 6149,
      "Ġavocados": 6150,
      "Ġentire": 6151,
      "Ġbasement": 6152,
      "Ġleast": 6153,
      "Ġperformed": 6154,
      "Ġflames": 6155,
      "Ġpins": 6156,
      "Ġscratches": 6157,
      "Ġheavier": 6158,
      "Ġclaire": 6159,
      "Ġlosing": 6160,
      "Ġtwirling": 6161,
      "however": 6162,
      "Ġlinda": 6163,
      "essie": 6164,
      "Ġadam": 6165,
      "Ġswords": 6166,
      "haust": 6167,
      "Ġscurried": 6168,
      "Ġjenna": 6169,
      "Ġraincoat": 6170,
      "Ġrelief": 6171,
      "Ġconn": 6172,
      "Ġsilent": 6173,
      "Ġjobs": 6174,
      "Ġexhaust": 6175,
      "Ġluke": 6176,
      "boat": 6177,
      "Ġcautiously": 6178,
      "Ġnecklaces": 6179,
      "Ġbows": 6180,
      "Ġtricky": 6181,
      "Ġrotting": 6182,
      "Ġsnat": 6183,
      "Ġsewed": 6184,
      "jerry": 6185,
      "Ġlighter": 6186,
      "packed": 6187,
      "Ġcott": 6188,
      "Ġdecorating": 6189,
      "Ġsolution": 6190,
      "Ġconsequences": 6191,
      "mill": 6192,
      "alex": 6193,
      "Ġtires": 6194,
      "Ġlena": 6195,
      "Ġstain": 6196,
      "Ġgenie": 6197,
      "Ġunpacked": 6198,
      "Ġchip": 6199,
      "Ġraces": 6200,
      "Ġpartic": 6201,
      "bet": 6202,
      "rance": 6203,
      "Ġwraps": 6204,
      "Ġbumps": 6205,
      "Ġdespite": 6206,
      "Ġlifting": 6207,
      "Ġtriangles": 6208,
      "isies": 6209,
      "Ġbacked": 6210,
      "Ġpeeking": 6211,
      "Ġanno": 6212,
      "Ġdentist": 6213,
      "Ġdaisies": 6214,
      "anes": 6215,
      "vers": 6216,
      "Ġgrowls": 6217,
      "Ġaccomplish": 6218,
      "Ġgrabbing": 6219,
      "Ġcomm": 6220,
      "Ġties": 6221,
      "Ġcrackers": 6222,
      "Ġhesitated": 6223,
      "Ġmer": 6224,
      "Ġsweets": 6225,
      "Ġstomped": 6226,
      "ĠĊĠ": 6227,
      "Ġbuying": 6228,
      "Ġmater": 6229,
      "Ġbodies": 6230,
      "Ġfigured": 6231,
      "Ġrolly": 6232,
      "Ġmaterial": 6233,
      "Ġfido": 6234,
      "Ġfreed": 6235,
      "aut": 6236,
      "Ġcheeks": 6237,
      "Ġgrows": 6238,
      "Ġflavor": 6239,
      "Ġowners": 6240,
      "Ġcathy": 6241,
      "Ġsuffering": 6242,
      "Ġlungs": 6243,
      "Ġjessie": 6244,
      "Ġfact": 6245,
      "Ġgroups": 6246,
      "kery": 6247,
      "Ġbakery": 6248,
      "Ġnect": 6249,
      "Ġforehead": 6250,
      "Ġnectar": 6251,
      "Ġinterested": 6252,
      "Ġexhausted": 6253,
      "harry": 6254,
      "Ġsale": 6255,
      "Ġrepa": 6256,
      "Ġthud": 6257,
      "ept": 6258,
      "Ġdarling": 6259,
      "Ġmilo": 6260,
      "bang": 6261,
      "eed": 6262,
      "lilly": 6263,
      "Ġchuckled": 6264,
      "Ġswept": 6265,
      "Ġunf": 6266,
      "?'": 6267,
      "Ġtwinkling": 6268,
      "Ġtapped": 6269,
      "Ġnana": 6270,
      "Ġrecip": 6271,
      "under": 6272,
      "Ġfeast": 6273,
      "Ġcuddly": 6274,
      "Ġtunnels": 6275,
      "indr": 6276,
      "Ġpassports": 6277,
      "Ġworries": 6278,
      "Ġreason": 6279,
      "Ġraindr": 6280,
      "Ġrepaired": 6281,
      "band": 6282,
      "Ġactivities": 6283,
      "Ġmonth": 6284,
      "Ġentrance": 6285,
      "Ġpecked": 6286,
      "Ġhannah": 6287,
      "ese": 6288,
      "Ġjay": 6289,
      "Ġmeals": 6290,
      "Ġcompletely": 6291,
      "Ġbaths": 6292,
      "Ġparticular": 6293,
      "Ġnests": 6294,
      "Ġmailed": 6295,
      "Ġcolored": 6296,
      "Ġwaiter": 6297,
      "Ġsense": 6298,
      "Ġdam": 6299,
      "Ġscra": 6300,
      "Ġdirect": 6301,
      "Ġplenty": 6302,
      "Ġwobble": 6303,
      "Ġcara": 6304,
      "Ġfeeding": 6305,
      "Ġslammed": 6306,
      "Ġplayers": 6307,
      "lee": 6308,
      "Ġbudge": 6309,
      "jump": 6310,
      "Ġlamb": 6311,
      "Ġforgets": 6312,
      "rose": 6313,
      "Ġoliver": 6314,
      "Ġhandful": 6315,
      "ellie": 6316,
      "Ġprinting": 6317,
      "guess": 6318,
      "bee": 6319,
      "Ġchrist": 6320,
      "Ġstool": 6321,
      "Ġtalks": 6322,
      "Ġwiping": 6323,
      "Ġfilms": 6324,
      "ossible": 6325,
      "Ġsuzie": 6326,
      "Ġimpossible": 6327,
      "Ġdetermination": 6328,
      "Ġdesigned": 6329,
      "Ġchop": 6330,
      "Ġsquish": 6331,
      "Ġbuses": 6332,
      "Ġspreading": 6333,
      "Ġopp": 6334,
      "Ġbars": 6335,
      "Ġspikes": 6336,
      "Ġsewing": 6337,
      "Ġsuitcase": 6338,
      "rink": 6339,
      "Ġcounts": 6340,
      "Ġstolen": 6341,
      "Ġsteer": 6342,
      "Ġluckily": 6343,
      "Ġhonked": 6344,
      "Ġfires": 6345,
      "avi": 6346,
      "Ġhu": 6347,
      "blings": 6348,
      "Ġseparated": 6349,
      "Ġalthough": 6350,
      "Ġrumble": 6351,
      "Ġsiblings": 6352,
      "Ġcelebrating": 6353,
      "Ġchanging": 6354,
      "Ġfever": 6355,
      "Ġcamping": 6356,
      "mas": 6357,
      "mo": 6358,
      "Ġlower": 6359,
      "Ġfrosty": 6360,
      "Ġbehavi": 6361,
      "sunny": 6362,
      "Ġliqu": 6363,
      "Ġage": 6364,
      "Ġcelebration": 6365,
      "child": 6366,
      "Ġdollhouse": 6367,
      "Ġsquealed": 6368,
      "Ġcash": 6369,
      "Ġbackward": 6370,
      "Ġafterwards": 6371,
      "Ġkittens": 6372,
      "Ġkings": 6373,
      "Ġsnatched": 6374,
      "Ġsway": 6375,
      "Ġintr": 6376,
      "aren": 6377,
      "Ġtwice": 6378,
      "Ġsomebody": 6379,
      "itched": 6380,
      "ives": 6381,
      "Ġwoo": 6382,
      "Ġshrinking": 6383,
      "Ġshoo": 6384,
      "weed": 6385,
      "Ġache": 6386,
      "Ġshops": 6387,
      "Ġpancakes": 6388,
      "Ġpuppies": 6389,
      "bbie": 6390,
      "Ġjacob": 6391,
      "Ġjessica": 6392,
      "Ġgina": 6393,
      "Ġtouches": 6394,
      "Ġsparks": 6395,
      "take": 6396,
      "Ġavoid": 6397,
      "Ġspat": 6398,
      "fly": 6399,
      "Ġrotten": 6400,
      "luck": 6401,
      "Ġseaweed": 6402,
      "hog": 6403,
      "Ġtwisting": 6404,
      "Ġnina": 6405,
      "Ġwhoever": 6406,
      "Ġplayhouse": 6407,
      "Ġskunk": 6408,
      "Ġdropping": 6409,
      "Ġpaths": 6410,
      "Ġjon": 6411,
      "Ġwrapping": 6412,
      "Ġcalmed": 6413,
      "sandy": 6414,
      "Ġscrews": 6415,
      "thest": 6416,
      "pipp": 6417,
      "Ġstroked": 6418,
      "Ġuntied": 6419,
      "millie": 6420,
      "Ġstudents": 6421,
      "Ġastron": 6422,
      "Ġsnowfl": 6423,
      "Ġloops": 6424,
      "luckily": 6425,
      "Ġliquid": 6426,
      "Ġtig": 6427,
      "gic": 6428,
      "Ġplanning": 6429,
      "Ġwakes": 6430,
      "Ġastronaut": 6431,
      "bear": 6432,
      "Ġpennies": 6433,
      "Ġbracelets": 6434,
      "Ġthrown": 6435,
      "Ġtramp": 6436,
      "shions": 6437,
      "Ġplain": 6438,
      "pat": 6439,
      "Ġfirefly": 6440,
      "cho": 6441,
      "Ġaimed": 6442,
      "Ġhearing": 6443,
      "Ġsurprising": 6444,
      "Ġdancers": 6445,
      "Ġzebras": 6446,
      "Ġlifts": 6447,
      "Ġcust": 6448,
      "Ġfins": 6449,
      "fire": 6450,
      "immer": 6451,
      "irl": 6452,
      "Ġposter": 6453,
      "usband": 6454,
      "Ġobjects": 6455,
      "Ġchristmas": 6456,
      "ky": 6457,
      "Ġrewarded": 6458,
      "Ġdirections": 6459,
      "lings": 6460,
      "Ġhusband": 6461,
      "quack": 6462,
      "Ġreflection": 6463,
      "Ġhedgehog": 6464,
      "Ġclues": 6465,
      "Ġintrig": 6466,
      "Ġtoot": 6467,
      "Ġrising": 6468,
      "Ġdod": 6469,
      "Ġleads": 6470,
      "Ġincreased": 6471,
      "Ġcousin": 6472,
      "âĢĶ": 6473,
      "Ġblocked": 6474,
      "Ġcustom": 6475,
      "Ġforgetting": 6476,
      "ring": 6477,
      "iles": 6478,
      "kate": 6479,
      "Ġaud": 6480,
      "Ġbeginning": 6481,
      "Ġtrampoline": 6482,
      "Ġstorekeeper": 6483,
      "Ġpouted": 6484,
      "Ġaff": 6485,
      "Ġrollie": 6486,
      "yond": 6487,
      "Ġbeyond": 6488,
      "Ġborrowed": 6489,
      "ĠâĢĺ": 6490,
      "Ġmesmer": 6491,
      "Ġcountryside": 6492,
      "llen": 6493,
      "Ġvehicles": 6494,
      "rob": 6495,
      "Ġinstrum": 6496,
      "always": 6497,
      "Ġfrowning": 6498,
      "Ġkayla": 6499,
      "ivity": 6500,
      "Ġmarker": 6501,
      "Ġwhispers": 6502,
      "Ġdeli": 6503,
      "Ġpresses": 6504,
      "Ġdamage": 6505,
      "Ġtara": 6506,
      "Ġbiggie": 6507,
      "int": 6508,
      "bill": 6509,
      "Ġhealth": 6510,
      "Ġrobo": 6511,
      "Ġflapping": 6512,
      "Ġlaying": 6513,
      "Ġswimsu": 6514,
      "Ġslips": 6515,
      "Ġsan": 6516,
      "Ġjulia": 6517,
      "Ġwarmer": 6518,
      "Ġtiptoed": 6519,
      "Ġflick": 6520,
      "Ġregretted": 6521,
      "itted": 6522,
      "Ġyelp": 6523,
      "Ġglued": 6524,
      "Ġrains": 6525,
      "lling": 6526,
      "Ġcreations": 6527,
      "Ġcolder": 6528,
      "Ġmerry": 6529,
      "Ġshaped": 6530,
      "Ġstreets": 6531,
      "Ġintrigued": 6532,
      "Ġcushions": 6533,
      "ael": 6534,
      "Ġcreativity": 6535,
      "Ġsparky": 6536,
      "Ġfarthest": 6537,
      "Ġlending": 6538,
      "Ġbells": 6539,
      "Ġmikey": 6540,
      "Ġindeed": 6541,
      "Ġroo": 6542,
      "stick": 6543,
      "Ġstrongest": 6544,
      "Ġdollars": 6545,
      "Ġfits": 6546,
      "Ġcoop": 6547,
      "Ġsank": 6548,
      "baby": 6549,
      "ccoon": 6550,
      "Ġearn": 6551,
      "Ġlarry": 6552,
      "Ġraccoon": 6553,
      "Ġincluding": 6554,
      "Ġcashier": 6555,
      "milly": 6556,
      "ste": 6557,
      "Ġaccidents": 6558,
      "Ġspells": 6559,
      "Ġdelivery": 6560,
      "Ġtit": 6561,
      "Ġstopping": 6562,
      "Ġguy": 6563,
      "Ġsniffs": 6564,
      "Ġtrembled": 6565,
      "Ġmissy": 6566,
      "Ġsource": 6567,
      "Ġwobbly": 6568,
      "Ġsailboat": 6569,
      "dri": 6570,
      "Ġguests": 6571,
      "Ġsingle": 6572,
      "Ġrecommended": 6573,
      "Ġbelts": 6574,
      "itches": 6575,
      "Ġseasons": 6576,
      "urry": 6577,
      "Ġaccomplishment": 6578,
      "ude": 6579,
      "Ġhopeful": 6580,
      "Ġforgiving": 6581,
      "ourag": 6582,
      "Ġends": 6583,
      "Ġgross": 6584,
      "Ġgeese": 6585,
      "Ġturtles": 6586,
      "Ġencourag": 6587,
      "ucked": 6588,
      "ters": 6589,
      "Ġplans": 6590,
      "ichael": 6591,
      "Ġartist": 6592,
      "Ġsupported": 6593,
      "Ġperformance": 6594,
      "Ġpops": 6595,
      "Ġsuffered": 6596,
      "Ġdie": 6597,
      "nina": 6598,
      "Ġslowed": 6599,
      "Ġvanilla": 6600,
      "sl": 6601,
      "Ġspins": 6602,
      "Ġraindrops": 6603,
      "Ġlabels": 6604,
      "Ġflavors": 6605,
      "ertain": 6606,
      "Ġtying": 6607,
      "Ġbeam": 6608,
      "Ġpours": 6609,
      "ility": 6610,
      "Ġstands": 6611,
      "Ġgranny": 6612,
      "Ġpam": 6613,
      "arac": 6614,
      "iece": 6615,
      "Ġrecipe": 6616,
      "uing": 6617,
      "Ġcloudy": 6618,
      "Ġwilling": 6619,
      "Ġchewy": 6620,
      "put": 6621,
      "Ġqueens": 6622,
      "Ġsy": 6623,
      "Ġdrawn": 6624,
      "illed": 6625,
      "Ġwept": 6626,
      "Ġcuriously": 6627,
      "Ġseconds": 6628,
      "Ġruff": 6629,
      "Ġcharac": 6630,
      "Ġimagining": 6631,
      "Ġcorners": 6632,
      "Ġsophia": 6633,
      "Ġdrivers": 6634,
      "Ġpreparing": 6635,
      "wk": 6636,
      "Ġgrip": 6637,
      "ribbit": 6638,
      "zzie": 6639,
      "itude": 6640,
      "Ġhallway": 6641,
      "Ġamong": 6642,
      "Ġwidened": 6643,
      "Ġadult": 6644,
      "Ġsailors": 6645,
      "Ġunsure": 6646,
      "Ġsharks": 6647,
      "Ġrobber": 6648,
      "Ġgiggles": 6649,
      "Ġsending": 6650,
      "Ġgrocer": 6651,
      "Ġoutfit": 6652,
      "Ġpigeons": 6653,
      "Ġtalented": 6654,
      "Ġbeaky": 6655,
      "Ġangels": 6656,
      "Ġizzy": 6657,
      "Ġwatering": 6658,
      "moo": 6659,
      "Ġecho": 6660,
      "Ġnotes": 6661,
      "Ġaside": 6662,
      "friend": 6663,
      "Ġsofter": 6664,
      "Ġknots": 6665,
      "Ġsquishy": 6666,
      "een": 6667,
      "Ġtreehouse": 6668,
      "Ġsymbols": 6669,
      "found": 6670,
      "Ġtipped": 6671,
      "lulu": 6672,
      "Ġlizzie": 6673,
      "Ġhoriz": 6674,
      "Ġblinking": 6675,
      "Ġachieved": 6676,
      "Ġouch": 6677,
      "Ġhorizon": 6678,
      "Ġdelivering": 6679,
      "Ġpupils": 6680,
      "Ġstella": 6681,
      "Ġjune": 6682,
      "Ġhotter": 6683,
      "Ġpleasure": 6684,
      "years": 6685,
      "clara": 6686,
      "Ġdet": 6687,
      "Ġburrow": 6688,
      "Ġrobots": 6689,
      "Ġbandages": 6690,
      "Ġpassen": 6691,
      "Ġrather": 6692,
      "Ġfigures": 6693,
      "Ġcindy": 6694,
      "Ġrudy": 6695,
      "Ġtummies": 6696,
      "rat": 6697,
      "Ġtis": 6698,
      "shrink": 6699,
      "Ġhour": 6700,
      "Ġcoup": 6701,
      "Ġrobert": 6702,
      "Ġtigers": 6703,
      "alph": 6704,
      "spe": 6705,
      "Ġroars": 6706,
      "Ġbackwards": 6707,
      "Ġtossed": 6708,
      "Ġmerma": 6709,
      "Ġmate": 6710,
      "Ġnick": 6711,
      "Ġcor": 6712,
      "Ġzipping": 6713,
      "maria": 6714,
      "Ġfirefighters": 6715,
      "Ġgroceries": 6716,
      "dolly": 6717,
      "endy": 6718,
      "Ġprove": 6719,
      "Ġdip": 6720,
      "bbles": 6721,
      "Ġtuck": 6722,
      "Ġicing": 6723,
      "Ġblown": 6724,
      "Ġtia": 6725,
      "Ġglee": 6726,
      "Ġmaker": 6727,
      "Ġovercome": 6728,
      "Ġnan": 6729,
      "quick": 6730,
      "!âĢĿ.": 6731,
      "Ġscrewdri": 6732,
      "Ġsped": 6733,
      "Ġpeep": 6734,
      "Ġsqueezing": 6735,
      "Ġtiti": 6736,
      "Ġmomma": 6737,
      "Ġlace": 6738,
      "Ġjojo": 6739,
      "sna": 6740,
      "ruby": 6741,
      "Ġhawk": 6742,
      "Ġsurfboard": 6743,
      "Ġshovels": 6744,
      "Ġslices": 6745,
      "Ġry": 6746,
      "ddled": 6747,
      "sad": 6748,
      "Ġbubb": 6749,
      "Ġheading": 6750,
      "Ġabbie": 6751,
      "Ġdisturbing": 6752,
      "eds": 6753,
      "Ġignoring": 6754,
      "Ġswall": 6755,
      "Ġreversed": 6756,
      "jul": 6757,
      "ingo": 6758,
      "Ġswallowed": 6759,
      "Ġwaking": 6760,
      "Ġscored": 6761,
      "Ġflipped": 6762,
      "frank": 6763,
      "two": 6764,
      "Ġbarky": 6765,
      "Ġencouraging": 6766,
      "Ġgardener": 6767,
      "betty": 6768,
      "kids": 6769,
      "sty": 6770,
      "ne": 6771,
      "fro": 6772,
      "onies": 6773,
      "Ġchos": 6774,
      "Ġcenter": 6775,
      "Ġchosen": 6776,
      "Ġron": 6777,
      "Ġflip": 6778,
      "Ġrivers": 6779,
      "Ġslipping": 6780,
      "even": 6781,
      "Ġcouple": 6782,
      "Ġdesigns": 6783,
      "Ġscrewdriver": 6784,
      "Ġfirefighter": 6785,
      "Ġemmy": 6786,
      "Ġmarkers": 6787,
      "Ġpeck": 6788,
      "Ġcreamy": 6789,
      "Ġjars": 6790,
      "Ġrespond": 6791,
      "Ġsuits": 6792,
      "Ġthorns": 6793,
      "Ġfrowns": 6794,
      "Ġfluttered": 6795,
      "Ġryan": 6796,
      "Ġaren": 6797,
      "Ġsecure": 6798,
      "Ġsprinkled": 6799,
      "Ġexpress": 6800,
      "Ġoysters": 6801,
      "parent": 6802,
      "Ġtighter": 6803,
      "Ġhaircuts": 6804,
      "Ġtissue": 6805,
      "sm": 6806,
      "Ġzee": 6807,
      "ounce": 6808,
      "Ġfirmly": 6809,
      "Ġponies": 6810,
      "Ġfleas": 6811,
      "Ġlaura": 6812,
      "Ġdaring": 6813,
      "fall": 6814,
      "Ġshown": 6815,
      "spike": 6816,
      "Ġfamiliar": 6817,
      "ashes": 6818,
      "Ġbathing": 6819,
      "Ġcrossing": 6820,
      "Ġmiles": 6821,
      "Ġsurfing": 6822,
      "Ġdrawers": 6823,
      "ments": 6824,
      "Ġperforming": 6825,
      "asm": 6826,
      "abra": 6827,
      "pecting": 6828,
      "Ġaudience": 6829,
      "ms": 6830,
      "open": 6831,
      "Ġbits": 6832,
      "Ġcoloured": 6833,
      "Ġtil": 6834,
      "Ġais": 6835,
      "Ġshady": 6836,
      "Ġnervously": 6837,
      "Ġpedaled": 6838,
      "Ġgracefully": 6839,
      "Ġnu": 6840,
      "Ġmixture": 6841,
      "Ġcrowns": 6842,
      "Ġyielded": 6843,
      "Ġmagician": 6844,
      "Ġhangers": 6845,
      "ades": 6846,
      "Ġgaz": 6847,
      "zoomy": 6848,
      "Ġpays": 6849,
      "Ġstroke": 6850,
      "Ġknives": 6851,
      "ans": 6852,
      "Ġwrink": 6853,
      "using": 6854,
      "Ġnapped": 6855,
      "Ġrespected": 6856,
      "Ġminded": 6857,
      "Ġangri": 6858,
      "bessie": 6859,
      "kim": 6860,
      "Ġtested": 6861,
      "Ġgrandchild": 6862,
      "Ġchris": 6863,
      "Ġsails": 6864,
      "Ġneighbours": 6865,
      "ca": 6866,
      "Ġbeeh": 6867,
      "Ġenthusi": 6868,
      "Ġwisely": 6869,
      "Ġrin": 6870,
      "vered": 6871,
      "Ġnightmares": 6872,
      "Ġdarlings": 6873,
      "Ġenthusiasm": 6874,
      "Ġstitches": 6875,
      "dear": 6876,
      "iding": 6877,
      "Ġthoughts": 6878,
      "freddy": 6879,
      "Ġmelons": 6880,
      "Ġweekend": 6881,
      "Ġtweetie": 6882,
      "fted": 6883,
      "Ġnood": 6884,
      "Ġlessons": 6885,
      "Ġreminds": 6886,
      "Ġforgiven": 6887,
      "Ġlies": 6888,
      "Ġtemper": 6889,
      "antha": 6890,
      "Ġteams": 6891,
      "Ġsurroundings": 6892,
      "Ġspits": 6893,
      "ongrat": 6894,
      "Ġgrandparent": 6895,
      "Ġpaintbrush": 6896,
      "Ġfills": 6897,
      "Ġmermaid": 6898,
      "Ġexce": 6899,
      "Ġelf": 6900,
      "Ġhoops": 6901,
      "katie": 6902,
      "Ġcleaner": 6903,
      "Ġexplo": 6904,
      "Ġsports": 6905,
      "Ġelbow": 6906,
      "Ġpanicked": 6907,
      "Ġlongest": 6908,
      "Ġscooters": 6909,
      "Ġsill": 6910,
      "ushed": 6911,
      "yed": 6912,
      "Ġamount": 6913,
      "Ġlent": 6914,
      "alright": 6915,
      "Ġbeloved": 6916,
      "pippin": 6917,
      "Ġbeehive": 6918,
      "Ġmagazines": 6919,
      "ongratul": 6920,
      "Ġbully": 6921,
      "fus": 6922,
      "jazz": 6923,
      "Ġrepeating": 6924,
      "pop": 6925,
      "immering": 6926,
      "Ġpinching": 6927,
      "Ġtubes": 6928,
      "ably": 6929,
      "umbling": 6930,
      "Ġbam": 6931,
      "Ġdiscussed": 6932,
      "ona": 6933,
      "Ġsweetest": 6934,
      "lle": 6935,
      "Ġreass": 6936,
      "Ġmaya": 6937,
      "elia": 6938,
      "Ġbulbs": 6939,
      "Ġholly": 6940,
      "crow": 6941,
      "Ġwilly": 6942,
      "Ġsweep": 6943,
      "cra": 6944,
      "Ġterrified": 6945,
      "Ġspoonful": 6946,
      "Ġunderstands": 6947,
      "Ġguide": 6948,
      "Ġzoey": 6949,
      "uncle": 6950,
      "Ġtesting": 6951,
      "verse": 6952,
      "Ġmanners": 6953,
      "Ġcrew": 6954,
      "Ġpuzzled": 6955,
      "onna": 6956,
      "Ġgrassy": 6957,
      "Ġsprang": 6958,
      "Ġspeeding": 6959,
      "Ġmarsh": 6960,
      "Ġspies": 6961,
      "Ġpolar": 6962,
      "Ġbreathed": 6963,
      "ita": 6964,
      "steps": 6965,
      "Ġsolving": 6966,
      "Ġbally": 6967,
      "Ġunw": 6968,
      "Ġarr": 6969,
      "Ġcamel": 6970,
      "Ġneare": 6971,
      "Ġscarecrow": 6972,
      "Ġsheets": 6973,
      "Ġcoug": 6974,
      "dr": 6975,
      "which": 6976,
      "Ġpurp": 6977,
      "Ġfootsteps": 6978,
      "clo": 6979,
      "Ġrushing": 6980,
      "ilda": 6981,
      "leave": 6982,
      "Ġdonkey": 6983,
      "afterwards": 6984,
      "Ġfocu": 6985,
      "Ġspice": 6986,
      "Ġfocused": 6987,
      "Ġjoining": 6988,
      "ounced": 6989,
      "Ġmesmerized": 6990,
      "?!\"": 6991,
      "Ġlicking": 6992,
      "Ġbraver": 6993,
      "Ġhesitant": 6994,
      "hurry": 6995,
      "snow": 6996,
      "reverse": 6997,
      "Ġhealing": 6998,
      "Ġevil": 6999,
      "five": 7000,
      "Ġanger": 7001,
      "Ġburying": 7002,
      "wise": 7003,
      "magic": 7004,
      "Ġmartha": 7005,
      "Ġgreeted": 7006,
      "--": 7007,
      "father": 7008,
      "gr": 7009,
      "Ġworn": 7010,
      "Ġchanges": 7011,
      "Ġpopp": 7012,
      "Ġbicycles": 7013,
      "kiki": 7014,
      "Ġmaterials": 7015,
      "ndred": 7016,
      "anne": 7017,
      "back": 7018,
      "Ġstored": 7019,
      "Ġaeroplanes": 7020,
      "Ġseals": 7021,
      "Ġfloppy": 7022,
      "Ġpeacefully": 7023,
      "Ġhundred": 7024,
      "Ġships": 7025,
      "Ġbaa": 7026,
      "Ġworrying": 7027,
      "Ġgonna": 7028,
      "Ġmixy": 7029,
      "Ġnuzz": 7030,
      "Ġpolitely": 7031,
      "Ġspills": 7032,
      "Ġshall": 7033,
      "Ġrats": 7034,
      "Ġwithin": 7035,
      "dav": 7036,
      "Ġscattering": 7037,
      "boy": 7038,
      "Ġund": 7039,
      "Ġrelaxing": 7040,
      "Ġdump": 7041,
      "cake": 7042,
      "Ġblast": 7043,
      "Ġbelieving": 7044,
      "Ġbamboo": 7045,
      "penny": 7046,
      "Ġlenny": 7047,
      "david": 7048,
      "Ġger": 7049,
      "Ġstacked": 7050,
      "Ġhumans": 7051,
      "rest": 7052,
      "Ġkip": 7053,
      "Ġpea": 7054,
      "ints": 7055,
      "Ġloses": 7056,
      "Ġtasting": 7057,
      "lucky": 7058,
      "Ġsoaking": 7059,
      "Ġbaskets": 7060,
      "Ġgazing": 7061,
      "inst": 7062,
      "Ġclue": 7063,
      "Ġtravelled": 7064,
      "Ġtess": 7065,
      "Ġtemperature": 7066,
      "Ġdripping": 7067,
      "Ġtar": 7068,
      "rious": 7069,
      "Ġslither": 7070,
      "rect": 7071,
      "Ġpunishment": 7072,
      "snap": 7073,
      "Ġsimon": 7074,
      "Ġsnowflakes": 7075,
      "dding": 7076,
      "umbled": 7077,
      "Ġana": 7078,
      "Ġabi": 7079,
      "binky": 7080,
      "isc": 7081,
      "aty": 7082,
      "Ġforce": 7083,
      "Ġcrashing": 7084,
      "Ġbanged": 7085,
      "va": 7086,
      "Ġgest": 7087,
      "Ġflight": 7088,
      "Ġlia": 7089,
      "Ġdressing": 7090,
      "Ġswimmer": 7091,
      "des": 7092,
      "mel": 7093,
      "Ġmonths": 7094,
      "Ġcells": 7095,
      "oring": 7096,
      "Ġresisted": 7097,
      "Ġbeeped": 7098,
      "Ġtoddler": 7099,
      "bir": 7100,
      "Ġwendy": 7101,
      "Ġfocus": 7102,
      "Ġquarreled": 7103,
      "Ġramp": 7104,
      "Ġfreedom": 7105,
      "ition": 7106,
      "Ġjoins": 7107,
      "Ġdelayed": 7108,
      "Ġencouragement": 7109,
      "Ġpoppies": 7110,
      "Ġcovering": 7111,
      "Ġbackpacks": 7112,
      "ee": 7113,
      "Ġnoodles": 7114,
      "Ġfishy": 7115,
      "Ġbenches": 7116,
      "Ġtoward": 7117,
      "form": 7118,
      "Ġscraped": 7119,
      "ju": 7120,
      "Ġpurpose": 7121,
      "Ġjudy": 7122,
      "try": 7123,
      "Ġpermitted": 7124,
      "Ġlipstick": 7125,
      "Ġcorrect": 7126,
      "'.\"": 7127,
      "annah": 7128,
      "Ġmosquitoes": 7129,
      "Ġcheers": 7130,
      "Ġpotion": 7131,
      "Ġlanguages": 7132,
      "Ġtwinkled": 7133,
      "ently": 7134,
      "Ġorders": 7135,
      "tony": 7136,
      "Ġadults": 7137,
      "Ġrisks": 7138,
      "Ġfaded": 7139,
      "Ġhiss": 7140,
      "mallow": 7141,
      "Ġwounds": 7142,
      "orter": 7143,
      "aunt": 7144,
      "spl": 7145,
      "Ġhoo": 7146,
      "Ġgoo": 7147,
      "Ġbirdhouse": 7148,
      "Ġcreams": 7149,
      "isions": 7150,
      "Ġannoyed": 7151,
      "instead": 7152,
      "goodnight": 7153,
      "Ġsniffing": 7154,
      "Ġopinions": 7155,
      "lot": 7156,
      "Ġnodding": 7157,
      "Ġhandsome": 7158,
      "buzzy": 7159,
      "Ġunwra": 7160,
      "birdy": 7161,
      "Ġpuck": 7162,
      "Ġscient": 7163,
      "Ġfloats": 7164,
      "Ġfiles": 7165,
      "opes": 7166,
      "Ġsneezes": 7167,
      "Ġmarshmallow": 7168,
      "Ġflown": 7169,
      "Ġsmelling": 7170,
      "Ġscen": 7171,
      "Ġpand": 7172,
      "Ġdesper": 7173,
      "Ġscientist": 7174,
      "val": 7175,
      "off": 7176,
      "amaged": 7177,
      "iam": 7178,
      "Ġburnt": 7179,
      "con": 7180,
      "ammy": 7181,
      "Ġscamp": 7182,
      "tock": 7183,
      "Ġdrifted": 7184,
      "use": 7185,
      "Ġheight": 7186,
      "Ġtearing": 7187,
      "Ġdamaged": 7188,
      "Ġbothering": 7189,
      "Ġinstruments": 7190,
      "Ġpandas": 7191,
      "Ġsquaw": 7192,
      "Ġpleaded": 7193,
      "Ġbrushing": 7194,
      "abby": 7195,
      "mira": 7196,
      "Ġpound": 7197,
      "Ġmarie": 7198,
      "Ġease": 7199,
      "beh": 7200,
      "Ġseller": 7201,
      "Ġwasting": 7202,
      "Ġhanding": 7203,
      "Ġdestroying": 7204,
      "Ġstomp": 7205,
      "erate": 7206,
      "Ġresults": 7207,
      "Ġdreamt": 7208,
      "Ġmabel": 7209,
      "Ġexplains": 7210,
      "Ġcertain": 7211,
      "ousy": 7212,
      "Ġpostman": 7213,
      "Ġcharacters": 7214,
      "rup": 7215,
      "Ġswirl": 7216,
      "Ġengines": 7217,
      "Ġsweaty": 7218,
      "behind": 7219,
      "match": 7220,
      "pandy": 7221,
      "Ġbusiness": 7222,
      "Ġrobbie": 7223,
      "Ġonward": 7224,
      "prints": 7225,
      "Ġtalents": 7226,
      "Ġbravest": 7227,
      "Ġjanie": 7228,
      "Ġsternly": 7229,
      "Ġreminding": 7230,
      "Ġminds": 7231,
      "Ġscares": 7232,
      "unched": 7233,
      "Ġapologised": 7234,
      "mat": 7235,
      "order": 7236,
      "oy": 7237,
      "Ġbitten": 7238,
      "Ġswitched": 7239,
      "Ġsnuck": 7240,
      "Ġsingers": 7241,
      "Ġdecisions": 7242,
      "Ġtilted": 7243,
      "Ġbehavior": 7244,
      "too": 7245,
      "attered": 7246,
      "Ġsqueaked": 7247,
      "Ġspy": 7248,
      "Ġrobin": 7249,
      "Ġpeeled": 7250,
      "Ġgrandparents": 7251,
      "Ġinsp": 7252,
      "Ġblinky": 7253,
      "line": 7254,
      "wake": 7255,
      "Ġyumm": 7256,
      "Ġpurrs": 7257,
      "Ġsmashed": 7258,
      "Ġtreated": 7259,
      "Ġdisplayed": 7260,
      "Ġrustling": 7261,
      "Ġplanting": 7262,
      "Ġnovels": 7263,
      "Ġneatly": 7264,
      "Ġfaith": 7265,
      "Ġcracks": 7266,
      "Ġnasty": 7267,
      "Ġshines": 7268,
      "Ġbellies": 7269,
      "Ġyelped": 7270,
      "veral": 7271,
      "Ġcoloring": 7272,
      "oni": 7273,
      "Ġcal": 7274,
      "Ġfailed": 7275,
      "Ġgrandson": 7276,
      "Ġserving": 7277,
      "Ġpatches": 7278,
      "Ġgap": 7279,
      "Ġzooms": 7280,
      "Ġbreathing": 7281,
      "slow": 7282,
      "Ġcombed": 7283,
      "Ġrobbers": 7284,
      "Ġcongratul": 7285,
      "Ġwaterfall": 7286,
      "Ġaddress": 7287,
      "Ġsweaters": 7288,
      "Ġuna": 7289,
      "Ġantic": 7290,
      "Ġinstantly": 7291,
      "tilly": 7292,
      "Ġwider": 7293,
      "lena": 7294,
      "Ġmunch": 7295,
      "abigail": 7296,
      "liz": 7297,
      "Ġtippy": 7298,
      "Ġseveral": 7299,
      "Ġdoorway": 7300,
      "Ġechoed": 7301,
      "Ġdiso": 7302,
      "angle": 7303,
      "Ġedges": 7304,
      "Ġnewspapers": 7305,
      "Ġmeg": 7306,
      "Ġmichael": 7307,
      "Ġzippy": 7308,
      "Ġmagnif": 7309,
      "Ġswap": 7310,
      "Ġunpacking": 7311,
      "Ġwarri": 7312,
      "Ġocc": 7313,
      "Ġtaped": 7314,
      "Ġaction": 7315,
      "Ġscolds": 7316,
      "Ġflaps": 7317,
      "Ġmindy": 7318,
      "imply": 7319,
      "Ġcrawls": 7320,
      "Ġgary": 7321,
      "Ġgobbled": 7322,
      "Ġcurl": 7323,
      "bably": 7324,
      "Ġmadd": 7325,
      "Ġbacks": 7326,
      "Ġprobably": 7327,
      "Ġeddie": 7328,
      "Ġsteth": 7329,
      "Ġtrusting": 7330,
      "Ġstetho": 7331,
      "Ġshinier": 7332,
      "Ġviv": 7333,
      "Ġencount": 7334,
      "adam": 7335,
      "nice": 7336,
      "Ġplucked": 7337,
      "Ġquieter": 7338,
      "Ġconnected": 7339,
      "Ġplot": 7340,
      "Ġthroughout": 7341,
      "hop": 7342,
      "Ġexcept": 7343,
      "Ġgesture": 7344,
      "Ġdoorbell": 7345,
      "Ġstudent": 7346,
      "Ġsimply": 7347,
      "ssss": 7348,
      "Ġcares": 7349,
      "Ġwhistles": 7350,
      "Ġgoats": 7351,
      "Ġswimsuit": 7352,
      "Ġrescuing": 7353,
      "Ġrows": 7354,
      "shadow": 7355,
      "iel": 7356,
      "Ġmood": 7357,
      "Ġsnaps": 7358,
      "Ġcottage": 7359,
      "coco": 7360,
      "Ġastronauts": 7361,
      "oe": 7362,
      "vant": 7363,
      "Ġshorter": 7364,
      "Ġmousy": 7365,
      "Ġswo": 7366,
      "Ġpills": 7367,
      "Ġswollen": 7368,
      "steve": 7369,
      "Ġjoyful": 7370,
      "zara": 7371,
      "Ġbothered": 7372,
      "Ġproper": 7373,
      "water": 7374,
      "Ġotherwise": 7375,
      "hannah": 7376,
      "Ġstethoscope": 7377,
      "Ġrunner": 7378,
      "bro": 7379,
      "ooh": 7380,
      "Ġcausing": 7381,
      "ka": 7382,
      "Ġprayers": 7383,
      "Ġsou": 7384,
      "Ġdresser": 7385,
      "Ġleapt": 7386,
      "mad": 7387,
      "Ġwil": 7388,
      "Ġcowboy": 7389,
      "Ġlocks": 7390,
      "Ġbeaver": 7391,
      "thomas": 7392,
      "Ġtarget": 7393,
      "mates": 7394,
      "jamie": 7395,
      "Ġkaren": 7396,
      "Ġcons": 7397,
      "cess": 7398,
      "ibi": 7399,
      "Ġdears": 7400,
      "vy": 7401,
      "Ġwaddled": 7402,
      "Ġflips": 7403,
      "Ġstepping": 7404,
      "Ġteachers": 7405,
      "Ġlowered": 7406,
      "Ġjackie": 7407,
      "someone": 7408,
      "Ġenvelopes": 7409,
      "Ġinches": 7410,
      "Ġplayd": 7411,
      "Ġanticip": 7412,
      "Ġralph": 7413,
      "Ġprick": 7414,
      "pip": 7415,
      "unity": 7416,
      "Ġcaw": 7417,
      "Ġbud": 7418,
      "Ġauntie": 7419,
      "finn": 7420,
      "Ġknocking": 7421,
      "Ġfloors": 7422,
      "Ġefforts": 7423,
      "Ġtrot": 7424,
      "Ġuniforms": 7425,
      "anie": 7426,
      "Ġfootprints": 7427,
      "Ġaware": 7428,
      "ening": 7429,
      "Ġgerms": 7430,
      "sol": 7431,
      "Ġnearly": 7432,
      "Ġria": 7433,
      "Ġfiona": 7434,
      "Ġcotton": 7435,
      "Ġwhimp": 7436,
      "llas": 7437,
      "Ġslapping": 7438,
      "Ġglitt": 7439,
      "Ġdisc": 7440,
      "Ġappreciation": 7441,
      "oosh": 7442,
      "Ġnecks": 7443,
      "Ġcollap": 7444,
      "Ġlapt": 7445,
      "Ġchecks": 7446,
      "Ġcharge": 7447,
      "Ġstatues": 7448,
      "Ġplug": 7449,
      "rie": 7450,
      "Ġjacky": 7451,
      "olive": 7452,
      "sun": 7453,
      "Ġumbrellas": 7454,
      "Ġghosts": 7455,
      "Ġfluttering": 7456,
      "find": 7457,
      "Ġwrigg": 7458,
      "Ġfinishing": 7459,
      "Ġstamped": 7460,
      "Ġhunters": 7461,
      "Ġsandcastles": 7462,
      "Ġdavey": 7463,
      "Ġamelia": 7464,
      "Ġshrank": 7465,
      "Ġhonesty": 7466,
      "hoppy": 7467,
      "iscuit": 7468,
      "Ġpassengers": 7469,
      "Ġadds": 7470,
      "Ġchocolates": 7471,
      "Ġstroll": 7472,
      "Ġdodged": 7473,
      "Ġaprons": 7474,
      "Ġmatey": 7475,
      "Ġweeds": 7476,
      "Ġfriendships": 7477,
      "Ġaisle": 7478,
      "Ġsets": 7479,
      "Ġgerry": 7480,
      "Ġdeed": 7481,
      ".'\"": 7482,
      "Ġnurses": 7483,
      "Ġdemanding": 7484,
      "issa": 7485,
      "Ġdiscussing": 7486,
      "Ġscratching": 7487,
      "arrr": 7488,
      "Ġminding": 7489,
      "Ġmeows": 7490,
      "splash": 7491,
      "Ġsnuggle": 7492,
      "grow": 7493,
      "Ġkilled": 7494,
      "Ġcari": 7495,
      "Ġposit": 7496,
      "Ġclosing": 7497,
      "Ġdriveway": 7498,
      "Ġwooly": 7499,
      "danger": 7500,
      "Ġbecomes": 7501,
      "Ġattack": 7502,
      "Ġtoolbox": 7503,
      "Ġsadie": 7504,
      "Ġeliz": 7505,
      "Ġlaptop": 7506,
      "lied": 7507,
      "Ġgrandfather": 7508,
      "Ġdina": 7509,
      "Ġspringing": 7510,
      "Ġtraveling": 7511,
      "speedy": 7512,
      "arrow": 7513,
      "Ġrays": 7514,
      "Ġdisobey": 7515,
      "Ġbounces": 7516,
      "Ġsprays": 7517,
      "Ġscampered": 7518,
      "Ġsupplied": 7519,
      "Ġbiscuit": 7520,
      "Ġburns": 7521,
      "inda": 7522,
      "Ġsuggestion": 7523,
      "Ġmodels": 7524,
      "belle": 7525,
      "Ġerase": 7526,
      "Ġanticipation": 7527,
      "mouse": 7528,
      "Ġtwenty": 7529,
      "Ġbelongings": 7530,
      "Ġhumming": 7531,
      "Ġinvites": 7532,
      "Ġstan": 7533,
      "Ġfoxes": 7534,
      "Ġtwists": 7535,
      "Ġmassages": 7536,
      "Ġcafe": 7537,
      "Ġforgives": 7538,
      "carl": 7539,
      "Ġaim": 7540,
      "Ġcond": 7541,
      "Ġnewfound": 7542,
      "Ġresponded": 7543,
      "Ġtin": 7544,
      "Ġshelly": 7545,
      "Ġexpecting": 7546,
      "does": 7547,
      "Ġcheated": 7548,
      "Ġmommies": 7549,
      "gigi": 7550,
      "trust": 7551,
      "Ġconc": 7552,
      "Ġbattle": 7553,
      "Ġtests": 7554,
      "Ġjets": 7555,
      "becca": 7556,
      "Ġhaird": 7557,
      "Ġcarries": 7558,
      "Ġinvitations": 7559,
      "emp": 7560,
      "Ġmelo": 7561,
      "Ġrefreshing": 7562,
      "Ġduckling": 7563,
      "Ġpresented": 7564,
      "Ġrowed": 7565,
      "lotte": 7566,
      "Ġdesigning": 7567,
      "Ġgrump": 7568,
      "ĠâĢĶ": 7569,
      "Ġbibi": 7570,
      "Ġfinal": 7571,
      "Ġmarshmallows": 7572,
      "Ġclicked": 7573,
      "Ġmugs": 7574,
      "Ġhallow": 7575,
      "Ġhalloween": 7576,
      "cla": 7577,
      "Ġruth": 7578,
      "prom": 7579,
      "ien": 7580,
      "Ġhopper": 7581,
      "Ġdrown": 7582,
      "Ġconvin": 7583,
      "Ġpicnics": 7584,
      "Ġaliens": 7585,
      "Ġoppos": 7586,
      "Ġdefe": 7587,
      "Ġtricycle": 7588,
      "Ġscoops": 7589,
      "Ġbon": 7590,
      "inted": 7591,
      "Ġflop": 7592,
      "brrr": 7593,
      "sadly": 7594,
      "Ġmaddie": 7595,
      "boom": 7596,
      "Ġtravels": 7597,
      "Ġbubba": 7598,
      "Ġquestioned": 7599,
      "near": 7600,
      "uel": 7601,
      "Ġcoach": 7602,
      "Ġstrips": 7603,
      "Ġfights": 7604,
      "Ġyawning": 7605,
      "mean": 7606,
      "ended": 7607,
      "ashing": 7608,
      "covered": 7609,
      "Ġraising": 7610,
      "Ġcheat": 7611,
      "Ġopposite": 7612,
      "Ġbiggy": 7613,
      "Ġsprout": 7614,
      "Ġrout": 7615,
      "chloe": 7616,
      "bit": 7617,
      "worm": 7618,
      "Ġweapons": 7619,
      "Ġafford": 7620,
      "Ġencountered": 7621,
      "Ġdecl": 7622,
      "Ġcalmly": 7623,
      "Ġcrystals": 7624,
      "Ġconsid": 7625,
      "tree": 7626,
      "Ġupside": 7627,
      "Ġsincere": 7628,
      "both": 7629,
      "iment": 7630,
      "Ġcupcakes": 7631,
      "Ġnutty": 7632,
      "Ġvivi": 7633,
      "jess": 7634,
      "Ġrita": 7635,
      "Ġflashed": 7636,
      "Ġstuffing": 7637,
      "meanwhile": 7638,
      "Ġdefin": 7639,
      "Ġrealizes": 7640,
      "Ġwinners": 7641,
      "cie": 7642,
      "omb": 7643,
      "mon": 7644,
      "Ġding": 7645,
      "Ġsacks": 7646,
      "Ġsamantha": 7647,
      "Ġswallow": 7648,
      "Ġbuckled": 7649,
      "appy": 7650,
      "byes": 7651,
      "Ġwhales": 7652,
      "Ġdiamonds": 7653,
      "promise": 7654,
      "Ġsatur": 7655,
      "Ġmesses": 7656,
      "',": 7657,
      "Ġbless": 7658,
      "Ġpackages": 7659,
      "itely": 7660,
      "josh": 7661,
      "pap": 7662,
      "Ġgoodbyes": 7663,
      "Ġattemp": 7664,
      "quet": 7665,
      "Ġconvers": 7666,
      "Ġunable": 7667,
      "je": 7668,
      "Ġmina": 7669,
      "Ġpuffy": 7670,
      "Ġeva": 7671,
      "Ġenem": 7672,
      "Ġsofty": 7673,
      "Ġreturning": 7674,
      "Ġscrub": 7675,
      "Ġenemies": 7676,
      "Ġyummiest": 7677,
      "since": 7678,
      "Ġmegan": 7679,
      "Ġtraps": 7680,
      "Ġfreezing": 7681,
      "Ġadmiration": 7682,
      "Ġfain": 7683,
      "rain": 7684,
      "Ġlouise": 7685,
      "Ġcosy": 7686,
      "Ġclip": 7687,
      "Ġbeetles": 7688,
      "bage": 7689,
      "igger": 7690,
      "Ġsadder": 7691,
      "Ġbrightest": 7692,
      "Ġgarbage": 7693,
      "Ġrespon": 7694,
      "only": 7695,
      "Ġribbit": 7696,
      "Ġresponse": 7697,
      "broken": 7698,
      "Ġbride": 7699,
      "Ġspices": 7700,
      "stalk": 7701,
      "Ġreapp": 7702,
      "Ġdragonfly": 7703,
      "Ġwhispering": 7704,
      "Ġhonking": 7705,
      "Ġopport": 7706,
      "Ġodd": 7707,
      "Ġstretches": 7708,
      "Ġprevented": 7709,
      "antastic": 7710,
      "Ġcaps": 7711,
      "Ġweighs": 7712,
      "Ġawful": 7713,
      "kay": 7714,
      "Ġjourneys": 7715,
      "Ġexamining": 7716,
      "Ġautomobiles": 7717,
      "Ġawoke": 7718,
      "Ġborn": 7719,
      "ici": 7720,
      "Ġbeanstalk": 7721,
      "ris": 7722,
      "alth": 7723,
      "shap": 7724,
      "surrender": 7725,
      "Ġreassured": 7726,
      "Ġstall": 7727,
      "Ġvisitors": 7728,
      "Ġargum": 7729,
      "Ġoffering": 7730,
      "Ġsaturday": 7731,
      "Ġmaisy": 7732,
      "Ġdefinitely": 7733,
      "Ġsens": 7734,
      "Ġcoral": 7735,
      "Ġplaydate": 7736,
      "Ġwashes": 7737,
      "Ġtravelling": 7738,
      "Ġcustomer": 7739,
      "Ġwealth": 7740,
      "action": 7741,
      "Ġbingo": 7742,
      "Ġbomb": 7743,
      "Ġwiser": 7744,
      "Ġoccas": 7745,
      "over": 7746,
      "Ġbou": 7747,
      "rachel": 7748,
      "Ġsofia": 7749,
      "cted": 7750,
      "got": 7751,
      "Ġdecoration": 7752,
      "ivia": 7753,
      "Ġhairdress": 7754,
      "Ġbouquet": 7755,
      ",'": 7756,
      "Ġelle": 7757,
      "Ġjumpy": 7758,
      "Ġcampfire": 7759,
      "Ġtumbled": 7760,
      "erk": 7761,
      "Ġincreasing": 7762,
      "Ġinspired": 7763,
      "Ġquacky": 7764,
      "iron": 7765,
      "ugging": 7766,
      "Ġwelcoming": 7767,
      "Ġloudest": 7768,
      "Ġjax": 7769,
      "repe": 7770,
      "Ġcrocodiles": 7771,
      "Ġgroan": 7772,
      "piece": 7773,
      "Ġparted": 7774,
      "Ġprizes": 7775,
      "Ġtype": 7776,
      "should": 7777,
      "Ġcraft": 7778,
      "Ġricky": 7779,
      "Ġcowboys": 7780,
      "repeat": 7781,
      "Ġfel": 7782,
      "Ġform": 7783,
      "daughter": 7784,
      "Ġdeclared": 7785,
      "honey": 7786,
      "sque": 7787,
      "Ġcorrectly": 7788,
      "Ġbeaks": 7789,
      "Ġcleared": 7790,
      "athan": 7791,
      "Ġcomforting": 7792,
      "Ġfantastic": 7793,
      "Ġflappy": 7794,
      "Ġcustomers": 7795,
      "Ġrewards": 7796,
      "Ġbubbly": 7797,
      "Ġbadger": 7798,
      "Ġdotty": 7799,
      "Ġnuzzled": 7800,
      "Ġexch": 7801,
      "Ġsoapy": 7802,
      "Ġwarmly": 7803,
      "finny": 7804,
      "Ġachoo": 7805,
      "Ġjud": 7806,
      "Ġpipes": 7807,
      "Ġsirens": 7808,
      "Ġobeyed": 7809,
      "Ġscurry": 7810,
      "beth": 7811,
      "Ġrely": 7812,
      "Ġthanking": 7813,
      "Ġrecorder": 7814,
      "Ġconnect": 7815,
      "friends": 7816,
      "shaped": 7817,
      "Ġnat": 7818,
      "Ġinsisting": 7819,
      "oving": 7820,
      "Ġfluff": 7821,
      "Ġvicky": 7822,
      "Ġtrigger": 7823,
      "Ġspoiling": 7824,
      "Ġsupporting": 7825,
      "tw": 7826,
      "Ġowns": 7827,
      "Ġbends": 7828,
      "ats": 7829,
      "outside": 7830,
      "Ġposes": 7831,
      "Ġhairdresser": 7832,
      "war": 7833,
      "Ġmoons": 7834,
      "Ġshares": 7835,
      "Ġcleans": 7836,
      "Ġstorms": 7837,
      "Ġtroubles": 7838,
      "Ġsurrendered": 7839,
      "hopper": 7840,
      "Ġbeaming": 7841,
      "iri": 7842,
      "rench": 7843,
      "julie": 7844,
      "Ġwrinkled": 7845,
      "Ġsigning": 7846,
      "Ġchopped": 7847,
      "Ġexperien": 7848,
      "Ġsoot": 7849,
      "Ġdollar": 7850,
      "Ġpatty": 7851,
      "Ġhooks": 7852,
      "Ġthump": 7853,
      "Ġenjoyable": 7854,
      "Ġactive": 7855,
      "Ġloc": 7856,
      "Ġstreamers": 7857,
      "lia": 7858,
      "Ġkevin": 7859,
      "Ġself": 7860,
      "Ġmiller": 7861,
      "Ġenviron": 7862,
      "elope": 7863,
      "screen": 7864,
      "Ġtickles": 7865,
      "Ġshorts": 7866,
      "udged": 7867,
      "Ġgrat": 7868,
      "Ġzack": 7869,
      "Ġexamp": 7870,
      "suzy": 7871,
      "Ġchoosing": 7872,
      "Ġapplauding": 7873,
      "Ġshooed": 7874,
      "Ġenvironment": 7875,
      "Ġluc": 7876,
      "Ġwarrior": 7877,
      "Ġscent": 7878,
      "Ġbruises": 7879,
      "Ġting": 7880,
      "Ġbrake": 7881,
      "Ġhisses": 7882,
      "Ġcrust": 7883,
      "Ġdisappoint": 7884,
      "Ġpilots": 7885,
      "Ġsteering": 7886,
      "Ġplugged": 7887,
      "Ġelsa": 7888,
      "din": 7889,
      "Ġdangers": 7890,
      "Ġvisits": 7891,
      "ails": 7892,
      "Ġexercises": 7893,
      "Ġgratitude": 7894,
      "Ġsquished": 7895,
      "Ġweighing": 7896,
      "gina": 7897,
      "munk": 7898,
      "Ġproviding": 7899,
      "Ġmoppy": 7900,
      "ering": 7901,
      "Ġnights": 7902,
      "Ġchipmunk": 7903,
      "Ġconvinced": 7904,
      "Ġsunscreen": 7905,
      "Ġelsie": 7906,
      "Ġresponsib": 7907,
      "Ġbond": 7908,
      "Ġkelly": 7909,
      "Ġbrains": 7910,
      "bbling": 7911,
      "Ġyoungest": 7912,
      "Ġactivity": 7913,
      "Ġnearest": 7914,
      "Ġrewarding": 7915,
      "Ġexploded": 7916,
      "Ġarranged": 7917,
      "Ġcoughed": 7918,
      "Ġtweety": 7919,
      "claire": 7920,
      "Ġdu": 7921,
      "vi": 7922,
      "Ġkaty": 7923,
      "Ġphil": 7924,
      "zig": 7925,
      "Ġsnug": 7926,
      "Ġtops": 7927,
      "Ġforgiveness": 7928,
      "ilities": 7929,
      "ooky": 7930,
      "Ġannoying": 7931,
      "hmm": 7932,
      "Ġtapping": 7933,
      "Ġscram": 7934,
      "Ġoffic": 7935,
      "people": 7936,
      "Ġthreads": 7937,
      "Ġrails": 7938,
      "Ġlaces": 7939,
      "Ġjumper": 7940,
      "ahoy": 7941,
      "Ġappreciated": 7942,
      "boards": 7943,
      "Ġheartbroken": 7944,
      "Ġemerged": 7945,
      "Ġcongratulated": 7946,
      "pit": 7947,
      "Ġdrip": 7948,
      "Ġdial": 7949,
      "Ġmanager": 7950,
      "Ġclerk": 7951,
      "Ġerasers": 7952,
      "Ġnancy": 7953,
      "Ġmessed": 7954,
      "momma": 7955,
      "Ġjonny": 7956,
      "Ġexample": 7957,
      "Ġkinder": 7958,
      "Ġill": 7959,
      "Ġcheating": 7960,
      "Ġblond": 7961,
      "Ġbathed": 7962,
      "Ġguarding": 7963,
      "Ġmasterpiece": 7964,
      "Ġbeast": 7965,
      "etah": 7966,
      "snowy": 7967,
      "Ġcheetah": 7968,
      "Ġtips": 7969,
      "ibr": 7970,
      "sse": 7971,
      "Ġfet": 7972,
      "Ġfinishes": 7973,
      "Ġotters": 7974,
      "Ġcommon": 7975,
      "aa": 7976,
      "eat": 7977,
      "Ġmemb": 7978,
      "Ġbluebird": 7979,
      "Ġdigs": 7980,
      "Ġgenerosity": 7981,
      "Ġnibbled": 7982,
      "Ġtrotted": 7983,
      "Ġmembers": 7984,
      "Ġsly": 7985,
      "rick": 7986,
      "Ġshrunk": 7987,
      "Ġchews": 7988,
      "Ġparticularly": 7989,
      "wor": 7990,
      "Ġrips": 7991,
      "coon": 7992,
      "lizzy": 7993,
      "frog": 7994,
      "Ġargument": 7995,
      "Ġjugg": 7996,
      "Ġobserving": 7997,
      "used": 7998,
      "Ġfishes": 7999,
      "Ġearned": 8000,
      "Ġcici": 8001,
      "Ġmischie": 8002,
      "Ġcheaper": 8003,
      "Ġexperienced": 8004,
      "never": 8005,
      "Ġcages": 8006,
      "rosie": 8007,
      "Ġmischievous": 8008,
      "stand": 8009,
      "Ġstores": 8010,
      "ordinary": 8011,
      "Ġmeowing": 8012,
      "cindy": 8013,
      "Ġstrum": 8014,
      "flies": 8015,
      "spr": 8016,
      "lesc": 8017,
      "Ġpasses": 8018,
      "Ġmattered": 8019,
      "etchup": 8020,
      "Ġchilly": 8021,
      "Ġtelesc": 8022,
      "mil": 8023,
      "Ġlimp": 8024,
      "Ġsleeps": 8025,
      "aye": 8026,
      "Ġwolves": 8027,
      "Ġmats": 8028,
      "Ġbreaths": 8029,
      "ative": 8030,
      "Ġfreddie": 8031,
      "Ġgasps": 8032,
      "ya": 8033,
      "Ġgill": 8034,
      "Ġmelody": 8035,
      "Ġscrambled": 8036,
      "Ġrumbling": 8037,
      "Ġhatch": 8038,
      "Ġfarmers": 8039,
      "Ġsatisf": 8040,
      "Ġaccomplished": 8041,
      "Ġsmartest": 8042,
      "Ġcourt": 8043,
      "Ġtelescope": 8044,
      "ully": 8045,
      "Ġwhined": 8046,
      "Ġmoat": 8047,
      "Ġgardens": 8048,
      "Ġangrily": 8049,
      "hole": 8050,
      "whenever": 8051,
      "Ġsyrup": 8052,
      "Ġketchup": 8053,
      "robbie": 8054,
      "Ġforests": 8055,
      "Ġelect": 8056,
      "Ġmedals": 8057,
      "Ġvests": 8058,
      "Ġcollapsed": 8059,
      "aven": 8060,
      "Ġsnapping": 8061,
      "Ġdiscoveries": 8062,
      "Ġstyles": 8063,
      "Ġexperiences": 8064,
      "adabra": 8065,
      "Ġforeshadow": 8066,
      "Ġtrans": 8067,
      "Ġmeaning": 8068,
      "Ġconqu": 8069,
      "baa": 8070,
      "Ġtypes": 8071,
      "papa": 8072,
      "Ġfaint": 8073,
      "three": 8074,
      "Ġhardest": 8075,
      "Ġtoothbrush": 8076,
      "Ġmovements": 8077,
      "Ġspears": 8078,
      "Ġexpression": 8079,
      "Ġspooky": 8080,
      "Ġhorri": 8081,
      "acles": 8082,
      "Ġextraordinary": 8083,
      "Ġaffect": 8084,
      "pinky": 8085,
      "Ġvibr": 8086,
      "Ġsooner": 8087,
      "Ġunfair": 8088,
      "cadabra": 8089,
      "Ġscores": 8090,
      "Ġpeaco": 8091,
      "Ġzog": 8092,
      "Ġattitude": 8093,
      "Ġthie": 8094,
      "Ġsurv": 8095,
      "Ġgrasshopper": 8096,
      "Ġkneeling": 8097,
      "Ġprickly": 8098,
      "gre": 8099,
      "Ġhood": 8100,
      "idey": 8101,
      "Ġmarking": 8102,
      "Ġbehaviour": 8103,
      "Ġglittering": 8104,
      "karen": 8105,
      "Ġashley": 8106,
      "Ġafar": 8107,
      "Ġcomets": 8108,
      "Ġpokes": 8109,
      "Ġwoolly": 8110,
      "Ġscri": 8111,
      "Ġclassmates": 8112,
      "Ġthicker": 8113,
      "jacob": 8114,
      "jon": 8115,
      "Ġterry": 8116,
      "Ġicky": 8117,
      "Ġsqueezes": 8118,
      "Ġslithered": 8119,
      "Ġthieves": 8120,
      "anny": 8121,
      "Ġexpert": 8122,
      "Ġskirts": 8123,
      "Ġzigzags": 8124,
      "Ġtopp": 8125,
      "Ġriri": 8126,
      "Ġannounced": 8127,
      "ror": 8128,
      "sha": 8129,
      "Ġcally": 8130,
      "Ġwatermel": 8131,
      "Ġtrading": 8132,
      "Ġcosts": 8133,
      "ril": 8134,
      "Ġconcer": 8135,
      "Ġtidying": 8136,
      "athy": 8137,
      "Ġwoodcut": 8138,
      "Ġacts": 8139,
      "Ġthumbs": 8140,
      "Ġsav": 8141,
      "amma": 8142,
      "Ġpeacock": 8143,
      "aret": 8144,
      "Ġboards": 8145,
      "Ġcocoon": 8146,
      "Ġraking": 8147,
      "Ġdrift": 8148,
      "Ġservant": 8149,
      "Ġbecky": 8150,
      "Ġeliza": 8151,
      "zero": 8152,
      "idence": 8153,
      "Ġjason": 8154,
      "Ġfoam": 8155,
      "Ġexplaining": 8156,
      "Ġkangaroos": 8157,
      "Ġelectric": 8158,
      "Ġrhino": 8159,
      "bounce": 8160,
      "jessie": 8161,
      "Ġlunchtime": 8162,
      "erts": 8163,
      "storm": 8164,
      "Ġtidied": 8165,
      "Ġdesserts": 8166,
      "Ġdisagreeing": 8167,
      "Ġhamm": 8168,
      "Ġseeking": 8169,
      "Ġspilling": 8170,
      "Ġchill": 8171,
      "flowers": 8172,
      "poison": 8173,
      "Ġtransform": 8174,
      "Ġmaddy": 8175,
      "Ġdaniel": 8176,
      "anced": 8177,
      "Ġoink": 8178,
      "Ġsnar": 8179,
      "Ġactor": 8180,
      "Ġheaven": 8181,
      "Ġdev": 8182,
      "Ġmessages": 8183,
      "Ġgulp": 8184,
      "Ġdiscouraged": 8185,
      "Ġtammy": 8186,
      "Ġgilly": 8187,
      "Ġbeating": 8188,
      "Ġwhee": 8189,
      "Ġwindowsill": 8190,
      "Ġlina": 8191
    },
    "merges": [
      "Ġ t",
      "h e",
      "Ġ a",
      "Ġ s",
      "Ġt he",
      "Ġ w",
      "n d",
      "e d",
      "Ġ b",
      "Ġt o",
      "Ġa nd",
      "Ġ h",
      "Ġ f",
      "Ġ i",
      "Ġ l",
      "Ġw a",
      "r e",
      "Ġ he",
      "o u",
      "Ġ d",
      "Ġ m",
      "o n",
      "Ġ c",
      "Ġ p",
      "a y",
      "i n",
      "Ġwa s",
      "e r",
      "Ġs a",
      "i t",
      "Ġ n",
      "a r",
      "i m",
      "l l",
      "i d",
      "o m",
      "Ġthe y",
      "Ġh a",
      "Ġ g",
      "i s",
      "a t",
      "in g",
      "o t",
      "Ġi t",
      "a n",
      "e n",
      "l e",
      "o r",
      "e nd",
      "Ġs he",
      "Ġ on",
      "Ġt im",
      "i r",
      "o f",
      "Ġt h",
      "e t",
      "i g",
      "Ġi n",
      "Ġl i",
      "Ġp l",
      "a m",
      "Ġ y",
      "Ġ \"",
      "o w",
      "v er",
      "r i",
      "Ġb e",
      "u t",
      "l y",
      "Ġ u",
      "Ġsa id",
      "Ġpl ay",
      "Ġw it",
      "Ġwit h",
      "Ġd ay",
      "p p",
      "Ġ r",
      "Ġhe r",
      "o o",
      "Ġh is",
      "k ed",
      "Ġy ou",
      "l d",
      "c e",
      "e x",
      "Ġs t",
      "k e",
      "Ġb ig",
      "n t",
      "c k",
      "s t",
      "ver y",
      "v e",
      "Ġw e",
      "Ġm a",
      "u n",
      "Ġha pp",
      "Ġ e",
      "ri end",
      "Ġf riend",
      "ex t",
      "of t",
      "Ġb a",
      "he r",
      "Ġha d",
      "Ġn ot",
      "Ġu p",
      "Ġd o",
      "Ġm om",
      "Ġwa nt",
      "Ġb ut",
      "Ġ of",
      "it t",
      "< |",
      "| >",
      "end oft",
      "endoft ext",
      "s e",
      "Ġs o",
      "Ġth at",
      "Ġhapp y",
      "en t",
      "Ġ very",
      "Ġb o",
      "e s",
      "Ġsa w",
      "' s",
      "ou ld",
      "Ġf or",
      "Ġs h",
      "Ġ k",
      "itt le",
      "Ġl ittle",
      "c h",
      "Ġthe re",
      "Ġn am",
      ". \"",
      "Ġtim e",
      "ou nd",
      "Ġa n",
      "Ġ j",
      "Ġnam ed",
      "Ġs m",
      "on e",
      "Ġli ly",
      "Ġwe re",
      "Ġn e",
      "Ġwant ed",
      "Ġto m",
      "ou t",
      "t he",
      "Ġfriend s",
      "v ed",
      "! \"",
      "Ġs u",
      "Ġw h",
      "h t",
      "Ġb ir",
      "Ġon e",
      "Ġbir d",
      "a l",
      "Ġa ll",
      "Ġto o",
      "om e",
      "l p",
      "r a",
      "Ġw ent",
      "e l",
      "u g",
      "Ġs p",
      "Ġi s",
      "a d",
      "Ġhe lp",
      "Ġl oo",
      "Ġl o",
      "i l",
      "t er",
      "Ġup on",
      "r y",
      "Ġa s",
      "a ll",
      "o re",
      "Ġa t",
      "Ġf un",
      "g et",
      "Ġto y",
      "Ġ re",
      "i nd",
      "i ll",
      "am e",
      "Ġ o",
      "Ġd id",
      "Ġf r",
      "get her",
      "id e",
      "Ġto gether",
      "Ġc an",
      "Ġs e",
      "Ġc at",
      "Ġt re",
      "Ġon ce",
      "oo d",
      "Ġdo g",
      "t ed",
      "i c",
      "Ġthe ir",
      "Ġc ould",
      "Ġr o",
      "ar d",
      "ar k",
      "e c",
      "Ġl e",
      "Ġg ir",
      "Ġg o",
      "Ġba ll",
      "Ġplay ed",
      "Ġh im",
      "? \"",
      "Ġgir l",
      "w ay",
      "Ġa re",
      "he d",
      "Ġ out",
      "Ġc a",
      "a in",
      "he n",
      "Ġk n",
      "m y",
      "Ġthe m",
      "' t",
      "u m",
      "Ġsa d",
      "d e",
      "Ġm an",
      "Ġbo y",
      "u l",
      "Ġtre e",
      "Ġha ve",
      "ot her",
      "Ġc l",
      "Ġlo ved",
      "Ġloo ked",
      "ou g",
      "Ġf ound",
      "Ġst ar",
      "u r",
      "Ġsu e",
      "h ing",
      "Ġs c",
      "Ġba ck",
      "i ly",
      "ow n",
      "Ġma x",
      "Ġli ke",
      "Ġfr om",
      "f ul",
      "s ide",
      "Ġm e",
      "Ġbe c",
      "Ġl a",
      "Ġe very",
      "Ġc ar",
      "Ġt a",
      "Ġp ark",
      "ig ht",
      "on g",
      "Ġf a",
      "Ġw ould",
      "el t",
      "Ġsa m",
      "Ġli ked",
      "o p",
      "Ġb en",
      "Ġma ke",
      "r ound",
      "Ġf elt",
      "Ġse e",
      "Ġn o",
      "a s",
      "om et",
      "Ġthe n",
      "Ġas ked",
      "Ġne w",
      "ou se",
      "Ġa l",
      "Ġstar ted",
      "ar ed",
      "Ġc ame",
      "Ġw hen",
      "Ġs omet",
      "Ġ other",
      "oug ht",
      "il ed",
      "Ġb r",
      "Ġg ood",
      "Ġa g",
      "Ġf l",
      "Ġsm all",
      "Ġwh at",
      "Ġsm iled",
      "Ġs ay",
      "ri ed",
      "ing s",
      "Ġf e",
      "t h",
      "Ġsp ot",
      "Ġw or",
      "Ġf ind",
      "Ġc o",
      "Ġa way",
      "Ġp ut",
      "i a",
      "Ġsomet hing",
      "Ġ ex",
      "t y",
      "Ġma de",
      "Ġth ought",
      "en ed",
      "i ce",
      "Ġh ome",
      "Ġplay ing",
      "u e",
      "Ġwa l",
      "Ġm u",
      "oo k",
      "s s",
      "ar n",
      "Ġs ome",
      "Ġr an",
      "i le",
      "i e",
      "Ġb l",
      "Ġag ain",
      "c y",
      "Ġla ug",
      "d d",
      "a ch",
      "b le",
      "Ġh ouse",
      "Ġw ill",
      "Ġm y",
      "Ġd own",
      "k ing",
      "Ġp r",
      "Ġc h",
      "Ġtoo k",
      "Ġsc ared",
      "n y",
      "Ġtoy s",
      "Ġle arn",
      "Ġyou r",
      "Ġb u",
      "Ġbo x",
      "re t",
      "i ck",
      "e p",
      "Ġa round",
      "Ġth ings",
      "Ġs un",
      "a ve",
      "ou d",
      "is h",
      "Ġli ved",
      "g e",
      "Ġs w",
      ", \"",
      "pp ed",
      "t im",
      "Ġm ia",
      "an k",
      "y es",
      "Ġg et",
      "Ġd ad",
      "t o",
      "u cy",
      "um p",
      "Ġl ot",
      "Ġth is",
      "Ġman y",
      "u ck",
      "ot h",
      "Ġl et",
      "Ġt ried",
      "Ġwh o",
      "n a",
      "u re",
      "Ġkn ow",
      "Ġsay s",
      "is t",
      "Ġa b",
      "Ġg ot",
      "it ed",
      "Ġkn e",
      "u st",
      "nd er",
      "Ġab out",
      "l ily",
      "e ll",
      "Ġr ed",
      "Ġp ret",
      "Ġp o",
      "a re",
      "Ġan y",
      "Ġd ec",
      "f e",
      "i ve",
      "Ġp u",
      "Ġkne w",
      "a ce",
      "Ġ v",
      "Ġm ore",
      "ou s",
      "is e",
      "q u",
      "Ġca re",
      "a u",
      "Ġp ic",
      "Ġh ug",
      "Ġwa ter",
      "Ġl ucy",
      "Ġlearn ed",
      "f ter",
      "Ġloo k",
      "Ġbec ame",
      "Ġbe st",
      "Ġj o",
      "Ġg re",
      "Ġo p",
      "Ġin side",
      "Ġp e",
      "Ġh o",
      "Ġex c",
      "au se",
      "way s",
      "Ġu n",
      "â Ģ",
      "Ġout side",
      "Ġlaug hed",
      "Ġal ways",
      "Ġsh ow",
      "m a",
      "Ġdec id",
      "Ġbec ause",
      "Ġbo b",
      "Ġro om",
      "Ġdecid ed",
      "Ġe at",
      "Ġin to",
      "it e",
      "an t",
      "Ġb oth",
      "Ġj ump",
      "er s",
      "Ġ ke",
      "Ġm o",
      "t om",
      "the y",
      "Ġg ra",
      "p r",
      "Ġsu r",
      "a p",
      "Ġexc ited",
      "Ġn ice",
      "Ġfa st",
      "Ġfe el",
      "Ġr un",
      "Ġl ong",
      "ou r",
      "Ġs k",
      "Ġto ld",
      "Ġt r",
      "Ġh ow",
      "Ġsur pr",
      "ll y",
      "Ġpret ty",
      "in k",
      "in y",
      "Ġs or",
      "w h",
      "Ġta ke",
      "b b",
      "g ed",
      "Ġs l",
      "Ġe ach",
      "Ġro ck",
      "Ġn ow",
      "on ce",
      "Ġg ave",
      "Ġmu ch",
      "le w",
      "Ġst r",
      "Ġ or",
      "im al",
      "Ġan imal",
      "Ġne ed",
      "b ut",
      "Ġu nder",
      "Ġth an",
      "v en",
      "Ġto w",
      "r o",
      "c hed",
      "Ġbe ar",
      "Ġj ust",
      "s ed",
      "a ck",
      "Ġsor ry",
      "Ġo ld",
      "is ed",
      "f f",
      "Ġa fter",
      "he re",
      "Ġf ish",
      "ur t",
      "Ġc le",
      "Ġwal ked",
      "Ġb et",
      "Ġcl o",
      "es s",
      "Ġha nd",
      "ur n",
      "Ġk ind",
      "Ġt w",
      "Ġf i",
      "Ġi f",
      "Ġl ist",
      "Ġhapp ened",
      "Ġfl ow",
      "Ġt e",
      "Ġf ood",
      "Ġsk y",
      "Ġwa t",
      "s o",
      "Ġdid n",
      "Ġanimal s",
      "Ġh ig",
      "Ġne ar",
      "Ġt ry",
      "Ġi de",
      "p l",
      "Ġr a",
      "in e",
      "v ing",
      "at e",
      "Ġb ug",
      "Ġit s",
      "b y",
      "Ġide a",
      "Ġbet ter",
      "Ġa my",
      "le t",
      "Ġf o",
      "Ġd on",
      "Ġhe ard",
      "g ry",
      "th ank",
      "Ġa m",
      "p ec",
      "a se",
      "Ġ en",
      "Ġd an",
      "Ġsh are",
      "Ġcare ful",
      "Ġevery one",
      "Ġf ly",
      "m om",
      "Ġst or",
      "i al",
      "Ġf lew",
      "Ġe ven",
      "Ġc ome",
      "m ore",
      "Ġbl ue",
      "Ġany more",
      "Ġb y",
      "all y",
      "o g",
      "Ġf in",
      "Ġsp ec",
      "Ġspec ial",
      "Ġc u",
      "Ġc om",
      "Ġlot s",
      "Ġne ver",
      "i on",
      "l f",
      "re am",
      "Ġ end",
      "Ġg r",
      "Ġw ind",
      "Ġlo ve",
      "Ġt al",
      "Ġcle an",
      "Ġ Ċ",
      "Ġma g",
      "or t",
      "r m",
      "Ġsa fe",
      "op le",
      "b e",
      "s h",
      "Ġpe ople",
      "Ġh ard",
      "Ġsh iny",
      "Ġo ver",
      "Ġf ore",
      "dd en",
      "Ġca ke",
      "Ġb ook",
      "Ġco l",
      "b er",
      "Ġt urn",
      "Ġba d",
      "Ġf am",
      "Ġg ive",
      "Ġan na",
      "ad y",
      "dden ly",
      "Ġpr oud",
      "Ġsurpr ised",
      "i f",
      "pec ted",
      "Ġhig h",
      "Ġh urt",
      "Ġc he",
      "im b",
      "Ġg ard",
      "Ġdo or",
      "Ġgard en",
      "y ou",
      "Ġbe a",
      "Ġg round",
      "Ġop ened",
      "Ġpic ked",
      "Ġcl imb",
      "Ġl oud",
      "Ġg l",
      "o k",
      "ex pected",
      "Ġun expected",
      "i ld",
      "Ġwa y",
      "Ġf ar",
      "' m",
      "Ġst ill",
      "Ġthan ked",
      "Ġcol or",
      "Ġe ver",
      "Ġhug ged",
      "Ġc all",
      "c t",
      "i p",
      "m p",
      "Ġsa ra",
      "Ġof f",
      "Ġmag ic",
      "oug h",
      "um my",
      "Ġso on",
      "Ġjump ed",
      "n o",
      "Ġsh ould",
      "Ġk id",
      "Ġp ar",
      "Ġfam ily",
      "oo l",
      "Ġk itt",
      "Ġsm ile",
      "j o",
      "Ġ qu",
      "he s",
      "Ġmom my",
      "Ġpl ace",
      "i z",
      "Ġfr og",
      "Ġwal k",
      "Ġgre at",
      "Ġst ay",
      "Ġwh ile",
      "Ġt ra",
      "Ġu nt",
      "Ġstr ong",
      "Ġn ext",
      "Ġst o",
      "Ġb ra",
      "Ġfore st",
      "e m",
      "an e",
      "g er",
      "Ġs qu",
      "Ġp a",
      "Ġunt il",
      "b o",
      "d y",
      "Ġbea ut",
      "Ġst ick",
      "u ff",
      "Ġbo at",
      "le ase",
      "n ing",
      "Ġlist en",
      "Ġkid s",
      "t ure",
      "Ġhapp ily",
      "c an",
      "i es",
      "i ful",
      "Ġa pp",
      "Ġbeaut iful",
      "p t",
      "Ġhelp ed",
      "Ġd ra",
      "Ġshow ed",
      "Ġstor y",
      "Ġr ain",
      "a k",
      "re l",
      "Ġtow n",
      "Ġ z",
      "Ġbe ing",
      "Ġre m",
      "re ss",
      "Ġpic ture",
      "Ġw o",
      "Ġm or",
      "ar y",
      "Ġha t",
      "Ġa d",
      "Ġcall ed",
      "re e",
      "a ge",
      "Ġm et",
      "Ġb un",
      "Ġsto pped",
      "Ġd e",
      "Ġg ame",
      "Ġke ep",
      "Ġs oft",
      "Ġan gry",
      "Ġi mp",
      "Ġtr uck",
      "Ġop en",
      "uff y",
      "Ġkitt y",
      "w hen",
      "Ġy ummy",
      "Ġc ry",
      "a nd",
      "Ġbun ny",
      "Ġlo st",
      "Ġb ed",
      "Ġm ouse",
      "Ġsa lly",
      "Ġwa rm",
      "Ġwat ch",
      "v ent",
      "Ġbra ve",
      "Ġw here",
      "w e",
      "Ġs n",
      "Ġle ave",
      "Ġat e",
      "is hed",
      "Ġho le",
      "f ore",
      "Ġdo ll",
      "Ġgre en",
      "ck s",
      "ow l",
      "Ġcould n",
      "Ġtw o",
      "Ġal so",
      "dd ed",
      "Ġfe ll",
      "ll o",
      "Ġfa ce",
      "bb it",
      "wh at",
      "g an",
      "Ġflow ers",
      "Ġfl uffy",
      "Ġno ise",
      "ir st",
      "Ġbe fore",
      "Ġra bbit",
      "se lf",
      "Ġsl ide",
      "Ġsqu ir",
      "l ook",
      "Ġsa t",
      "Ġo k",
      "Ġsquir rel",
      "h i",
      "ir ed",
      "Ġd uck",
      "Ġhe ar",
      "Ġu se",
      "âĢ Ŀ",
      "th at",
      "Ġke pt",
      "âĢ ľ",
      "le s",
      "the n",
      "Ġno dded",
      "Ġc ook",
      "Ġto u",
      "Ġbird s",
      "Ġex pl",
      "Ġst ore",
      "Ġhand s",
      "Ġp ain",
      "Ġsun ny",
      "d ay",
      "Ġgo ing",
      "Ġfun ny",
      "Ġha ving",
      "Ġc ra",
      "Ġs ing",
      "ill y",
      "o on",
      "ay be",
      "Ġcat ch",
      "Ġj ack",
      "ug ht",
      "Ġy ell",
      "Ġth ink",
      "a ble",
      "le ep",
      "Ġfi x",
      "b en",
      "Ġb re",
      "Ġu s",
      "u ll",
      "ll ed",
      "Ġbl o",
      "Ġ our",
      "Ġt ired",
      "Ġloo king",
      "Ġu sed",
      "an ge",
      "Ġd r",
      "Ġwor k",
      "Ġw r",
      "Ġk it",
      "t ing",
      "Ġwa it",
      "Ġsu ddenly",
      "Ġth r",
      "Ġbe h",
      "a ir",
      "t hing",
      "Ġp lease",
      "Ġr u",
      "Ġs ound",
      "Ġme an",
      "Ġha s",
      "Ġrem em",
      "Ġpo nd",
      "Ġfl o",
      "Ġf irst",
      "Ġas k",
      "l ed",
      "Ġother s",
      "Ġs na",
      "he llo",
      "s er",
      "Ġtal k",
      "c hen",
      "Ġkit chen",
      "Ġsa nd",
      "n g",
      "Ġt ri",
      "Ġremem ber",
      "re w",
      "Ġp ie",
      "Ġhe ad",
      "Ġre al",
      "Ġe yes",
      "Ġimp ort",
      "Ġhe re",
      "Ġfa v",
      "jo y",
      "Ġh op",
      "Ġr ight",
      "Ġc on",
      "Ġflow er",
      "Ġpar ty",
      "Ġsw e",
      "Ġv o",
      "Ġco ld",
      "Ġm ess",
      "f t",
      "i ous",
      "at h",
      "Ġ âĢľ",
      "Ġr ace",
      "Ġcu ri",
      "Ġth ank",
      "or n",
      "Ġimport ant",
      "Ġen joy",
      "Ġmor al",
      "Ġ ri",
      "Ġsh ared",
      "Ġok ay",
      "Ġi ce",
      "z y",
      "ou nt",
      "ll ow",
      "Ġad vent",
      "Ġwor ked",
      "Ġcuri ous",
      "Ġbr ight",
      "Ġma king",
      "Ġd ress",
      "s u",
      "Ġ own",
      "st er",
      "Ġm on",
      "Ġt all",
      "Ġs leep",
      "Ġd ir",
      "re ed",
      "Ġh id",
      "h n",
      "Ġfav or",
      "u it",
      "Ġfo llow",
      "Ġd is",
      "w ow",
      "Ġfavor ite",
      "e ar",
      "Ġth ing",
      "Ġbe gan",
      "Ġba g",
      "d on",
      "c o",
      "Ġp ap",
      "Ġh ill",
      "Ġdra w",
      "Ġre st",
      "Ġt ell",
      "w here",
      "Ġy ard",
      "q ue",
      "Ġsh o",
      "Ġst op",
      "Ġgra nd",
      "Ġbe l",
      "Ġmo ve",
      "Ġwat ched",
      "Ġc ut",
      "Ġbeh ind",
      "ec t",
      "Ġn ight",
      "s p",
      "Ġp ick",
      "Ġag reed",
      "Ġh un",
      "c ed",
      "ar a",
      "c ked",
      "Ġsurpr ise",
      "Ġli on",
      "i ed",
      "Ġh ot",
      "a fter",
      "Ġwor ry",
      "Ġta ble",
      "Ġfar m",
      "Ġgra ss",
      "Ġtre es",
      "Ġd ark",
      "Ġvo ice",
      "Ġwal king",
      "Ġto p",
      "fe re",
      "Ġflo or",
      "if fere",
      "Ġd iffere",
      "Ġbut ter",
      "Ġswe et",
      "Ġs ong",
      "Ġta il",
      "by e",
      "Ġre ad",
      "ma x",
      "Ġl ady",
      "Ġsh out",
      "Ġcolor s",
      "Ġm is",
      "Ġfor g",
      "is y",
      "Ġleave s",
      "Ġclo ser",
      "Ġwh y",
      "f u",
      "Ġcar s",
      "s hed",
      "im es",
      "wh y",
      "Ġturn ed",
      "Ġneed ed",
      "Ġw ood",
      "Ġta st",
      "ar ing",
      "Ġc ried",
      "Ġdiffere nt",
      "Ġpr in",
      "Ġfi re",
      "Ġd el",
      "Ġd a",
      "Ġlaug h",
      "Ġpie ce",
      "Ġt iny",
      "Ġc r",
      "âĢ Ļ",
      "Ġdo es",
      "Ġha ir",
      "o ke",
      "Ġm r",
      "Ġadvent ure",
      "er ed",
      "an na",
      "s he",
      "Ġhun gry",
      "s ue",
      "Ġyell ow",
      "Ġfeel ing",
      "Ġpap er",
      "Ġtou ch",
      "Ġf ull",
      "a ke",
      "s am",
      "Ġw et",
      "Ġp er",
      "Ġfriend ly",
      "Ġsomet imes",
      "i ke",
      "Ġsw ing",
      "a ched",
      "Ġfr uit",
      "ok en",
      "Ġre ady",
      "p e",
      "i ent",
      "Ġbr oken",
      "Ġan other",
      "l a",
      "Ġl ight",
      "Ġpr om",
      "Ġpret end",
      "Ġdan ce",
      "Ġsn ow",
      "Ġon ly",
      "Ġclimb ed",
      "Ġlist ened",
      "Ġbob o",
      "Ġcl a",
      "Ġrun ning",
      "Ġpl an",
      "Ġsw im",
      "Ġg one",
      "bb ed",
      "Ġsl ow",
      "Ġtra in",
      "su ddenly",
      "pp y",
      "at er",
      "Ġclo se",
      "s ara",
      "Ġj ane",
      "Ġho ld",
      "Ġsm ell",
      "Ġa ma",
      "Ġm ar",
      "Ġwo nder",
      "Ġbu s",
      "Ġama z",
      "Ġblo cks",
      "Ġtim my",
      "Ġre pl",
      "Ġa nt",
      "Ġbutter f",
      "Ġse es",
      "Ġre ached",
      "Ġwa ll",
      "Ġhelp ing",
      "Ġgood bye",
      "Ġd ri",
      "one y",
      "Ġc ream",
      "Ġba by",
      "Ġf ight",
      "ck et",
      "c ome",
      "Ġst e",
      "a v",
      "Ġc ool",
      "Ġgl ad",
      "Ġa c",
      "Ġl ess",
      "Ġbe en",
      "Ġfa ir",
      "Ġe m",
      "a f",
      "at her",
      "m ia",
      "Ġpu shed",
      "ic ed",
      "Ġd in",
      "Ġmu st",
      "Ġh ide",
      "Ġa r",
      "Ġmom ent",
      "Ġwind ow",
      "Ġs it",
      "Ġball oon",
      "Ġch ild",
      "Ġqu ick",
      "Ġexpl ore",
      "Ġm aybe",
      "Ġw ished",
      "Ġgrand ma",
      "Ġwa g",
      "Ġd one",
      "Ġper f",
      "Ġbu y",
      "Ġst uck",
      "Ġm ight",
      "Ġs ig",
      "Ġb ar",
      "Ġnam e",
      "as s",
      "Ġtry ing",
      "iz ed",
      "Ġb it",
      "Ġapp le",
      "Ġcom ing",
      "Ġf all",
      "Ġ owl",
      "Ġp ink",
      "Ġw in",
      "Ġsc ary",
      "Ġdo ing",
      "Ġlook s",
      "Ġbu ild",
      "Ġd ream",
      "Ġunder st",
      "Ġdir ty",
      "Ġsp l",
      "Ġhe ld",
      "o om",
      "Ġm at",
      "dd y",
      "am es",
      "as h",
      "Ġw ise",
      "Ġbutterf ly",
      "Ġc ount",
      "Ġle ft",
      "Ġsu re",
      "Ġshout ed",
      "Ġrepl ied",
      "Ġthr ough",
      "Ġre ach",
      "av y",
      "Ġla nd",
      "Ġa ir",
      "Ġd ro",
      "Ġbr an",
      "Ġevery where",
      "Ġth ree",
      "Ġp at",
      "Ġfin ally",
      "Ġgr ow",
      "Ġtre at",
      "Ġl un",
      "Ġbr other",
      "Ġpu lled",
      "ke y",
      "Ġwood s",
      "Ġch air",
      "' re",
      "s k",
      "Ġbe ll",
      "Ġpl ant",
      "Ġcl oud",
      "Ġse en",
      "Ġcla pped",
      "Ġcu p",
      "i x",
      "o h",
      "ie ld",
      "in s",
      "Ġf ill",
      "Ġsw am",
      "a g",
      "Ġjo b",
      "f r",
      "Ġcolor ful",
      "out h",
      "Ġremember ed",
      "Ġm outh",
      "Ġbig ger",
      "Ġne st",
      "Ġp en",
      "ok ay",
      "Ġp et",
      "Ġjo in",
      "Ġless on",
      "Ġc re",
      "z z",
      "ou p",
      "ro om",
      "Ġwa ved",
      "th is",
      "Ġgra bbed",
      "Ġstay ed",
      "Ġpain t",
      "Ġcon t",
      "Ġcl ot",
      "c le",
      "Ġclot hes",
      "Ġquick ly",
      "ow er",
      "ar t",
      "Ġwor d",
      "Ġwa ited",
      "Ġca nd",
      "Ġte a",
      "Ġbr oke",
      "Ġg ames",
      "Ġca st",
      "Ġb lew",
      "Ġg ent",
      "Ġp ur",
      "Ġs et",
      "Ġenjoy ed",
      "Ġnot iced",
      "ri es",
      "at ion",
      "Ġda isy",
      "Ġm um",
      "Ġbook s",
      "Ġlike s",
      "Ġmu s",
      "Ġpicture s",
      "Ġse a",
      "Ġm ix",
      "Ġhe avy",
      "Ġany thing",
      "Ġal one",
      "Ġg if",
      "as ure",
      "Ġwor ld",
      "Ġho pped",
      "Ġm ark",
      "Ġturn s",
      "Ġy ear",
      "Ġbe e",
      "Ġp ot",
      "d o",
      "Ġto day",
      "d er",
      "or m",
      "Ġb ot",
      "z e",
      "Ġj e",
      "Ġj u",
      "u s",
      "Ġa rm",
      "Ġb ike",
      "Ġt ight",
      "s et",
      "Ġforg ot",
      "Ġbr own",
      "Ġw on",
      "l ucy",
      "Ġtow er",
      "Ġbu ddy",
      "on s",
      "m an",
      "Ġth rew",
      "Ġhim self",
      "Ġfollow ed",
      "Ġr ide",
      "am p",
      "Ġfo x",
      "Ġcom p",
      "le ss",
      "Ġwh ite",
      "Ġ ve",
      "Ġke y",
      "ct or",
      "\" .",
      "p h",
      "r ow",
      "Ġwr ong",
      "Ġmake s",
      "Ġbl ack",
      "n er",
      "Ġbre ak",
      "Ġprin ce",
      "are nt",
      "Ġmus ic",
      "sp ot",
      "Ġde ep",
      "th y",
      "Ġpo l",
      "Ġn a",
      "Ġdel ic",
      "u ed",
      "ve s",
      "ed dy",
      "Ġcast le",
      "Ġp arent",
      "Ġsh aring",
      "Ġwe ar",
      "i et",
      "Ġh it",
[...]
